#version: 0.2
i n
Ġ a
e r
Ġ s
Ġ b
o n
r e
t a
Ġ c
r a
Ġ d
t i
n d
l e
Ġ p
in g
r t
Ġ f
Ġ m
a n
Ġ o
l i
Ġ h
t h
Ġ w
Ġ g
Ġa rt
a r
e n
Ġb y
i c
o r
Ġo f
g h
Ġd e
Ġa nd
t e
r o
a l
s t
Ġ in
ti on
i l
Ġ k
ti c
o l
Ġ re
t ing
Ġ t
e s
u l
Ġde ta
u n
Ġ e
i le
c e
ile d
l o
Ġ v
i t
l a
i s
m a
u s
Ġdeta iled
Ġp a
o t
Ġ li
e d
Ġ th
Ġs h
e l
a t
c h
u t
s ta
e t
Ġ r
in e
i gh
Ġ n
e a
Ġli gh
u r
Ġth e
i g
o m
p h
Ġ on
Ġ j
i d
Ġm a
Ġs t
p er
Ġpa in
a li
sta tion
c k
Ġart station
Ġp o
s s
f ul
o w
l y
r ic
nd er
Ġw i
l u
a m
ali s
ot o
Ġwi th
Ġa n
ra it
Ġpain ting
rt rait
Ġg re
i r
k i
Ġh igh
s h
n e
ta l
c t
a d
Ġ ro
Ġre nder
Ġ en
a te
ol or
Ġf o
ma tic
Ġ 8
g e
Ġ -
Ġligh ting
o d
Ġc on
Ġp h
ow s
i e
Ġin t
Ġgre g
ea u
i m
s e
st ra
Ġph oto
u m
o v
ti ful
eau tiful
Ġpo rtrait
alis tic
Ġb a
nd ing
Ġr ut
Ġt re
p t
Ġh y
k ows
Ġrut kows
Ġen g
Ġo c
en t
Ġhy per
Ġoc ta
Ġocta ne
Ġ il
ar p
Ġrutkows ki
Ġc olor
Ġb eautiful
ric ate
Ġf a
Ġint ricate
Ġhigh ly
i tal
Ġc h
Ġ un
u re
ce pt
Ġc ine
ig ital
Ġtre nding
Ġsh arp
p o
Ġcon cept
Ġd igital
ra n
Ġs c
re al
v e
s y
ra ph
m o
an ta
Ġil lu
Ġligh t
Ġ 0
Ġst y
an t
Ġ 4
c us
Ġb e
Ġcine matic
Ġ le
lo w
Ġfo cus
Ġsty le
st er
Ġm o
Ġeng ine
t ra
Ġh a
Ġillu stra
ar d
u nd
Ġ ra
Ġd ra
Ġun real
k e
Ġs p
h i
u d
Ġs ta
Ġre alistic
p le
i on
er s
un k
Ġillustra tion
Ġm an
r i
Ġ 5
o th
q u
i o
i v
e ar
at er
Ġ y
Ġ l
Ġ la
u p
ar k
Ġa l
ol d
Ġf anta
Ġa r
Ġba ck
b er
g raph
Ġ z
d e
Ġfa ce
et ric
Ġfanta sy
r y
ro und
Ġ 3
Ġ 1
igh t
ro m
id e
! !
Ġc lo
Ġc o
i a
g er
Ġs mo
Ġ lo
Ġt o
Ġb la
Ġdeta il
Ġm u
Ġc a
t er
Ġf i
a w
p unk
Ġa t
alis m
re ss
c i
n ing
Ġcolor s
Ġbla ck
Ġe x
ch a
er y
ul l
Ġn e
ul tra
Ġ te
Ġw ater
Ġs y
es s
Ġ ultra
in s
g round
al l
ger m
a s
Ġc om
Ġart germ
p a
Ġde s
Ġa b
Ġf rom
a p
Ġh ea
te d
Ġs k
Ġb r
Ġdra matic
Ġo il
Ġphoto graph
Ġs u
ut ur
m an
i ma
Ġsmo oth
Ġw ear
Ġf e
utur is
f e
Ġsh ad
Ġd a
Ġback ground
od y
Ġb o
Ġsh ot
v er
Ġ ta
g a
Ġma ster
Ġmu cha
po rtrait
Ġb i
Ġv ery
Ġwear ing
Ġd ark
el l
im e
Ġch a
Ġe le
n a
li c
Ġst ud
Ġe y
ic h
re alistic
Ġ up
Ġg old
on e
i x
Ġs un
ol um
Ġc y
Ġ 2
ig n
la ss
i an
th e
Ġr u
b o
Ġa s
hi te
w or
Ġw in
Ġ is
ra ct
Ġ 9
it y
Ġw hite
r on
Ġdes ign
Ġhea d
ract er
o us
Ġp ro
Ġstud io
Ġv olum
Ġb ody
Ġ 6
Ġd o
ic al
ol o
Ġan ime
Ġf uturis
us h
nd s
ie w
ber punk
at ure
Ġs te
Ġv iew
ir l
Ġy o
g ant
Ġcha racter
c o
i b
ð Ł
p ic
Ġg ra
Ġre d
Ġvolum etric
Ġsy m
om an
Ġm e
Ġey es
Ġw ar
stra ct
Ġele gant
un g
in k
m e
f f
l d
er ed
c olor
ra c
Ġra y
u ra
Ġf low
er e
o k
Ġw oman
l l
Ġw a
u v
ph on
Ġe d
Ġab stract
el y
Ġs o
ro w
qu e
Ġp ix
Ġg irl
Ġma g
Ġclo se
Ġo r
Ġc ov
ie ce
Ġha ir
Ġwater color
a ce
Ġf ull
wor k
re alism
is h
Ġshad ed
Ġb lu
Ġh d
Ġe pic
b le
Ġs ur
a tion
p iece
Ġsym m
a rt
Ġm at
Ġin s
Ġw h
Ġl on
s i
re d
Ġro b
Ġal phon
Ġblu e
Ġbe e
Ġcy berpunk
Ġa le
om e
ran t
a nd
Ġm ar
Ġ (
re n
Ġg lass
u b
Ġalphon se
il m
Ġbee ple
Ġb ar
Ġ )
Ġma de
Ġphotograph y
ti ll
Ġart work
li gh
Ġv ib
Ġn o
is m
Ġfuturis tic
s ing
Ġmaster piece
w ard
Ġ i
Ġj o
f t
y a
Ġc g
Ġf ran
fe ct
Ġfo re
lo p
Ġk e
sh in
m er
Ġmat te
t y
le t
Ġgold en
s on
ph oto
s o
th er
el d
Ġru an
b i
v i
Ġp et
Ġk uv
r is
Ġw lop
shin ov
Ġkuv shinov
m ent
Ġj ia
iv id
a i
or n
Ġsc i
Ġh o
Ġv ivid
u te
ap e
Ġt om
Ġvib rant
Ġ ti
Ġre alism
Ġle a
Ġsymm etric
Ġh er
Ġpain t
Ġm m
Ġc an
on d
ti ve
Ġg ig
Ġro ck
ch i
Ġd is
Ġn ight
t re
Ġro ss
Ġs a
le s
Ġg raph
Ġphoto realistic
ma le
Ġm on
Ġfore st
Ġgraph ic
k ing
m in
Ġsk y
v ing
ad e
Ġlon g
Ġb u
ta iled
de tailed
Ġa c
Ġc ity
g ra
i st
Ġc ent
am e
ligh t
i li
Ġo ver
Ġ ðŁ
Ġg r
s k
Ġdetail s
Ġs till
Ġm ov
anta rt
er n
Ġde vi
si tion
Ġt ran
Ġex tre
Ġdevi antart
li m
l in
Ġc ra
Ġsc en
Ġcom po
Ġc le
Ġf or
ch er
et y
ci ety
i ant
Ġsu per
Ġfe male
w a
Ġsta r
Ġfran k
Ġ :
Ġman ga
Ġyo ung
v ir
Ġp er
Ġp la
Ġcompo sition
x t
Ġwin ning
Ġf ilm
or ph
ro p
Ġfi eld
Ġcg so
Ġcgso ciety
t o
Ġ 7
Ġa d
a el
Ġd y
Ġf lu
Ġsp ace
un ge
Ġe l
Ġj e
Ġ qu
ra l
Ġj am
Ġmov ie
g u
Ġm y
Ġv an
Ġke y
l ant
Ġg ame
Ġan g
Ġen vir
Ġper fect
o s
p ress
Ġw ide
bo x
Ġa ward
k es
Ġrob ot
Ġc ar
Ġjam es
a c
Ġc olo
Ġba g
' s
Ġb ra
le y
Ġg low
s te
Ġ lu
Ġm ich
Ġgig er
Ġm ed
il d
sh aw
Ġhyper realism
Ġsymmetric al
Ġd i
Ġo ut
Ġfe ature
Ġw or
a k
m y
Ġm c
in es
Ġc ell
Ġbr ight
Ġpix iv
b li
Ġh or
Ġpet er
Ġbag shaw
Ġd an
Ġt rac
Ġma le
Ġtrac ing
s tic
t on
u st
Ġg o
Ġk lim
sh i
Ġklim t
v es
Ġw e
Ġg a
Ġdra w
c al
p e
re am
ad s
Ġma k
b a
Ġ u
le n
Ġ im
Ġg od
us ta
er a
an ce
Ġw all
in y
Ġc at
Ġd ress
en s
v as
Ġs m
Ġr h
Ġpo ster
Ġcolor ful
n am
Ġb lo
ti sta
Ġp or
row n
d ra
in ed
Ġb ig
Ġart s
ch ed
Ġclo ud
c ent
Ġa li
Ġs e
Ġf ur
Ġar m
r in
Ġc re
Ġde p
b in
Ġpro f
c ape
i et
orph ic
y p
Ġc am
Ġj es
Ġf lo
li st
Ġh u
Ġk o
Ġe m
on s
Ġm od
Ġand ers
Ġsh ink
ili an
Ġc ute
or d
Ġt ra
un ning
Ġcov ered
Ġmak oto
Ġrh ads
k s
ti st
Ġo ld
Ġpa let
Ġrender ed
gra m
Ġpalet te
t ter
y ing
Ġh an
Ġne on
Ġcan vas
Ġdep th
Ġshink ai
Ġan ima
mo s
g g
i al
Ġg usta
um an
Ġbr ush
n s
or ge
ct ure
ra k
Ġcov er
Ġscen e
Ġmich ael
e p
Ġs im
ne y
Ġglow ing
j sing
Ġf la
il l
Ġe jsing
Ġgre en
Ġil ya
Ġcra ig
Ġjes per
s m
v en
Ġp sy
Ġm ull
Ġflow ers
Ġmull ins
ta n
ing s
Ġh is
Ġbe h
Ġjo h
Ġf ron
il le
Ġgr unge
Ġanima tion
Ġ ir
!! !!
Ġwin d
b eautiful
m ely
Ġk ilian
Ġpo se
ov iet
Ġale x
press ion
Ġali en
a ss
t ro
Ġs oviet
Ġb ea
Ġdo f
o on
w s
Ġg u
nds cape
Ġgusta v
n ate
v id
Ġv e
it ch
ali ty
Ġso ft
re et
Ġg e
Ġextre mely
f i
m on
n y
re s
Ġp ic
at o
am i
Ġsu it
nam ic
o p
Ġ ima
Ġh uman
Ġsy n
Ġor nate
k o
ra ving
Ġeng raving
xt ure
Ġqu ality
Ġa po
Ġp rin
Ġin sta
ck et
Ġtran s
Ġang le
mos ph
v ich
Ġm el
Ġfi re
Ġat mosph
Ġmale vich
u gh
y e
Ġn ad
Ġj a
Ġmo un
que en
Ġinsta gram
Ġnad ar
d a
e lic
Ġg lo
ch an
o que
Ġg hi
Ġst reet
Ġdra g
Ġlo ok
Ġhd r
Ġi rak
Ġghi bli
Ġirak li
Ġpa ste
Ġcine ma
ion al
Ġar chi
Ġmaster ful
orge ous
Ġro man
Ġsta ined
ched elic
b e
y o
Ġa f
Ġg oth
sh ion
Ġca rt
Ġdy namic
Ġje an
Ġwor ld
dra ws
Ġarchi te
c tive
p p
Ġ it
Ġf an
or man
ut ure
Ġcom ic
b r
e v
Ġm us
ma s
ct or
Ġz a
Ġte xture
Ġsk in
Ġho ur
Ġgraphic s
Ġcart oon
f ol
Ġb le
Ġd ri
Ġm id
Ġro om
Ġcloud s
Ġfron t
v a
z e
Ġart box
Ġart fol
Ġbar oque
Ġsyn th
c tion
o od
Ġs ide
sh ing
Ġsta nding
rac tal
Ġross draws
cal yp
u al
ro kes
Ġle ns
Ġla ndscape
Ġz orn
bi us
Ġdraw ing
m et
o graph
Ġs w
Ġf ractal
Ġg orgeous
Ġre s
Ġcon tra
Ġfa shion
Ġmo e
Ġpsy chedelic
al d
Ġv ic
ins ki
the tic
Ġmoe bius
c ra
c ing
l an
p al
li bin
Ġh el
Ġh old
Ġth o
Ġn ature
Ġbi libin
Ġsur real
Ġcent ered
a ting
Ġa m
Ġd ream
Ġst rokes
ima list
Ġarchite cture
Ġh e
is e
Ġins ide
s et
Ġc ry
Ġm in
om orphic
Ġarm or
Ġjoh n
Ġroman tic
e ck
l la
v al
Ġpo st
rop omorphic
Ġapo calyp
Ġpaste l
c lo
h r
k a
Ġbe ks
Ġsp la
Ġins an
Ġhu ge
Ġwind ow
f x
ta ge
th ropomorphic
ous e
Ġcolo ur
Ġhan s
Ġhold ing
f ic
r u
t le
v el
ir d
Ġsp i
Ġmag ic
Ġbeks inski
Ġart ful
Ġart pal
Ġte ch
Ġza tista
z a
Ġs ol
Ġf ine
or y
Ġv in
Ġli ke
el low
Ġma sk
chan ical
Ġcontra st
Ġhel met
d ress
l er
Ġg iant
ri or
Ġto p
Ġhead dress
Ġromantic ism
Ġp unk
Ġw ood
es thetic
b or
r or
Ġint o
Ġlight s
ess ional
Ġme tal
Ġbeh ance
o ut
Ġp ark
st one
ke h
pa per
Ġbo keh
Ġbi ome
Ġapocalyp tic
c ess
ic k
Ġn a
g es
Ġflow ing
Ġcle an
ba cher
Ġs am
Ġe v
ow n
Ġste lla
Ġarts lant
Ġima ge
Ġa esthetic
an ge
li t
ar tist
ro id
Ġmo hr
io us
Ġmohr bacher
in t
Ġp e
at ch
Ġst unning
Ġra in
Ġwar rior
Ġwall paper
Ġp ers
ur g
Ġj ere
wa ve
Ġmel ting
Ġtho mas
Ġjere my
i es
j o
re en
Ġf in
li a
ch ess
Ġsmo ke
one ment
Ġble nder
g o
k er
re e
Ġg fx
Ġsh o
Ġman chess
Ġy ellow
Ġclo th
Ġfuturis m
Ġgfx artist
n ight
s p
u tion
z y
ti an
at ura
Ġha un
Ġcle ar
Ġj ung
per a
ie val
Ġpix ar
Ġwh o
a nder
ran ge
Ġfeature s
Ġprof essional
h a
o id
Ġh al
Ġli fe
Ġra d
Ġdis ney
Ġbu ild
Ġflu id
clo se
Ġinsan ely
z ki
ol ution
ad zki
ple s
Ġz aw
Ġmoun ta
Ġzaw adzki
h u
s u
er t
Ġc ub
an g
Ġt y
Ġenvir on
Ġenvir onement
Ġmod el
, ,
s a
t or
Ġp en
Ġm i
Ġan thropomorphic
Ġillu min
iv er
Ġda vid
Ġko pera
i th
s ide
Ġw itch
Ġk aw
Ġre tro
Ġth at
Ġan ton
Ġmag ical
Ġmed ieval
b al
p i
Ġhyper detailed
Ġsc reen
h l
w ater
in i
Ġs it
en ce
la in
ry lic
ĠðŁ İ
ass o
Ġpic asso
Ġres olution
er ful
Ġre f
la nd
Ġma x
ura i
Ġlea ther
Ġalex ander
bor g
c ci
o g
er ent
Ġd r
Ġm ist
Ġh ard
Ġk on
Ġshad ows
Ġale na
Ġty ler
Ġenviron ment
Ġillumin ation
Ġa en
Ġf ra
ar le
en g
Ġsh i
id a
Ġmo on
Ġste am
Ġmar c
Ġac rylic
Ġim pression
Ġsam urai
Ġaen ami
u e
Ġw al
ic an
na tion
ust in
Ġpor ce
Ġhaun ting
c y
h igh
Ġs n
Ġf ade
ro s
hi ko
Ġar ti
Ġir is
ĠðŁİ §
a th
n er
Ġc el
Ġg i
Ġin f
Ġpa per
sta l
Ġlo is
ci ent
Ġda y
Ġed lin
Ġlea ves
Ġblender nation
f uturis
g lass
an a
Ġca st
Ġda hl
gu e
Ġu nder
Ġblo om
Ġfade ev
b um
d y
Ġa ki
il y
Ġon e
Ġba arle
Ġhyper realistic
Ġla ke
Ġwa ve
Ġfeature d
Ġmc queen
Ġfur ry
Ġve ctor
Ġporce lain
d i
w l
w ell
ar ge
sh o
Ġrutkows k
Ġex p
Ġbo ok
olo g
Ġcam era
c ul
i um
li s
Ġn orman
Ġmo ss
Ġman n
Ġc ol
Ġp ur
Ġf uture
Ġsun set
Ġsci fi
Ġdri ed
Ġimpression ism
b y
f ilm
i er
t s
Ġ es
Ġa mer
on es
Ġh ouse
us ion
Ġst ra
Ġcy borg
sk y
Ġvin tage
c a
i ta
Ġc rown
li te
en se
Ġin d
Ġt ri
Ġn ation
Ġtre es
Ġyo sh
Ġti me
Ġcry stal
b s
Ġ ic
Ġf ren
Ġe ar
is s
Ġwar m
Ġwa x
Ġrock well
Ġmy ce
Ġflo ating
Ġbiome chanical
futuris tic
er ic
nd y
Ġp al
ro om
Ġt w
Ġfo x
Ġja cket
Ġyosh ida
Ġ &
in d
Ġc la
Ġpa tter
ur b
sh ot
Ġillustra ted
Ġstar s
Ġaki hiko
Ġpur ple
Ġmyce lia
i or
z ed
Ġs il
or m
il li
Ġsh ap
el an
Ġr id
Ġgre y
Ġwh elan
bi ent
Ġgoth ic
Ġam bient
Ġamer ican
i ve
re t
Ġpain ter
Ġal l
Ġco at
Ġdes ert
Ġray tra
Ġwa y
Ġsit ting
Ġnation al
Ġfren ch
b all
Ġ ]
Ġm ark
il la
Ġk ink
Ġre al
Ġli t
Ġfo rt
Ġkink ade
Ġd on
ple x
Ġgra iny
ff y
Ġed ges
Ġhor ror
Ġvic tor
Ġhal f
Ġpainter ly
Ġb l
Ġe lite
Ġv ille
us s
Ġte m
Ġsim on
Ġville ne
d le
o re
z z
in ity
Ġb rown
Ġd im
Ġp lant
Ġm ut
Ġh il
al le
ly ing
a ch
k y
x y
y s
Ġn atura
Ġsc out
ber t
Ġlo ve
Ġbea ch
Ġtech n
Ġrad iant
Ġbuild ing
b ra
c er
i el
Ġw ond
Ġand roid
ut ter
ur y
Ġint er
Ġar ch
Ġsun glass
Ġglo bal
Ġraytra cing
c as
e k
i k
k in
Ġ [
Ġs ma
Ġh ar
tion al
us e
od ak
low e
Ġha nd
Ġha nds
Ġextre me
Ġatmosph eric
eck er
ird s
Ġref le
Ġsteam punk
i f
nd ecker
Ġw ea
al a
et ch
Ġle ye
Ġte am
Ġglass es
Ġmid dle
Ġsunglass es
Ġsma shing
Ġleye ndecker
b ul
i p
j a
Ġt er
ea d
Ġfa ir
Ġsur realism
Ġflu ffy
ac y
Ġvictor ian
p en
Ġ _
ar y
Ġin k
es e
Ġsh ape
Ġan cient
Ġconcept ual
Ġlight ning
Ġl arge
Ġcast le
h erent
r um
u ve
Ġc i
Ġp an
Ġde ep
ver ti
les ome
Ġgod d
Ġatmosph ere
Ġwho lesome
iver se
Ġway ne
Ġvillene uve
Ġ tal
Ġa st
on ed
Ġp ink
ro ugh
Ġk im
Ġv is
id er
od d
Ġal an
Ġco herent
Ġsk etch
Ġbr u
Ġnatura l
m i
Ġa ut
li g
Ġg ard
Ġcon te
pt ure
Ġun iverse
Ġne bul
Ġpor tal
pp y
cra ft
Ġmax imalist
Ġfort ress
c on
l ing
al bum
st o
Ġn ov
sh ar
Ġbe an
Ġfocus ed
ke y
Ġsta n
Ġpet ros
Ġaf shar
high ly
Ġarti stic
Ġci berpunk
c re
Ġs ato
Ġf er
Ġg er
ful l
Ġro und
Ġta ble
Ġartwork s
Ġad verti
sm all
da ily
Ġlook ing
Ġfan box
Ġspla sh
Ġarch daily
m en
t ure
t ue
Ġ low
Ġ iv
ti o
ol a
Ġsc ul
Ġra tio
Ġback lit
Ġta n
ren t
gu y
Ġsn ow
Ġsato shi
Ġadverti sing
c es
d u
f ord
Ġs ea
Ġc or
Ġd en
Ġde mon
Ġj urg
and oned
Ġbar lowe
Ġdrag on
Ġkaw acy
Ġplant s
Ġnov el
Ġjurg ens
c om
g an
in a
Ġb or
Ġc ur
rt h
Ġf eng
Ġf lying
Ġg ear
Ġk a
Ġk ren
Ġk night
Ġz hu
ris ograph
Ġmon ster
Ġover w
Ġel son
Ġdi re
Ġgodd ess
Ġscul pture
e x
v y
Ġb us
Ġb io
Ġw ange
Ġth rough
et ry
Ġfo g
arp unk
Ġl ine
Ġlo ish
lic s
wor d
ush art
Ġ) ,
Ġcolo red
Ġsm all
Ġprof ile
Ġtechn olog
Ġwange chi
v ed
Ġa ir
Ġm ic
Ġele ct
Ġsymm etry
wa y
Ġmut u
Ġoverw atch
f fect
h y
Ġa ss
Ġs na
Ġp lan
Ġf ig
Ġma ndy
um n
Ġbe ard
Ġy ear
!! !
ia ra
art h
ub ble
Ġher o
Ġsol arpunk
Ġfra z
Ġd ustin
Ġf ion
Ġg h
Ġe ffect
Ġth irds
et ta
et ti
Ġn in
Ġn guy
Ġle ge
Ġsta tue
Ġne xt
Ġta il
Ġru le
Ġwal king
Ġaut umn
Ġfion a
Ġnguy en
o c
w e
Ġa re
Ġb ed
Ġb ur
Ġd nd
Ġf ura
im ir
Ġle vel
Ġbi ker
Ġgra in
ff inity
Ġclose up
Ġmed ium
Ġcloth es
cul ar
bra nd
Ġinter ior
Ġtal l
Ġbor is
Ġfura ffinity
f ace
p la
Ġb at
nd a
Ġp u
Ġm um
Ġo range
Ġo wl
Ġe arth
Ġv o
Ġr ich
Ġma ch
lu cent
Ġtre e
Ġback ligh
round ed
ins on
Ġab andoned
Ġflow er
Ġor c
let on
Ġwe ta
Ġpers on
Ġsil ver
Ġgard en
Ġstan ley
Ġlege nds
brand t
Ġbackligh ting
Ġ rt
Ġc ro
Ġw at
Ġg ta
ate d
stra tion
ov e
Ġch e
Ġch ar
Ġmo ody
Ġey e
Ġdo g
uv eau
ines till
Ġmod ern
Ġprin cess
Ġspi ral
Ġwood en
l or
Ġ ;
Ġd iv
Ġf ish
th y
Ġand re
Ġv alle
Ġba u
hi p
Ġl ush
Ġmu ted
Ġfi lig
ci al
Ġke ith
Ġcent ury
Ġhor se
Ġcam p
Ġtexture s
Ġev il
pi red
hy per
Ġfraz etta
Ġmum ford
Ġrt x
Ġvalle jo
Ġfilig ree
d ed
p ple
Ġs ing
Ġs al
Ġm or
Ġch iara
Ġmo ti
Ġsp ider
Ġla s
Ġab ove
ap an
Ġste el
photo realistic
ines e
Ġtrans lucent
Ġexp lo
Ġkren z
Ġbau tista
a ut
c ro
c ute
d ie
g y
l usion
p ing
v ers
Ġs ch
Ġc ir
Ġde f
el s
Ġpain ted
Ġpo w
ir k
Ġar c
pa rent
Ġsu b
Ġed ward
Ġsur rounded
Ġti m
Ġlea gue
Ġlu cas
Ġgu cci
Ġpark inson
Ġmounta ins
Ġlucas film
Ġ /
Ġs le
Ġc ris
Ġc inestill
nd o
Ġh at
en ta
Ġt odd
ce d
Ġsh e
sh ed
ent s
Ġl ines
rom e
Ġca ra
Ġsk ull
Ġgra y
Ġins pired
Ġdis tan
ac es
br ush
b ric
v in
z imir
Ġb ro
Ġc ard
Ġd irk
Ġd zimir
li d
Ġt ow
us k
ur ing
pa in
Ġup per
Ġno uveau
Ġsynth wave
ret ty
Ġcris p
Ġdzimir sky
o ple
s c
Ġ ern
Ġs er
Ġp ar
Ġp ot
Ġg ala
Ġk ing
Ġpa rt
Ġli sa
Ġj apan
Ġfa bric
Ġch inese
Ġsp aces
Ġne w
Ġdesign ed
sm ic
Ġspla tter
Ġcub ism
Ġtw o
Ġhil de
c u
d er
p per
r ie
y al
Ġp in
Ġp ea
Ġf igh
Ġg la
Ġde co
it s
at ter
ut ral
Ġne utral
ron aut
Ġpro du
Ġhuman oid
Ġden is
Ġdiv ine
Ġspaces hip
Ġfigh ting
k an
n i
r it
t to
Ġs qu
Ġc ushart
Ġf ea
en e
ic a
il lu
Ġpa ul
at or
Ġbe ar
Ġsta ples
Ġlo go
Ġex tra
ical ly
ond z
Ġdan iel
Ġga ther
Ġfla re
Ġdof us
Ġsol ondz
Ġmounta in
illi am
Ġiv ory
Ġplan et
Ġnin ja
vers i
Ġern st
illu stration
d on
d en
e m
Ġ queen
Ġs um
re y
Ġd own
Ġh ill
Ġw illiam
ic tion
or wave
Ġde an
Ġv i
Ġsh iny
Ġj aw
Ġro yal
Ġlo t
Ġto oth
pa ce
pa ga
ap orwave
Ġpro paga
Ġlon ely
Ġher pen
Ġge m
Ġlook s
Ġjung le
Ġshi rt
Ġfair y
Ġast ronaut
Ġorc ish
Ġpropaga nda
c le
d t
j es
k en
n ed
¼ Į
ï ¼Į
Ġ x
Ġ ï¼Į
in ing
er sta
Ġh ell
Ġw it
Ġe t
ut op
Ġsc atter
Ġsty li
Ġha eck
ke leton
Ġal bert
Ġbi ersta
Ġcg i
Ġpla ying
Ġpe ople
Ġscreen shot
Ġwond erful
Ġnebul a
Ġwat son
Ġprodu ct
Ġhaeck el
Ġbiersta dt
f ish
g s
j e
l r
Ġ |
le ss
Ġp retty
Ġf ri
Ġf ight
Ġw u
Ġg round
Ġre lics
Ġv aporwave
Ġli mi
id en
Ġgre at
Ġsc a
aw n
Ġex pression
Ġbo x
cket s
Ġdrag ons
Ġcolour s
Ġpers pe
Ġshap es
Ġfig ure
Ġmach ine
Ġlimi ted
. .
a b
b re
c ola
d in
f tian
z ing
z ard
an tic
Ġw et
Ġw ild
Ġk odak
Ġt or
Ġv illa
is tic
Ġn vid
Ġco u
and ro
Ġgig antic
Ġrock y
Ġscen ic
Ġel lis
Ġsm ile
gg ed
Ġcinema to
cra ftian
Ġdream y
Ġcub e
Ġstra nds
Ġic e
Ġpal ace
Ġrid ing
utter f
Ġwit cher
Ġperspe ctive
Ġnvid ia
f a
f all
p y
ta bli
Ġf iction
Ġg ian
Ġde ad
st on
un t
ot t
Ġma ss
Ġst one
Ġpo rt
Ġphoto sho
Ġsta tion
Ġco smic
Ġcom plex
pa int
Ġda ve
Ġbo y
Ġray s
Ġel f
ial s
Ġrefle ction
g en
j andro
p s
Ġ utop
er ing
Ġb re
Ġb li
on y
Ġc e
Ġf ro
Ġo ther
Ġv a
am mer
Ġan at
Ġch ri
Ġsp e
ber g
Ġco ral
Ġste ph
Ġed die
Ġso ul
row a
Ġale jandro
Ġcre ation
Ġsim ple
Ġsho rt
Ġjapan ese
Ġvilla ge
Ġgian cola
r ing
Ġa v
Ġa ra
Ġd orman
Ġp ol
Ġw ings
Ġg en
Ġg un
Ġof fic
te s
il ing
ric h
Ġgre ek
Ġrender ing
Ġla b
Ġta r
na b
ron o
Ġme ndo
Ġso lid
Ġsa v
Ġgr im
Ġmi ya
urb an
Ġlit tle
Ġbl ur
Ġgear s
tabli shing
Ġmendo za
b lin
c il
j i
Ġb utterf
Ġd rop
Ġm en
Ġw ell
Ġk nab
ol ph
Ġre c
Ġpa st
om orph
Ġphoto realism
pt y
Ġch ris
ri al
Ġfi ber
photo graph
Ġbra ss
gg io
Ġir on
Ġtrans parent
va ggio
Ġdon ato
Ġsimon etti
Ġlove craftian
Ġfer din
Ġferdin and
d ing
e th
m ed
s ion
Ġ +
er gy
Ġs word
Ġc lass
Ġde lic
al low
Ġt u
us tic
sta r
am orphic
Ġan amorphic
Ġfa ces
tra ctive
Ġha ute
Ġla w
Ġal va
rom an
Ġco ol
Ġco uture
Ġhea rt
Ġmy stic
Ġblo od
Ġem pty
Ġmoti ves
Ġphotosho ot
b la
c an
Ġs and
Ġb ud
re z
Ġc row
le d
Ġm et
Ġg ate
st y
Ġv ar
Ġsh a
Ġsh ow
Ġru gged
bo ard
co le
Ġmag rit
Ġfor m
Ġgo blin
Ġfan art
Ġday light
Ġunder water
Ġtem ples
Ġdim ens
Ġgather cole
Ġreflection s
Ġalva rez
Ġmagrit te
c olo
g on
m po
t in
Ġd unge
Ġw atch
un ner
Ġsh allow
Ġj ones
Ġst ru
Ġst ory
Ġen ergy
Ġmo use
hi z
ri an
Ġat tractive
Ġbi olum
Ġpro cess
Ġdo cci
Ġdi ff
ust rial
era tive
ep y
Ġgu y
Ġpen cil
Ġes tablishing
iss ance
Ġgala xy
Ġhilde brandt
Ġfea th
Ġet sy
Ġdocci u
h d
r il
Ġ ~
ra ry
Ġm ix
li e
Ġh ear
Ġre ad
Ġt ub
Ġv er
Ġpa le
el f
Ġn ik
Ġwi zard
Ġro versi
Ġch i
Ġra nd
Ġla dy
Ġz h
Ġta tto
Ġdo ing
Ġyo shi
co re
Ġwar craft
Ġrob es
min ous
gra fic
Ġpla te
Ġad am
Ġdress ed
ograph ic
ball s
rum p
Ġass ass
Ġbat tle
Ġpu ff
Ġsal v
Ġcara vaggio
Ġcinemato grafic
Ġanat om
mpo rary
Ġnik on
c roman
f o
t ran
w ide
Ġa ge
Ġs ar
Ġs ad
Ġs keleton
Ġb an
Ġb all
ra d
ra tion
ra ma
li ke
Ġh r
Ġe nd
Ġpa s
Ġr unning
om etric
Ġma cro
ali st
ad or
Ġfa cial
ri x
wor ld
ron ic
Ġwa shed
Ġbeh ind
di tional
Ġind ustrial
Ġear s
Ġcla sh
uss ian
Ġconte mporary
Ġtan k
pain ting
Ġvi king
Ġutop ia
Ġsalv ador
h ouse
r im
Ġ us
Ġ raph
Ġa ma
Ġb ow
Ġb iden
Ġp ile
Ġm ush
Ġo p
Ġg ar
ol f
Ġre na
Ġt iny
un ny
Ġpa olo
Ġr is
Ġsc ary
mo ur
Ġcan on
Ġim pa
Ġwall s
Ġem ma
Ġanders on
ord er
Ġtra ditional
Ġprin t
Ġmin imalist
Ġshap ed
Ġtem ple
cre te
Ġcor re
Ġbio punk
Ġmor ning
Ġbutterf ly
Ġhear stone
Ġpas cal
Ġrena issance
g ed
t t
u th
Ġa er
Ġs or
Ġb al
Ġf all
an ime
Ġo ce
Ġh ip
Ġt rump
it z
Ġth ick
Ġr y
Ġr hiz
Ġn ot
ur ney
Ġj en
Ġj ustin
ad o
Ġcon crete
Ġbe ing
und y
und am
Ġca ve
Ġca sp
Ġfe min
ga i
ðŁ Į
Ġgra nd
Ġme g
Ġho sp
urg undy
Ġhands ome
Ġbru ta
Ġcamp ion
Ġfri ed
Ġmush room
Ġoce an
Ġrhiz omorph
Ġcasp ar
Ġfemin ine
Ġhosp ital
b on
c ted
e st
g irl
h ead
m od
n o
o u
p ro
u z
w ar
Ġs tic
Ġs ome
Ġc al
Ġf re
Ġf at
Ġm ead
Ġw es
Ġk ar
Ġre t
la nds
Ġli p
Ġn ic
Ġj on
id ent
Ġma jes
Ġro yo
Ġhighly detailed
Ġto y
Ġte eth
Ġstud ded
Ġor gan
ish ed
Ġrob e
Ġmon a
Ġbra ckets
Ġlu is
len t
Ġcre ature
Ġit s
Ġcomic s
Ġcolour ful
com plex
Ġport ra
Ġbre ath
Ġsoul s
Ġdunge ons
Ġfeath ers
Ġtub es
Ġpuff balls
croman cer
Ġraph ael
Ġfried rich
Ġmajes tic
Ġorgan ic
e f
h e
i z
i te
o f
o lic
u nder
Ġs ti
Ġd ali
Ġm il
Ġe th
Ġhigh light
Ġha ppy
qu id
Ġla ce
Ġla co
Ġwar s
si ere
Ġmar vel
ren ce
Ġsci ence
Ġmon et
Ġwe st
Ġga ston
Ġsm iling
Ġpic ture
pp ed
Ġvic to
Ġpatter n
Ġbus siere
Ġelect ronic
oc ado
Ġlaco ste
b b
b lo
f fe
m es
n ess
v is
Ġa y
er o
ta ry
Ġt ur
ce ful
Ġv ol
el ly
Ġn er
Ġn gai
ur be
ows ki
se y
Ġco st
Ġlo st
Ġlo ts
Ġca nd
Ġdo ctor
Ġgra ss
ff i
Ġmar ble
Ġho od
Ġje w
Ġje ff
Ġgo rey
shi p
Ġarts pace
Ġtexture d
con cept
Ġsnow y
Ġsna kes
Ġmass ive
Ġara b
Ġoffic ial
Ġdelic ate
Ġstru cture
Ġaer ial
Ġhighlight s
urbe x
a re
d igital
g ing
p or
u ki
w ton
z og
Ġ urban
Ġb order
Ġc up
ra y
Ġd awn
li sm
Ġh im
al ly
st ro
Ġre ne
Ġr iver
Ġst ubble
Ġpo p
Ġpo sing
am ond
ki yo
Ġcon f
Ġint ense
im al
Ġba s
Ġla ugh
!! ,
as ley
Ġsun ny
Ġcy ber
ere al
Ġmag ali
Ġher zog
Ġcent er
Ġpla y
Ġbra z
Ġu kiyo
Ġge ographic
Ġprin ting
Ġhe wton
Ġger ard
Ġsing le
Ġmet ro
Ġrand olph
Ġcorre ct
Ġjen ny
Ġcost um
c les
c lusion
f an
g al
i red
u a
Ġs ph
Ġb ut
re l
re alist
ta king
Ġd ust
Ġp y
Ġm ul
li es
li stic
Ġk usk
Ġe mo
Ġe ating
Ġwi res
ir ror
ad er
Ġha ired
Ġclo ak
Ġco zy
Ġhea ven
bo ss
Ġvolum e
Ġmar io
Ġfore ground
Ġang el
Ġmich el
Ġarm s
!!!! !!!!
da y
Ġdire ction
Ġpow erful
Ġdistan ce
Ġpot rait
Ġcoral s
Ġsteph en
rowa ve
Ġav ocado
Ġbruta list
Ġret rowave
Ġmetro po
Ġkusk ov
b el
e ye
f ore
h ol
k odak
s es
u rant
Ġa round
Ġp up
rt y
Ġm er
Ġm irror
an kan
Ġw ern
Ġg lor
ar os
Ġin st
Ġt v
Ġth is
Ġth ree
sta urant
Ġma ya
am p
Ġle gs
Ġha s
Ġultra detailed
Ġsun light
ib le
Ġgra di
Ġac cent
lin t
Ġsuper man
Ġdi amond
Ġcre epy
Ġflo or
Ġsim p
Ġjoh an
Ġmetal lic
ath an
Ġpan o
Ġdire cted
Ġbeard ed
Ġsqu are
Ġstyli zed
ab stract
gen erative
Ġfro g
Ġsav ille
Ġdrop ping
Ġassass in
Ġry den
Ġbreath taking
Ġsnakes kin
Ġwern er
c ut
d is
r ings
s en
Ġ urbex
Ġa pple
Ġs et
Ġs old
Ġb ad
on g
Ġg ro
or u
Ġof f
Ġre staurant
is ies
Ġr im
Ġoc clusion
Ġle mon
Ġsp ot
Ġar tist
ter est
Ġcom p
Ġshad ing
Ġda isies
Ġcha os
Ġas ian
Ġwin ner
Ġste fan
Ġme ch
Ġme cha
Ġme chanical
ink ing
Ġbu zz
ist urb
Ġad rian
Ġdy son
Ġgo gh
Ġfla t
tan t
fi eld
atura ted
Ġbuild ings
Ġtri ppy
rum ent
Ġvis ual
Ġconte st
Ġair brush
Ġmic ro
Ġdef ini
Ġhill s
Ġtor so
Ġheart stone
Ġmystic al
Ġzh ang
Ġcal m
Ġfre sh
Ġjon athan
Ġcostum e
Ġinst rument
isturb ing
l ine
m ing
r us
s ed
s ur
s ki
s ci
er land
Ġs era
Ġs ril
on ze
Ġc od
ra m
ti sho
Ġp rono
Ġm ater
Ġo li
tion s
Ġre p
Ġt own
es el
ul p
un ced
Ġe g
Ġe mer
it er
Ġj ing
Ġch ild
Ġch rome
sy m
ster ious
Ġmo uth
Ġy or
Ġne cromancer
Ġwater fall
Ġultra realistic
Ġhea vy
Ġbr onze
Ġshad ow
ver n
Ġbi z
bo oru
ous and
ðŁ Ĳ
phon es
Ġed ge
Ġsa tisho
Ġbu st
Ġac tion
Ġcar ved
Ġdi esel
itch en
Ġworld boss
Ġmus e
Ġlife like
Ġmarc in
Ġbru ce
Ġsplash es
Ġdemon ic
Ġcro ss
Ġfish eye
Ġandre as
Ġlas er
Ġbli ss
Ġtu rt
colo ur
Ġimpa sto
Ġhip ster
Ġlip kin
Ġnic o
Ġsti pple
Ġborder lands
Ġmetropo lis
Ġspot light
Ġdefini tion
Ġsera ph
Ġsril ankan
Ġprono unced
b ar
b ow
j ima
o tic
u el
Ġ ian
Ġs i
Ġb ald
ti s
Ġo minous
Ġh en
en ie
ic orn
Ġk an
Ġre bel
ul t
ma sh
Ġli quid
Ġon ly
Ġj u
Ġj elly
Ġma ke
Ġst orm
um b
Ġsc and
ri es
Ġy a
Ġsmo king
Ġda vin
Ġta vern
Ġis land
Ġso ph
Ġno ise
Ġi ve
orn ate
Ġmy sterious
Ġdan cing
Ġsm ith
yp tian
Ġbea st
Ġmoun ts
br id
Ġcloth ing
close up
Ġdr inking
if ying
ina v
Ġgh enie
em ma
Ġgem stone
Ġlaw rence
Ġama zing
Ġgar mash
Ġris ograph
Ġsph ere
Ġaccent s
Ġsimp son
Ġjing na
Ġscand inav
' t
m ov
n et
y uki
Ġs ed
Ġb er
on de
re tro
ta gon
ti me
an ch
li sh
Ġh ammer
Ġw olf
Ġg undam
en berg
te l
st ing
st op
Ġin ce
Ġk y
Ġk at
Ġpa th
ut y
Ġj im
id es
Ġba nd
Ġman y
as on
Ġcom ing
Ġhead phones
Ġsym bo
Ġvib es
Ġad v
press ive
Ġrobot s
Ġcar bon
Ġmus ical
Ġsw irl
Ġjohn son
Ġspi kes
Ġspi res
ange lo
Ġfin ials
Ġic on
Ġsna ke
Ġlas ers
don ald
Ġsum mer
istic ated
Ġother world
tran s
Ġfall ing
Ġglor ifying
Ġyor k
Ġdavin ci
Ġsoph isticated
Ġsed u
stop ian
! ,
a ge
b at
d f
f in
f orm
o en
o or
p ulp
s n
z ation
in ess
Ġs elf
Ġb en
Ġc ow
Ġp re
Ġh orn
en tist
ro t
il s
Ġk lint
ma x
ma il
Ġth er
et te
Ġn u
ph one
per s
ct s
Ġph oen
Ġil lusion
Ġun icorn
mo unt
Ġha zy
Ġsp ark
Ġla u
Ġla te
Ġbla de
Ġca p
cha racter
Ġne o
Ġbo b
Ġis mail
Ġdo or
Ġste ve
Ġgra ffi
Ġsur face
Ġmat rix
ub e
Ġsa ul
Ġdy stopian
Ġse uss
Ġfla g
Ġev ery
og lu
Ġfra me
Ġhil ma
Ġka ta
Ġelect ric
pla te
Ġser ene
bla ck
Ġstic ker
Ġeth ereal
Ġvol ley
Ġconf ident
Ġlaugh ing
Ġmichel angelo
Ġbuzz cut
Ġeg yptian
Ġince oglu
Ġotherworld ly
Ġphoen ix
Ġgraffi ti
c ia
g et
n it
p et
z ine
Ġa u
Ġa per
Ġa me
Ġs la
Ġs po
Ġc ron
Ġd isturbing
li on
li ty
en tal
Ġde v
Ġde ath
Ġde stro
Ġt in
Ġt one
Ġt umb
ul ar
Ġe ld
Ġe os
Ġr ing
Ġn iel
Ġma nd
Ġst ri
ad ing
um my
Ġhy brid
Ġsc ott
oth er
Ġla nd
Ġal bum
ber ry
Ġto k
aw ard
man uel
ga zine
Ġyo u
row ing
Ġpix els
ble s
son a
Ġmy th
Ġblo ck
Ġfur sona
gg y
ill er
Ġpsy ch
Ġmel anch
Ġmus k
Ġdri ving
Ġsw e
za ki
Ġev ange
su it
Ġmi ke
Ġpatter ns
thy st
Ġsch e
Ġdistan t
cu ro
Ġpea ceful
Ġscatter ed
Ġwet plate
Ġmiya zaki
Ġdiff erent
Ġmix ed
Ġread y
Ġchi aros
Ġjelly fish
Ġmake up
Ġscandinav ian
Ġswirl ing
df old
fin ished
max imalist
Ġaper ture
Ġame thyst
Ġcron enberg
Ġtumb lr
Ġchiaros curo
c at
e la
l ar
n own
Ġs ign
Ġb orn
Ġb lin
Ġc iv
Ġd in
Ġd usk
ti al
ing er
Ġf unny
Ġm ili
an thropomorphic
Ġo bs
Ġh ad
or cy
Ġk is
Ġk itchen
tic al
Ġre m
Ġre y
la y
Ġpa t
Ġpa rad
Ġli ss
Ġr i
Ġr on
Ġr unner
Ġma s
ck ed
ric an
Ġwi re
Ġro of
Ġfa st
Ġun if
Ġun finished
Ġsc an
Ġsc ar
ster n
Ġla m
Ġfanta stic
Ġca ustic
ter n
Ġne il
Ġpro por
Ġsym b
Ġjo sh
vi ta
Ġflu o
Ġbra in
Ġlu x
Ġout side
Ġwor king
Ġgo od
Ġdraw n
Ġdraw ings
Ġko jima
Ġem manuel
Ġtra vel
Ġbea uty
Ġfractal s
Ġcry ing
Ġmin ted
ha g
cy berpunk
Ġwea ving
Ġter ri
hyper realistic
Ġcir cu
Ġchri sto
Ġop u
itz ky
Ġay ami
Ġmuse um
tagon ist
Ġsedu ctive
Ġvolley ball
Ġtok yo
Ġmelanch olic
Ġblin dfold
Ġciv ili
orcy cle
Ġparad ise
Ġliss itzky
Ġunif orm
Ġcaustic s
b ig
f ine
g ers
k ini
o il
r up
s ical
s lr
u ck
w h
Ġ q
Ġ å
Ġ range
Ġb ird
ra te
ti es
Ġp i
Ġp ris
Ġf am
Ġf oto
Ġm ot
th ing
Ġg lit
Ġg urney
ar re
Ġt ru
ul k
Ġv r
ma g
Ġpa ss
Ġsh ining
ch ing
Ġn ar
Ġn es
ur se
ss y
am pi
Ġan imal
Ġro co
im sical
um p
Ġba len
Ġbe nding
Ġmo ons
Ġsta len
Ġz e
Ġz brush
Ġsu bs
ima listic
Ġbo u
Ġbi kini
bo ok
Ġor nam
Ġjo y
Ġjo ining
Ġfran z
ris e
ade lic
Ġover g
ĠðŁ Ĳ
os a
Ġbra wl
Ġglo be
Ġaf rican
Ġmus cular
Ġmid night
Ġrain bow
Ġ] ,
Ġdon ald
Ġbl onde
Ġwond erland
men tal
Ġcur ly
Ġtechnolog ic
Ġchar lie
Ġexplo sion
Ġbro ken
Ġpin terest
Ġscatter ing
Ġcou ch
Ġchri st
Ġdimens ion
Ġprocess ed
Ġanatom ically
Ġner dy
Ġgradi ents
Ġpano rama
Ġcomp ut
Ġturt le
Ġhen ry
Ġself ie
Ġlate x
cia ga
nit ure
Ġmili tary
Ġchristo ph
Ġcivili zation
Ġglit ch
Ġbalen ciaga
Ġstalen hag
g ar
i zed
k u
k et
m al
n old
p an
p us
u chi
v ery
Ġa man
Ġc li
Ġp res
an cient
Ġo pen
li an
Ġh olo
ar ing
ar oid
en ing
en ko
Ġk od
Ġk and
tic les
es ted
ma ster
Ġn or
Ġn at
Ġn ear
ur face
Ġj an
Ġj ak
Ġpo or
Ġfo ggy
Ġhyper maximalist
ant s
ant ern
Ġle e
Ġl antern
ry ce
Ġco pic
Ġmu tant
Ġca ndy
Ġex pressive
Ġne ck
Ġcom mod
Ġbr id
Ġphotograph ic
Ġwear s
Ġbo ot
Ġsur realist
Ġwh a
Ġwh imsical
Ġno ir
Ġfran co
mer ged
ade m
gu er
Ġperfect ly
len ce
Ġfur niture
res cent
Ġapo c
be e
br ight
ze ta
Ġvin ci
Ġmist y
Ġinf ested
Ġes cher
ca ke
Ġcrystal s
Ġear rings
Ġwea p
Ġnebul as
Ġarc s
Ġsub merged
Ġpot ter
Ġpart y
Ġfight er
Ġcrow d
Ġtatto os
Ġadam us
uz zy
bb it
Ġevange lion
Ġsche me
Ġkis sing
Ġjosh ua
Ġopu lence
Ġroco co
Ġsubs urface
osa ur
Ġcomput er
Ġaman o
Ġjak ub
Ġcommod ore
b an
c is
c ity
c co
f la
f ying
m ich
p tic
t ris
w o
w ond
Ġa z
Ġa ga
Ġs li
Ġb ran
Ġb urgundy
Ġb ryce
ta ka
Ġc lan
Ġd j
Ġd slr
Ġp il
Ġh i
Ġh ow
Ġw as
Ġg el
gh es
al f
Ġt en
Ġt enta
ce l
la ndscape
Ġli ving
Ġth ere
Ġsh y
Ġj ason
Ġma sc
Ġpo in
Ġan other
Ġgre n
ki es
ov a
Ġhyper ornate
Ġun k
Ġle ft
Ġra l
qu o
Ġl ord
Ġsy d
Ġultra fine
Ġab out
Ġwin ter
Ġis sey
me er
Ġmon g
Ġmon key
Ġac id
Ġcre ed
Ġhu ghes
Ġfron tal
Ġtrans ce
pp ing
clo ud
Ġwood s
Ġdr one
olog y
Ġstra w
Ġtri bal
ubble s
pla y
Ġpar ticles
Ġgla mour
Ġmiya ke
Ġshow ing
Ġyoshi taka
Ġcand le
Ġemo tional
Ġsold ier
Ġmater ials
mov ie
Ġfluo rescent
Ġchristoph e
Ġkod ach
Ġtenta cles
Ġmasc ot
c ious
f ra
f low
g le
g oth
j u
k ura
l arge
m ar
n star
p sy
t te
Ġ ã
in ning
in ian
Ġa we
Ġs light
Ġb il
Ġb et
Ġb ott
Ġc ut
Ġp ra
Ġp ants
Ġf uzzy
Ġh ot
Ġg al
Ġg ad
Ġg ummy
Ġg inger
Ġde ca
ro matic
al thy
st unning
Ġk en
Ġk ne
ol s
ol y
Ġt ones
Ġe u
Ġe gg
Ġe ven
it o
Ġth in
Ġsh utter
Ġr ustic
id ian
ali ptic
tal s
Ġro ugh
od a
Ġcon tro
um ble
ov sky
Ġba se
Ġba by
Ġun i
Ġle on
low n
Ġha ze
Ġra w
Ġsta ge
ion ate
Ġman sion
Ġar nold
Ġco sp
Ġca bles
ter ior
aw a
Ġte tris
Ġta k
Ġcha ir
Ġme ta
Ġdis rup
Ġac c
Ġbra un
Ġmc b
Ġwe ird
ream ing
ance d
Ġcre pus
Ġja ck
Ġglo ssy
Ġsw amp
Ġpe tals
Ġfin nstar
Ġsho ul
Ġrad ial
Ġreal m
Ġvis ion
Ġbur ning
Ġplanet s
Ġstyli sh
Ġva st
Ġgen er
Ġsha ven
Ġver meer
Ġcontemporary art
Ġdoctor s
Ġrebel ka
Ġadv anced
sn ow
Ġniel ly
Ġobs idian
Ġrem brandt
Ġri fe
Ġmot orcycle
Ġpass ionate
ampi re
Ġcli ff
Ġfranco ise
Ġapoc aliptic
Ġaga in
Ġgren ier
Ġunk nown
Ġeven ing
Ġcosp lay
Ġdisrup tive
Ġcrepus cular
Ġfinnstar k
a ble
b roid
c ur
f er
g ent
h o
h ammer
h ero
m el
o st
p rin
r ig
x i
Ġ â
Ġ ide
er ie
Ġb ul
Ġb ard
Ġb ill
Ġc alle
Ġd ie
Ġd ense
Ġd war
nd ence
Ġp ig
Ġh q
Ġg ille
Ġg rowing
il t
Ġre ef
Ġv ene
it t
it or
la ce
ma te
el ry
ch e
Ġst range
Ġpo ol
ss el
ric k
am oto
Ġro cha
Ġen chan
Ġba k
Ġch as
Ġbe er
Ġle ica
Ġmo sa
qu ar
Ġar station
ry ing
Ġab sur
ap ix
Ġsu e
Ġbo ss
Ġdo om
Ġgra ce
ok er
Ġgirl s
Ġlon don
si ve
Ġno ble
Ġjo e
let ta
Ġbu ilt
ĠðŁ ĳ
Ġfor ce
Ġpla za
ac tic
Ġlu men
Ġmak er
Ġem broid
ep ing
Ġwind ows
Ġgu ita
Ġtrans form
jo e
Ġfin ely
Ġinf inity
Ġstra ight
Ġind oor
Ġtri p
Ġpatter ed
Ġall uring
Ġrefle ctive
Ġmic key
!!! ,
Ġbed room
Ġexplo ded
.. .
Ġce cco
Ġrec tan
Ġbud get
Ġdimens ional
Ġtatto o
Ġsor cer
Ġmushroom s
Ġlost fish
Ġjew elry
Ġbraz ier
Ġpy ram
Ġbiz arre
colour ful
Ġnico letta
Ġkat su
ela rt
Ġterri fying
master piece
Ġbrid ge
cel lent
Ġral ph
Ġmong rel
Ġagain st
Ġide elart
Ġgille ard
Ġvene tian
Ġmosa ic
Ġabsur d
Ġcecco li
Ġpyram id
d og
e pic
f lu
g iant
j ol
k ovsky
o ol
o pa
s mos
u ched
u lics
u ffe
z on
Ġa ar
re an
ta tion
Ġc ad
ra x
ti mate
Ġp ine
Ġm iss
Ġm iller
Ġo m
li p
Ġh ulk
th ul
Ġart ma
ar o
ar s
ic e
Ġk ind
Ġe ach
lo s
Ġth ousand
ch es
ch hol
Ġr ight
Ġn urse
ur ie
Ġma gazine
Ġst ern
per fect
Ġpo int
am an
Ġan n
Ġan ato
Ġgre asley
ki mich
Ġro m
Ġfo od
pt op
Ġhy dra
Ġmo tion
Ġra ven
Ġra pper
Ġsta re
Ġl us
Ġla y
Ġla urie
Ġar mour
Ġz en
etric al
Ġco o
Ġco smos
Ġca th
ning ton
Ġex terior
Ġex cellent
ins ky
fe male
Ġta ka
Ġstud y
Ġsun rise
ðŁ į
Ġwar hammer
ok a
Ġmag ni
Ġwh ile
Ġmar ia
Ġti ger
Ġsa kimich
Ġbu chhol
Ġsuper hero
Ġad o
Ġel len
Ġqu int
Ġkey shot
Ġcar l
Ġhor iz
Ġse xy
Ġflo ra
Ġfla sh
Ġmus ic
Ġmin imalistic
Ġna ga
su per
Ġpen nington
Ġshi u
ros co
Ġinf usion
Ġhorror s
Ġsea s
Ġbus iness
Ġtechnolog ies
Ġmic rosco
Ġbat man
Ġsle ek
Ġtow er
Ġpin up
Ġsum m
je ur
Ġbli zz
Ġpol aroid
Ġtar kovsky
Ġvar ga
Ġform s
Ġwatch ing
Ġwatch es
Ġprocess ing
Ġyoshi yuki
Ġsad amoto
Ġbow ater
ðŁĮ ¿
Ġmeg apix
Ġhood ie
fore st
Ġpup pet
Ġya ma
Ġband ana
Ġther mal
Ġkand insky
quo ise
goth ic
Ġgad ot
Ġdeca ying
Ġmcb ess
Ġgener al
Ġdwar f
Ġguita r
Ġtransform ers
Ġrectan gle
thul hu
Ġartma jeur
Ġhydra ulics
Ġtaka shi
Ġmagni fic
Ġsakimich an
Ġbuchhol z
b urgundy
c ov
c ant
d o
d am
e u
f s
f it
g r
k night
n ir
n ick
o ch
t om
y ss
Ġ #
Ġa pe
Ġs lim
Ġb d
Ġc ot
Ġd om
Ġp ony
Ġf al
Ġf ul
Ġf rie
Ġm jol
an na
Ġw ill
Ġg es
Ġin se
Ġin timate
il h
Ġt un
ul ation
Ġe a
Ġv fx
la w
ed s
Ġsh op
Ġr ussian
ur er
Ġj r
Ġpo li
Ġan th
ne ck
Ġro bo
Ġro ses
ge m
im an
Ġphoto real
Ġrut owski
po sed
po ket
Ġsc o
Ġle d
Ġle vita
Ġmo ore
Ġha ya
Ġra t
Ġl in
Ġla ying
Ġal one
Ġz ana
Ġco pper
Ġat ta
Ġta ke
Ġey tan
bo y
olo red
Ġblue berry
Ġfran cis
bi lity
Ġsci entist
Ġsa tan
ĠðŁ Į
Ġcra zy
Ġlu d
ak er
Ġmc g
Ġhor s
Ġga ussian
Ġse ven
Ġem press
Ġfla mes
Ġve ins
Ġge ometric
Ġstreet s
Ġpaste ll
Ġshi p
cas tic
Ġwea ther
cre ature
rth ern
Ġeffect s
Ġdef ense
Ġsca red
Ġsca les
Ġcomplex ity
photograph y
can ny
Ġanatom y
Ġsar castic
pro f
Ġkar l
Ġtur quoise
Ġplay er
Ġcod ex
Ġchild ren
sym m
Ġseraph inian
Ġber ries
Ġelectric ity
Ġscan ned
Ġbou guer
Ġfranz zeta
Ġneck lace
Ġpil ot
fra me
Ġembroid ered
Ġaar on
perfect ly
Ġhoriz on
Ġblizz ard
gr unge
Ġmjol nir
Ġges ell
Ġlevita ting
Ġhaya o
Ġseraphinian us
Ġbouguer eau
a tive
b ie
c ence
d rop
g n
h uman
j un
m us
m oto
m ons
v on
v ray
in o
Ġa p
Ġa ly
Ġa way
Ġs ense
Ġb ion
Ġb ones
Ġb irds
Ġb umble
re ad
ta x
ta in
ta il
Ġc rono
Ġc lown
Ġd io
Ġp le
Ġp ear
rt ex
Ġf u
Ġf ru
li tter
Ġh ome
Ġg as
Ġg litter
Ġart gem
ar m
or ic
te m
ro ss
Ġin c
tic olored
Ġre to
Ġt ro
Ġt ron
es ome
un e
Ġe asley
Ġv ampire
Ġli am
Ġth r
Ġsh use
el ing
at ron
Ġr ud
Ġr ise
Ġn ix
Ġthe ir
Ġj ord
Ġst o
Ġst or
Ġpo ss
ir ly
sh e
Ġro se
ge o
ge st
Ġcon qu
Ġint ern
im ming
Ġba th
Ġfa cing
Ġch ev
Ġch ick
Ġsc reaming
Ġle iter
Ġle xi
Ġsp ir
Ġsp lit
Ġsp rig
ud e
Ġy von
Ġl an
Ġback pa
graph ic
Ġz o
Ġz ip
Ġco ok
Ġlo rax
Ġca py
Ġat lan
Ġex otic
pa rt
Ġab yss
Ġfe et
Ġda b
Ġta rot
co at
ðŁ ļ
Ġwa ves
Ġbar bar
Ġno rthern
eld ing
Ġho pper
Ġdis play
Ġac ross
Ġkey frame
Ġang ry
Ġmed ita
Ġmc donald
Ġsw irly
Ġaesthetic ally
Ġprofessional ly
hu a
Ġkaw s
water color
Ġcol los
Ġfuture s
Ġfuture punk
Ġcla y
illi vray
Ġmut t
ach e
Ġlightning s
Ġbio light
Ġvo rtex
enta bility
pain ted
Ġground water
bre aker
Ġpol y
Ġgrim mer
Ġsha ved
Ġbiolum in
Ġus ing
Ġmeg atron
Ġmul ti
Ġmul ticolored
Ġdiesel punk
Ġbeast s
retro futuristic
Ġsymbo lism
Ġsign s
adem ia
wond erful
Ġtransce ndence
Ġken ku
Ġtak ato
Ġshoul der
itor ial
Ġenchan ted
Ġtrip od
Ġrom ita
Ġlus cious
Ġnaga oka
Ġyama moto
Ġmagnific ent
Ġful ly
Ġatta ck
Ġmcg illivray
symm etrical
Ġbion ic
Ġbumble bee
Ġcrono breaker
Ġdio rama
Ġreto uched
Ġshuse i
Ġrud nick
Ġnix eu
Ġjord an
Ġyvon ne
Ġbackpa ck
Ġzip pers
Ġcapy ba
Ġbarbar ian
Ġcollos us
b lu
c ar
d ream
f il
f anta
g el
g ate
h ai
m p
m ond
n owski
p lant
t wo
u ache
v ig
w ear
y m
y ed
y dy
z ka
Ġs in
Ġs on
Ġs ig
Ġs ir
Ġb ot
Ġb od
Ġb rom
Ġc ig
ra ys
Ġp ul
Ġp ut
Ġp ond
Ġf le
Ġf ung
Ġf red
Ġo h
Ġh id
Ġh am
Ġw en
Ġg or
Ġg ri
Ġart h
Ġart ur
or ve
al t
al or
al ak
st ru
st entability
Ġk ai
Ġk ushart
Ġt orn
Ġe tern
Ġe erie
lo tte
Ġv ers
Ġv ita
Ġpa blo
Ġsh in
Ġsh ark
el on
at zka
Ġr if
ea k
ur ch
Ġon sen
Ġj un
Ġj et
Ġj oker
id l
Ġwi elding
Ġan t
Ġro aring
se xy
Ġhyper real
Ġun canny
Ġle ydy
Ġmo st
Ġmo od
Ġsp ra
hi ro
qu is
Ġal bin
Ġal phone
Ġback drop
Ġz uz
Ġz atzka
ide o
Ġco ins
Ġmu g
Ġex per
Ġne nd
Ġultra hd
Ġsu stentability
Ġta ken
Ġbi bin
Ġcha ract
one y
Ġis o
Ġhead set
Ġste pi
ura l
Ġed itorial
Ġor ig
Ġwh e
Ġwh at
Ġmar s
Ġmar ta
Ġbar n
Ġi tem
Ġi orve
ape st
Ġtom alak
Ġti ef
Ġsa kura
Ġcent ral
rop ical
Ġcar rying
Ġwor k
Ġmc quar
Ġdan booru
Ġgo at
Ġwe b
Ġu fo
Ġarts ation
Ġarts pan
Ġse ction
Ġko idl
ons ai
Ġtra ced
Ġtra pped
ille d
Ġglo om
Ġdrag an
Ġfan cy
Ġmus can
Ġza ha
Ġmid day
Ġtho ma
Ġna vig
Ġrain ing
Ġfin al
Ġpen tax
Ġmi hai
Ġref rac
Ġgi ra
Ġexp lor
Ġcol la
Ġcol lar
Ġind ian
Ġpal m
Ġsil k
illa c
Ġhar ry
Ġvis or
Ġgh ost
we en
Ġvo gue
Ġcro ptop
Ġchar lotte
Ġsch ool
Ġcara mel
Ġskull s
Ġtow ering
der unner
Ġgem s
Ġtar nowski
Ġbud apest
Ġgate s
Ġbiolum ine
Ġdiff usion
Ġban ana
Ġmead ow
Ġkar ol
vis ion
Ġbas ti
Ġbraz ilian
Ġheaven ly
Ġfresh ly
ides cent
Ġdev il
Ġpsych adelic
Ġdin osaur
Ġhad id
Ġlux ury
Ġgood man
Ġblindfold ed
Ġpris matic
mag ic
Ġturtle neck
Ġnat geo
Ġlantern s
Ġgel booru
Ġbet ween
Ġgal actic
Ġcontro l
Ġabsurd ly
Ġcad illac
Ġseven ties
creature s
Ġstor my
Ġposs ess
Ġdab rowa
Ġcapyba ra
fanta sy
Ġrif le
Ġalbin o
Ġzuz anna
Ġcharact ers
Ġstepi en
Ġiorve th
Ġtief ling
Ġmcquar rie
a h
a er
b ot
b rant
c io
c ert
d z
d ark
e le
e ve
f lies
g b
g ly
g as
g ined
h am
l on
n t
p g
r ze
s ol
s cra
w al
w hite
w ood
x ies
y er
Ġ æ
in al
Ġa ura
Ġa part
Ġs aturated
Ġb on
Ġb el
Ġb oth
Ġb ull
Ġb onsai
re nder
Ġc arp
Ġd ru
le mon
Ġp lo
Ġf illed
Ġm ature
an o
th ered
Ġg et
Ġart sy
Ġart star
Ġart ube
en a
en ed
en sive
Ġand rze
ro photography
Ġin n
Ġt rim
ul tiful
ul aw
un ter
lo ver
Ġv en
is cence
ma d
ot oman
ed ding
ch enko
Ġr ick
Ġj ump
Ġma c
Ġma rt
Ġma id
ck s
Ġpo ke
ow l
Ġan ge
Ġan tagonist
ne tic
Ġro ad
Ġcon cert
im ed
um ber
Ġcolor ized
Ġch urch
ve la
Ġle hr
Ġle ader
ster dam
Ġra bbit
hi st
ud io
iv ers
ater al
Ġla st
Ġz dz
Ġz ulaw
Ġbla derunner
Ġca fe
Ġbo at
Ġbo red
Ġele mental
Ġru ins
Ġhead piece
ib i
ff ic
ok y
row s
Ġwh ich
Ġno se
Ġi f
Ġi i
Ġi ta
min ator
Ġsky scra
Ġcar s
Ġout fit
Ġdan ny
Ġwe althy
Ġu hd
Ġse c
Ġcre ative
Ġflo od
Ġflo ral
Ġir idescent
Ġbea ultiful
Ġstreet wear
Ġsw imming
Ġfashion able
Ġhe len
Ġinsan ity
Ġmagic ian
Ġmask s
Ġpe pe
Ġrain forest
Ġhaun ted
Ġhal o
Ġwal ter
Ġarti fa
Ġexp ensive
cul ine
ca st
Ġpal mer
Ġ[ ...
ip ulation
Ġpan cake
Ġast rophotography
Ġger ald
Ġround ed
Ġbur ger
Ġche f
Ġandre a
Ġmoti fs
Ġexplo ding
vin tage
Ġgala xies
Ġhilde brant
Ġgla di
Ġsteph an
Ġchris tian
Ġclass ical
Ġstory board
Ġsar gent
Ġcyber netic
Ġemer ald
Ġsimpson s
Ġkata na
Ġdestro ying
Ġmyth ology
Ġmas culine
Ġcircu its
Ġq i
Ġfam ily
Ġexplosion s
Ġten th
Ġã ĥ
Ġmeta ph
Ġdie go
Ġsorcer er
Ġmicrosco pe
Ġsumm its
Ġpony tail
Ġrobo tic
Ġhors er
Ġglitter ing
Ġthr one
Ġatlan tis
Ġbiolumin iscence
Ġpul lover
Ġwen jun
Ġarth ur
Ġkai ju
Ġetern al
quis ite
Ġnavig ator
Ġbiolumine cant
Ġandrze j
otoman ipulation
Ġzulaw ski
a gh
a st
a ult
b u
f or
h en
m s
o ting
o tage
s an
s ch
s um
s word
s pace
v f
w oman
z u
Ã ¸
Ð ¾
Ġ er
Ġ id
Ġ lying
in n
er ted
Ġs an
ra red
Ġd ar
Ġd vf
Ġm es
Ġm usta
an ing
Ġo versi
Ġh p
Ġh ier
Ġh ind
Ġw re
Ġw ow
Ġw ard
Ġg ran
Ġg ym
Ġde l
Ġde ter
Ġand y
te ly
Ġk ime
Ġk ill
ol as
Ġt on
Ġt urb
un ette
Ġe ly
Ġv al
Ġv el
Ġv ik
Ġv ideo
la nder
la imed
us hi
Ġli on
ed a
ed ron
Ġsh eng
ch id
ut ch
Ġr iv
Ġn et
Ġn ich
ea ting
Ġthe y
Ġthe med
Ġma d
Ġma ge
Ġst ron
Ġpo ses
ss on
nder s
ir by
Ġro d
Ġen tran
Ġfo otage
Ġph one
stra l
um m
ov ic
Ġtre jo
Ġfa vela
Ġch ess
Ġsc umm
ard o
ard s
ke m
Ġsp ri
Ġsp agh
qu i
io ration
Ġy u
Ġar cher
aw k
Ġex quisite
all ery
Ġbr unette
Ġda ta
Ġbo oth
Ġta e
ell er
Ġcha ins
Ġbody suit
Ġdo re
color ful
Ġso und
Ġor ban
Ġwh ere
ren s
Ġher bert
Ġdis co
Ġnight ma
Ġnight sky
lin ed
Ġstar gate
Ġpla tin
Ġspace time
Ġqu inn
Ġlu minous
Ġga iman
ba ma
Ġim mer
Ġcat s
Ġcloud y
Ġjes us
Ġhu ang
Ġko rean
ill ar
Ġsyn thetic
Ġja zz
Ġnature l
Ġvin cent
Ġfin ish
ha nds
Ġarti fic
Ġinf rared
sho ck
Ġbook s
Ġear ring
ys ical
Ġlove craft
Ġhar ris
Ġter ra
Ġpan fil
Ġiv an
Ġtan ned
Ġcur vy
Ġbio shock
Ġline work
Ġass ault
Ġsing er
Ġsle eve
Ġtow ers
kan ye
jes us
Ġgreat sword
Ġcou ple
Ġspe cial
Ġsav chenko
Ġread ing
Ġmil k
Ġmil ky
ffe e
Ġoli ver
Ġseraph im
Ġkan ye
Ġju lian
Ġpath way
trans parent
Ġben ch
Ġnu kem
Ġspark ling
Ġevery thing
Ġeld en
Ġnar row
Ġze us
Ġornam ental
Ġjoy ful
Ġoverg rown
Ġboot s
Ġpoin ty
Ġkodach rome
Ġuni que
Ġvision ary
Ġado be
Ġflash light
och rome
Ġsatan ic
Ġlud ovic
prof essional
Ġple as
Ġpear l
Ġspir it
Ġsprig ger
blu e
plant s
eak ers
Ġgira ud
ele ct
Ġapart ment
Ġdru id
Ġplo uffe
Ġpoke mon
hist oric
Ġzdz is
Ġartifa cts
Ġãĥ »
Ġoversi zed
Ġdeter ioration
Ġvik tor
Ġnich olas
Ġspagh etti
Ġpanfil ova
b ov
b ubbles
c ti
c ri
f ar
f tis
g i
h s
h ar
h edron
i yo
o i
p lan
p illar
s till
s aturated
t odd
t lander
u ous
v ous
w i
y on
y pe
z an
z illa
Å Ĥ
Ġa i
Ġa te
Ġa sy
Ġa stral
Ġs anta
Ġs ens
Ġb ush
ta r
ta it
Ġc ory
Ġc thulhu
ra s
ra pped
Ġd utch
Ġp r
Ġp iece
Ġf un
Ġo ct
Ġo tom
li zed
Ġh ol
Ġh ide
th ousand
Ġw edding
Ġw rapped
Ġg ond
Ġg own
Ġg ha
en ne
gh t
Ġde c
te ll
te xture
il an
Ġk u
Ġk id
Ġt ropical
Ġv s
Ġv ines
la tin
ma id
ot ta
ot ype
Ġli me
Ġth or
Ġth under
Ġsh ell
Ġr ings
Ġn ine
Ġthe me
ig tlander
Ġj up
Ġma p
Ġpo ckets
Ġwith out
Ġan ti
sh er
Ġen large
Ġfo ur
ge ther
ge orge
ge tation
ie g
ie vous
stra n
Ġhy ung
Ġeng lish
po rt
mo us
Ġbe at
Ġbe fore
Ġle ib
Ġmo h
Ġha ssel
Ġl lo
up e
Ġar my
Ġco unt
Ġlo ftis
Ġto tal
Ġto mas
Ġmu ch
Ġfi lip
aw esome
Ġne ther
Ġte al
Ġcom ple
Ġdes erted
ap ple
Ġda rth
ody namic
Ġbo sch
ver se
Ġdark ac
Ġru b
Ġru sty
Ġgra vy
rac otta
ura te
ok s
Ġor chid
ish a
Ġno ah
Ġti ki
Ġrock s
Ġrock et
min al
Ġsky rim
Ġgr ievous
Ġmov ing
Ġsuper saturated
Ġpla ted
gu in
Ġmy st
os ai
Ġdi rty
Ġout lined
Ġwor m
Ġim po
ord ing
Ġhan ga
Ġgusta ve
Ġcover ing
!!!! !
Ġve getation
Ġge latin
Ġsuit s
Ġima ging
Ġglo ves
Ġcinema ic
Ġit o
Ġhour glass
met ry
Ġsw an
ald or
Ġam ber
Ġam sterdam
Ġsho oting
Ġkaw ana
ue z
Ġcol le
Ġtw i
Ġrid ley
Ġdim ly
Ġhar ley
Ġter minator
Ġter racotta
Ġka ur
Ġtechnolog ically
Ġyear s
Ġvo igtlander
Ġche st
Ġcir rus
Ġpow er
Ġpow ered
Ġsle eping
Ġpea ks
Ġdeco ration
Ġfea ther
ony mus
Ġspe cular
med ium
bla d
Ġvar ia
tin o
Ġbiolum ines
Ġcreature s
Ġpup py
Ġmer maid
Ġcod ing
Ġrep eating
sym metry
Ġky osai
Ġpre historic
Ġhorn s
Ġswe ater
Ġpropor tion
gar ov
Ġwha len
Ġweap on
Ġbran ches
Ġhow e
Ġleon ardo
prin t
Ġbul garov
flu id
Ġann ie
Ġea stern
Ġsco ia
Ġconqu er
Ġintern al
Ġchick en
Ġmedita ting
Ġbot tle
Ġfung i
Ġgri ff
Ġvita ly
Ġexper im
Ġorig inal
Ġrefrac ted
Ġexplor er
wal ter
Ġmart in
Ġmetaph ysical
Ġentran ce
Ġspri tes
Ġsound cloud
Ġnightma re
Ġimmer se
elect ron
ÅĤ aw
Ġate y
Ġotom o
Ġgha ilan
Ġjup iter
Ġenlarge ment
Ġhassel blad
Ġdarkac ademia
Ġkawana be
' '
b ad
c ine
c id
c ub
g undam
i ers
k ade
l us
m ic
n el
s d
v ar
w ing
¤ ĸ
Ģ °
Ġa x
Ġa qu
Ġs at
Ġs ke
Ġs kies
Ġb unny
Ġc lu
Ġc ater
Ġc old
Ġc all
Ġc lim
Ġc rus
ra t
ra ta
Ġd ol
Ġd ia
Ġd uring
Ġd urer
ti m
Ġp br
Ġf utur
Ġf ell
Ġm un
Ġo w
Ġh all
th on
Ġw ine
Ġw ise
en i
en ti
ic z
or oid
or he
Ġk ni
Ġk irby
Ġk aldor
Ġre ma
Ġre se
Ġt und
Ġt ris
es cent
ul ti
un a
un es
Ġv or
Ġv hs
is on
ma tion
ma de
ma cul
ma cro
Ġth ai
Ġsh ish
el le
ch t
ch u
et er
Ġr ia
Ġr pg
Ġn ai
Ġn ano
ea king
ur s
Ġj ar
Ġj ust
Ġst ones
ck lin
Ġpo sition
lu o
sh Ã¸
Ġro set
Ġcon sum
Ġph ili
ie f
im mer
Ġun ivers
ran k
mo red
Ġmo th
Ġra m
Ġdra per
ud i
ud ly
Ġsta cked
ion s
Ġy enne
Ġl gb
Ġal ma
Ġal bre
Ġback light
Ġco b
Ġco ffee
Ġco upe
Ġto ys
Ġto gether
Ġmu rata
Ġex hi
Ġne ga
Ġte a
Ġte tra
Ġwater house
Ġhea rth
Ġbr itt
Ġda eni
Ġbo cklin
Ġta le
Ġdark ness
ell ing
Ġup on
ron es
Ġpro te
Ġpro tagonist
Ġyo ur
ðŁ ı
Ġwar hol
art z
Ġalphon s
Ġale n
Ġmar ling
Ġno pe
Ġti ght
Ġover ear
ĠðŁ ¦
ĠðŁ į
ĠðŁ ı
ern ess
Ġcra ft
wa re
Ġpla ce
Ġel on
Ġout er
Ġout line
Ġgo uache
Ġwe stern
Ġga ugh
ads word
Ġim macul
Ġgod ward
ens en
Ġse e
Ġse en
Ġem ile
Ġtra ffic
Ġve iled
itch ev
Ġge orge
Ġge isha
Ġima ges
Ġprin ce
Ġfire flies
be c
Ġjean s
Ġarchite ct
br u
Ġjohn ny
Ġapocalyp se
Ġwood blo
Ġna ta
Ġna gel
Ġsmoke y
sp ider
Ġdr um
Ġunder ground
Ġcrown ed
Ġpatter ned
Ġportal s
sto ck
Ġfer na
Ġger alt
Ġden ning
Ġvo orhe
Ġandre i
Ġtim es
Ġbro oks
Ġbro adsword
Ġpin o
je ff
Ġwild erness
Ġspe ed
Ġgen erative
fo ot
Ġend less
Ġrhizomorph s
Ġcup ping
Ġoli ve
Ġemer ges
Ġnico le
Ġkan ji
Ġhammer shÃ¸
Ġspo oky
Ġstri p
Ġron ald
Ġpropor tional
Ġtravel er
Ġcircu it
Ġholo graphic
Ġnor ris
Ġwha le
Ġweap ons
Ġbott om
Ġshutter stock
Ġacc urate
Ġâ Ģ°
Ġkatsu hiro
Ġom ens
Ġkind kade
Ġcath olic
Ġmegapix els
Ġfrie nds
Ġanth ro
Ġcig ar
Ġhid den
stru ction
Ġjun ji
Ġwhe at
Ġpossess ion
aer odynamic
Ġflood ed
bu ild
Ġhier onymus
Ġsheng luo
Ġplatin um
Ġspirit ual
bov itchev
Ġmoh awk
Ġtomas z
Ġtwi light
Ġvaria tions
Ġbiolumines cent
Ġexperim ents
cine matic
Ġcater pillar
Ġkni fe
Ġrema ins
Ġtund ra
Ġshish kin
Ġria bovitchev
Ġnai ve
Ġyenne fer
Ġlgb t
Ġalbre cht
Ġnega tive
Ġhearth stone
Ġgaugh an
Ġimmacul ate
Ġwoodblo ck
Ġvoorhe es
ĠhammershÃ¸ i
a ra
b it
b ur
b old
b ody
c ch
d an
d es
e w
f uture
g ia
g orgeous
h ou
k h
k ana
l ers
m ist
m less
o per
o ke
p pa
s un
s ia
s cape
s elf
t en
u ka
z o
z s
z en
Ġ uv
Ġ era
in f
Ġa ven
Ġa go
Ġs wa
Ġb es
Ġb one
Ġb ros
Ġb room
Ġb ala
Ġb ubbles
re k
ta to
ta ils
Ġc ult
ra i
Ġd u
Ġd ro
nd alf
le g
le tal
Ġp ed
Ġp el
Ġp ri
Ġp ill
ing uez
Ġf il
Ġf ir
Ġm ur
Ġm oney
Ġo b
li x
Ġh it
Ġh ides
Ġh sia
Ġw r
Ġw ere
Ġg ia
Ġg ang
Ġg ina
Ġg allery
en cio
ic ular
or ia
gh ini
Ġde te
Ġde pic
ro gant
ro bot
st ure
st udio
il op
Ġk ik
ol ation
Ġre gal
Ġre sting
ul ov
Ġe c
Ġe p
Ġe ver
Ġe ilh
Ġv oid
la x
ma p
ma t
us a
Ġli mon
Ġth ings
Ġsh aman
at uring
sta nding
Ġr j
ine craft
ur n
ur ious
ig ter
om i
om in
ph y
Ġj ad
Ġma ple
Ġst ream
am ed
ad a
Ġro ger
Ġen ki
ate board
ov itz
Ġhy ster
Ġfa ther
Ġch ic
Ġch eng
Ġch ilop
ure d
Ġlight ening
Ġle br
Ġle ading
Ġmo rty
Ġra ce
Ġsp awn
Ġsp ring
Ġsp eaking
ud y
ple ts
ri er
Ġar sen
graph y
de ma
Ġclo ck
Ġco ck
Ġto ast
Ġto cch
Ġmu rak
ress ive
Ġex posed
Ġne ver
Ġte en
Ġte ars
as a
pa ra
Ġsk ateboard
Ġfe aturing
Ġda vis
Ġbo g
Ġta co
Ġta dema
ga ndalf
Ġcha otic
na sty
ian o
Ġas encio
Ġhead shot
Ġpro p
Ġpro je
Ġste al
Ġyo ga
ðŁ ĩ
Ġgra ceful
Ġwar ner
ere um
Ġpix el
Ġrob by
Ġbar net
Ġ) .
Ġno tes
ya ma
Ġho gan
Ġho tel
Ġnight fall
Ġsa ber
Ġmon um
Ġmon ochrome
Ġforest s
Ġac icular
ist ing
Ġover cast
ĠðŁ ĩ
Ġmov ies
Ġscen ery
Ġfor cus
Ġstar ry
Ġdy nasty
Ġflu x
Ġqu iet
Ġlu min
Ġlu cid
stic k
ton er
Ġga udy
Ġim plants
dra matic
Ġse eds
Ġdep p
Ġflo rent
Ġtra der
gg ressive
Ġgu ard
Ġge sture
fi re
Ġima gined
Ġmoun ted
yo ung
Ġaf ter
Ġsw iss
lan e
Ġhe x
Ġcry eng
Ġmin imal
ru ck
bor ghini
cess ing
Ġrain coat
Ġwho le
ha ven
su its
Ġdr igter
cy borg
Ġinf lu
Ġday toner
Ġcol a
Ġtri ang
Ġtw isting
Ġmark er
Ġbl ond
lowe en
Ġgard e
cre epy
du ke
Ġcur ved
Ġmonster a
Ġass et
Ġspider man
Ġsle nder
Ġcard s
Ġpart s
ni te
ni ster
Ġlot us
Ġjungle punk
cle ar
Ġce iling
Ġva cher
Ġav ant
Ġver tical
Ġadam s
Ġassass ins
Ġimpa ct
mod el
pro cessing
Ġpy thon
Ġsold iers
sci entist
Ġbiz ley
bat tle
Ġcow boy
Ġnu clear
Ġkata kana
Ġau ro
Ġsla sher
Ġdestro yed
Ġlam ps
Ġlam borghini
Ġsymb ols
Ġlux urious
Ġanimal s
Ġchrist mas
Ġholo gram
Ġnor iyo
Ġsli ce
Ġthere min
flow ers
psy ch
Ġbil al
Ġbil ateral
Ġbott les
Ġegg leton
Ġchair s
ho le
Ġpig tails
opa th
zon a
Ġlay ered
ðŁį İ
Ġcot tage
Ġdom inguez
Ġinse cts
Ġtake uchi
Ġfru it
Ġsto ck
Ġchev rier
Ġlan nister
Ġsig ma
Ġput in
Ġoh rai
Ġant lers
Ġgloom haven
Ġbasti en
Ġjump suits
Ġmusta che
Ġstron g
Ġzdzis ÅĤaw
far lane
Ġasy rank
Ġsens ual
Ġoct opath
Ġhide yuki
Ġgond or
Ġleib ovitz
Ġcount ry
Ġrub ber
mic key
Ġcrus ader
Ġfutur ist
Ġtris s
Ġferna nd
Ġlgbt q
Ġago ston
Ġbala zs
Ġdro plets
Ġhsia o
Ġdete ctive
Ġkik uchi
Ġeilh art
Ġlimon ick
Ġhyster ically
Ġchilop oda
Ġlebr un
Ġtocch ini
Ġmurak ami
Ġproje ction
Ġcryeng ine
Ġnoriyo shi
Ġasyrank ulov
a a
a ver
b ster
b ell
c tic
c ting
c art
c ube
d nd
e y
e on
e vi
f at
f ron
g ame
g inning
h ea
h ap
h ito
i per
k ushi
m or
m um
m iss
n ic
o range
p ix
s w
s ea
s ure
s ome
u stration
v ib
x ions
y the
Â ©
Ġ *
Ġ Ð
Ġ Â©
Ġa ri
Ġa ya
Ġa ggressive
er es
er oth
er ina
Ġs en
Ġb ubble
re w
ta le
ta ble
Ġc r
Ġc orn
Ġc ream
Ġd ull
Ġd roid
ti g
ti re
Ġp iz
Ġp iano
Ġf unk
Ġm ol
Ġm om
an e
Ġo o
Ġo as
li er
li ta
Ġh on
Ġh ere
th o
Ġw o
Ġw ing
Ġw ye
Ġg on
Ġg am
Ġart em
ar chi
en ki
Ġde al
Ġde gen
te c
te ble
al opa
st reet
st orm
il ma
il ustration
Ġk i
Ġt up
Ġt su
es ha
lo go
Ġv ent
la teble
us ed
us ep
Ġpa ge
Ġli st
ed ral
Ġth rones
Ġn i
Ġn un
ph oria
Ġj od
Ġj um
id ers
Ġma ti
ali en
lu m
Ġan na
ir rel
Ġro ll
Ġro sa
Ġro bert
Ġro tt
Ġcon rad
Ġph otomanipulation
Ġint ere
im bold
ov en
Ġtre as
pt uous
Ġch er
Ġch im
Ġch ry
Ġch ibi
po calyp
Ġdigital ly
Ġsc ythe
Ġbe ginning
Ġha ve
Ġha ving
Ġsp an
Ġsp ar
Ġsp rings
Ġsp read
Ġsta tes
Ġl one
Ġla va
Ġal ps
Ġar k
Ġar mored
Ġar rogant
ber to
Ġz ero
Ġz dis
rom eda
ger y
Ġlo s
Ġlo ading
Ġlo lita
Ġca pa
Ġex ci
Ġex ist
Ġne oc
Ġte xt
ess ica
Ġultra realism
pa ren
Ġdes olation
Ġbr it
fe ction
Ġshad es
Ġbi rth
Ġey ed
the mum
Ġis ometric
Ġpro t
Ġstudio s
co lia
Ġme m
Ġme gan
me len
Ġwa ist
work s
Ġblu th
ble stone
Ġsur f
Ġjo urney
Ġke ffi
so ft
bi es
ai i
Ġlea f
Ġcan n
Ġnight core
Ġsa int
Ġmon ks
Ġbu cket
Ġac oly
gra iny
Ġover head
Ġfor ward
wa ys
Ġstar ship
Ġpla stic
Ġad i
Ġad olph
Ġkey s
ac ing
Ġcolo ss
Ġbra d
Ġbra ins
Ġmed ia
ak a
Ġmc farlane
Ġgo gg
Ġga ze
cent ered
Ġse qu
Ġfur suit
Ġtra v
Ġtra ding
Ġhan n
Ġhuman s
Ġtrans paren
ye h
Ġdri f
Ġdri pping
Ġam i
Ġhe ilma
Ġmin i
Ġpost cyberpunk
ka chu
Ġinsan e
Ġmask ed
Ġwood ring
Ġna u
Ġna ples
Ġhal loween
Ġpen guin
Ġkaw aii
Ġanton ino
Ġsit s
Ġsit ted
Ġmoon light
Ġsn iper
Ġgi usep
Ġinf lateble
ita s
Ġear ly
Ġsil hou
illi e
Ġrid d
Ġreal ly
Ġfort nite
Ġhalf ling
Ġvillene uv
ik omi
Ġhand made
Ġrefle xions
Ġvis ible
Ġtechnolog ical
Ġgh illie
Ġbed s
Ġhorse y
Ġcamp bell
Ġsing ular
Ġsal ly
Ġarc imbold
Ġsub urban
Ġpar is
Ġnew man
Ġextra ter
Ġsca le
Ġwild flowers
Ġara ki
Ġoffic e
Ġmen acing
Ġrec laimed
Ġrec ording
Ġchi hua
Ġbattle field
Ġban e
Ġama zon
Ġris o
tt ers
Ġsor rows
war rior
he i
under water
Ġner ikomi
!!!!!!!! !
Ġgradi ent
Ġpano ram
Ġgro ot
Ġvisual ly
line ar
sci enti
Ġmater ial
bar oque
Ġsi ze
Ġsi enki
Ġspark s
Ġeld er
Ġmand alor
Ġpat ch
Ġfantastic ally
Ġpris on
Ġtru is
Ġchrist ensen
Ġcandy land
fla t
Ġaz eroth
Ġaz tec
Ġsli me
Ġcandle light
Ġkodach romatic
psy chedelic
Ġpra ying
Ġkne eling
Ġeu phoria
Ġcoo kies
Ġfal con
Ġtun ed
Ġfu j
Ġbod ies
Ġspra tt
Ġnend oroid
Ġbull dog
Ġcarp et
Ġange lic
Ġgladi ola
san themum
Ġid ol
qui at
cri pt
Ġanti que
Ġbeat rix
Ġclu b
Ġdol l
Ġphili ppa
Ġcob blestone
bru tal
ew icz
Ġswa g
Ġbes ide
Ġfir st
Ġlumin escent
Ġinflu en
psych adelic
miss ion
vib rant
Ġpiz za
Ġwye th
Ġdegen eres
alopa thy
Ġtup ac
Ġtsu kushi
Ġtreas ure
Ġchry santhemum
pocalyp tic
Ġzdis law
Ġcapa ble
Ġneoc lass
melen colia
Ġkeffi yeh
Ġacoly te
Ġgogg les
Ġtransparen cy
Ġheilma yer
Ġgiusep pe
Ġsilhou ette
Ġarcimbold o
Ġpanoram ic
Ġsienki ewicz
Ġmandalor ian
! .
a ya
a king
b ro
b us
b ea
b ers
b ris
c d
c ers
c up
c ord
d imir
d oor
e an
f ro
f rie
g in
g lo
g ull
g ically
h p
h it
i re
i tion
i bo
j ian
n ce
o li
o se
o hiko
o bama
p it
p ed
p awn
r id
s il
s ma
s man
s ian
s ura
t ub
t ruck
v an
v ins
v ity
y ond
y ellow
y lor
z os
Ġ é
Ľ ,
Ġa w
Ġa pp
er k
er ce
er bre
er berg
Ġs id
Ġs unk
Ġs ick
Ġb am
Ġc u
Ġc ru
ra bbit
ra yama
Ġd m
Ġd uck
Ġd rew
ti e
ti lus
le z
Ġp ie
Ġp ier
ing ers
rt on
Ġf ate
Ġf arm
Ġf used
Ġm r
Ġm ud
Ġo ss
Ġo rth
Ġo leg
Ġh un
Ġh om
Ġh ous
Ġh ung
Ġh uss
Ġw an
Ġw il
Ġw om
Ġg ent
Ġart print
en omorph
or i
Ġde mons
Ġde bris
Ġand ro
Ġand romeda
te ch
te ndo
al o
st r
Ġin vas
Ġk old
tic es
ol in
ol le
Ġre lig
Ġre bec
ul d
Ġe la
Ġe at
Ġe va
lo d
Ġv ia
la dimir
is er
is cher
ma nd
ma tt
ma gazine
us ica
Ġpa nda
Ġli ber
Ġli bra
Ġli minal
ed o
ed y
Ġsh immer
ch el
et to
Ġr uss
Ġr unes
ur ne
ig an
om ed
Ġon i
Ġon to
Ġj s
Ġj ed
Ġj essica
Ġma in
per or
Ġpo ker
Ġpo ppy
ss a
ly wood
Ġgre edy
Ġhigh way
ne cromancer
Ġro w
Ġph alopathy
Ġba bs
Ġtre nd
Ġocta n
Ġch en
Ġch ad
Ġch romatic
po p
Ġlight paint
Ġbe zos
Ġra chel
Ġsp ray
hi ja
Ġsta ble
ers tell
qu in
io s
Ġy an
Ġy ang
Ġla tino
Ġal cov
Ġal tar
Ġz om
Ġsmo g
Ġlo bster
Ġca ke
Ġex it
cha nd
Ġte ssel
Ġsy ste
Ġcom e
pa sta
pa rate
Ġsu ff
Ġta c
Ġta pe
Ġta tter
Ġta kan
Ġru ral
Ġru ys
bo b
bo rate
Ġis h
Ġdesign s
co al
co smic
ðŁ Ĵ
Ġgra vity
Ġwar core
Ġray mond
ura tive
ok u
Ġwa shing
Ġwa vy
Ġed ou
ely n
Ġso ciety
Ġso rayama
Ġlon gest
Ġmar y
Ġmar chand
bi ome
Ġdis sol
tre e
Ġsa ra
Ġcity scape
gra ve
sk aya
Ġstar ing
vir onement
Ġpla ins
Ġpla gue
Ġspace craft
os keleton
Ġmed evi
Ġdi rt
Ġmc cur
Ġhor ley
Ġhor ohiko
Ġwe bs
Ġga ga
Ġga ulti
cal ine
pe pe
ba ck
Ġu gly
Ġgod rays
Ġgod zilla
Ġcat girl
vas cript
Ġpor cup
Ġse ga
Ġse wing
Ġse parate
Ġcam ou
Ġko i
Ġtra in
Ġtra sh
Ġtra shed
Ġtra gically
Ġfla ming
!!!! !!!
Ġgu ang
Ġve st
res tial
Ġfire truck
Ġja co
Ġja vascript
Ġcartoon y
Ġble vins
Ġres generative
Ġres pawn
Ġhel lish
Ġdream works
Ġpost processing
Ġna ils
Ġna usica
Ġev elyn
Ġsho re
Ġsho ck
Ġretro punk
Ġretro futuristic
Ġhard y
Ġfra mes
Ġsn eakers
Ġsn oke
futuris m
Ġind ig
Ġtri be
Ġic y
Ġcla w
Ġcla us
Ġrid er
Ġcoat s
Ġmark ers
zz i
Ġnatura lism
Ġhar ve
Ġhar ibo
Ġwea thered
Ġter ror
Ġtal king
Ġsketch es
Ġbru tal
Ġsea gull
Ġsea grave
Ġcor set
com ic
Ġcur led
Ġmonster s
Ġbus y
Ġtechnolog y
Ġair y
Ġgh etto
Ġnin tendo
Ġwat ched
Ġche ering
Ġchar coal
Ġcir cle
Ġdef iant
Ġshe et
Ġfairy tale
Ġx enomorph
je ct
less ness
Ġground dramatic
ab andoned
Ġcou rt
fa shion
Ġutop ian
Ġtar r
Ġvar ious
colo red
Ġstru zan
Ġball erina
Ġbow ler
Ġop tim
Ġhip s
he ur
Ġeth ereum
Ġcand les
Ġjew ish
Ġjeff ree
stro us
Ġbas quiat
Ġdiamond s
Ġgro up
Ġairbrush ed
ðŁĲ Ľ,
Ġky oto
Ġkat sura
Ġsymbo list
Ġadv ent
Ġhorn ed
Ġspo rt
Ġstri king
Ġmas aka
Ġsymb ol
Ġtravel s
wh at
Ġpi rate
Ġfam ous
Ġornam ents
Ġnat ur
fla ge
Ġhi ro
flow er
Ġeu rop
Ġchas m
ĠðŁĳ ©
Ġtattoo ed
Ġcath edral
Ġseas cape
Ġmegapix el
Ġcot ton
Ġpoli ce
human oid
Ġap ron
Ġaly ssa
Ġinc red
Ġtro phy
Ġbath tub
ðŁļ Ĺ
Ġmulti ple
Ġattack ing
Ġfle ischer
Ġgor illa
Ġcolla ge
magic ian
Ġbon heur
Ġtrim med
Ġita lian
Ġskyscra pers
Ġsec ond
Ð¾ Ð
Ġhind u
Ġwre cked
Ġgran ov
Ġely sian
Ġval ley
Ġriv ia
Ġsleeve les
Ġpleas ing
Ġhol lywood
Ġnine ties
Ġworm hole
Ġswan land
Ġgriff in
Ġaqu a
Ġrese ar
Ġvor tices
Ġconsum ed
Ġtetra hedron
Ġarchitect ural
Ġdrum s
build ing
zo omed
para zzi
Ġmonum ental
Ġtriang le
cart oon
hap py
Ġari zona
Ġoo ze
Ġoas is
Ġdeal er
Ġjod hp
Ġjum ping
Ġintere sting
Ġcher ry
Ġchim era
Ġprot otype
Ġadolph e
Ġbrad ley
Ġtrav eller
Ġhann igan
Ġnau tilus
Ġridd ell
Ġextrater restial
Ġchihua hua
Ġtruis i
Ġneoclass ical
erbre ad
Ġbam bo
Ġorth ographic
Ġhuss ar
Ġwom en
Ġandro gy
Ġkold i
Ġrelig ious
Ġrebec ca
Ġela borate
Ġliber ty
Ġlibra ry
Ġshimmer ing
hija b
erstell ar
Ġalcov es
Ġaltar s
Ġtessel la
Ġsyste m
Ġtatter ed
Ġtakan o
Ġwashing ton
Ġedou ard
Ġmedevi al
Ġmccur ry
Ġgaulti er
Ġporcup ine
Ġcamou flage
Ġguang jian
Ġnausica a
Ġmasaka zu
Ġjodhp urs
' d
' m
. ,
a f
a u
a ki
a esthetic
b ing
b and
b ald
b str
c ot
c red
c son
c ass
c iara
c ated
c thulhu
d im
e z
e ting
f lo
f ur
f ig
f ined
g re
g low
g old
g ana
g odd
h or
h alf
j ime
j ust
k ar
k el
k ow
k si
k awa
l va
l lite
m use
m inecraft
n ch
n ous
o ta
o le
o rak
p tion
p lo
p retty
s le
s im
s ov
s ican
t u
t ur
t ling
u lent
v ol
v iew
v ille
w kes
w ined
w itch
y d
Ġ <
Ġ ig
Ġ ly
Ġ ess
Ġ que
in et
in ery
er ka
Ġs us
Ġs om
Ġs ate
Ġb un
Ġb it
Ġb ri
Ġb ell
Ġb lan
on ge
re st
re fined
ta tto
Ġc ali
Ġc lar
ra ge
ra tive
ra ven
ra ilh
Ġd ry
Ġd read
ti sh
ti linear
nd om
nd ly
le vision
Ġp un
Ġp ist
Ġf ol
Ġf it
Ġf ear
Ġf light
Ġf ring
Ġf ingers
Ġm al
Ġm ign
an gh
an os
an ami
Ġo x
Ġo ch
Ġo pal
Ġo tto
li am
li ous
li ze
Ġh ate
Ġh od
Ġh oly
Ġg is
Ġg lim
Ġg oku
ic i
ic olor
Ġde ci
Ġde har
al ski
Ġin tel
il er
Ġk el
Ġk ine
Ġk ass
Ġk ha
Ġk enta
tic ing
ol la
ol ate
Ġre n
Ġre x
Ġre ed
Ġre so
Ġre ach
Ġre alist
Ġre generative
Ġre ason
Ġre nt
Ġt rait
Ġt shi
es is
lo ut
Ġv io
Ġv ess
Ġv as
Ġv ader
it ting
it ty
is son
is key
is ometric
ma ted
ma to
Ġpa ral
ot s
Ġli zard
Ġli ps
Ġth re
ch en
ch em
sta tue
sta nce
et t
Ġr um
ea th
ur ce
ur ine
ph ander
Ġj ura
Ġj ace
Ġj ac
Ġma st
Ġartstation z
Ġpo tato
ss ible
lu nd
am ic
Ġwith in
Ġan ony
Ġan no
Ġan orak
sh aman
Ġro s
Ġen ter
Ġen light
Ġen jo
Ġfo am
Ġcon ne
Ġcon struction
Ġph anta
Ġph ant
ie j
Ġint erstellar
se us
se ph
stra d
ov ering
ov skaya
Ġba con
Ġrut kow
kows ki
Ġil ford
Ġbeautiful ly
Ġfa ke
Ġfa ctor
Ġfa wkes
Ġch in
Ġun c
Ġun te
Ġun set
Ġdigital trans
ran ium
Ġsc arp
Ġbe low
Ġbe yond
Ġle op
Ġle esha
Ġmo ther
Ġha pp
Ġha jime
Ġra iny
Ġra gn
Ġsp onge
hi kawa
Ġsta ir
ion e
Ġman tel
ri age
Ġy oda
Ġy erka
Ġl ar
Ġl ang
Ġl sd
Ġla gers
Ġal f
Ġal chem
ide og
Ġclo sed
Ġco ach
Ġlo udly
Ġto mato
Ġdetail led
Ġca ss
Ġca pe
Ġfi ery
Ġne ws
Ġte levision
Ġsy lva
as ed
Ġcom pression
pa ces
pa parazzi
Ġdes ce
Ġfrom soft
ted t
Ġoil paint
Ġsu i
Ġshad ers
Ġbo ard
ver t
Ġta ylor
Ġele ment
bo k
Ġas uka
Ġhead s
Ġhead band
ous hit
ush ing
Ġcharacter art
co zy
Ġgra vita
Ġsym phon
Ġme aning
Ġme lod
Ġme eting
Ġelegant ly
rac le
Ġflow y
ok ing
Ġwa re
Ġed mist
Ġso ap
Ġmat ter
red head
Ġmar seus
Ġmar riage
Ġbar ometric
Ġbar bie
Ġno od
Ġno stal
Ġjo seph
bi tion
Ġti le
Ġti tan
Ġti ara
Ġdis da
Ġnight vision
Ġross ier
Ġsa va
Ġsa nders
Ġsa udi
les tial
Ġmon k
Ġbu g
ĠðŁ ¤ĸ
Ġcra ck
Ġscen es
Ġcompo und
Ġfor za
Ġsuper ia
Ġpla ys
Ġpla sma
Ġad olf
Ġel mo
Ġqu ill
Ġqu artz
Ġkey board
Ġang les
Ġcar cass
Ġbra id
Ġlu o
Ġmich al
Ġdi adem
Ġgo og
shi ps
Ġwe eds
Ġga y
Ġga zing
len n
Ġgod s
Ġgod lessness
ens ional
Ġblo ody
Ġblo use
Ġem peror
Ġold er
Ġhan na
ven tion
ille m
fi erce
Ġprin terest
ugh t
Ġmoun t
yo u
Ġble nding
Ġsw at
Ġspi ke
Ġspi ky
Ġpark er
Ġpark ing
int ricate
Ġpers ian
Ġsho ot
Ġcloth s
hu ge
Ġenviron mental
Ġmi k
Ġmi ura
Ġwal k
Ġwal ker
Ġgi u
Ġexp an
lis mo
Ġcol on
Ġind ieg
Ġcla ude
Ġsimon son
ach ad
Ġhar sh
Ġter ada
Ġgodd es
Ġast on
mi racle
Ġbean s
Ġfer ri
Ġsea side
Ġcor sican
Ġka y
way ne
Ġplan e
Ġfig urine
Ġhero ic
oc olate
Ġbur ly
Ġpu i
Ġpu king
Ġpu ffy
Ġche erful
Ġchar lize
hyper realism
Ġsch rie
Ġsub stance
sc reen
Ġser ies
Ġser ved
Ġpar fa
Ġsqu alor
Ġsqu irrel
Ġbear s
Ġsum ptuous
Ġvi olin
cle ctic
Ġet kar
Ġfri ant
Ġsca phander
Ġport man
Ġce lestial
Ġfro zen
Ġva lent
Ġanat su
Ġspe ci
Ġgen shin
Ġgun s
Ġblur ry
ji it
ji film
Ġbutterf lies
Ġdrop ing
Ġrec tilinear
med ieval
Ġdelic acy
Ġtu cson
Ġmystic ism
Ġmet roid
Ġstory book
Ġrand om
Ġsar railh
Ġbal th
Ġbal lo
pro ud
Ġmead ows
Ġay anami
Ġjew ett
ging erbread
por tait
Ġplay ful
Ġdust y
Ġemo tion
!!!!!!!! !!!!!!!!
Ġmirror s
Ġjohan sson
dis tant
Ġset ting
Ġrep in
Ġrep res
Ġcross ing
Ġcross ed
Ġrebel lious
net t
net sov
Ġky oushit
Ġther on
Ġevery one
Ġmand ible
Ġmyth ical
Ġswe at
Ġpat rick
wh ere
Ġpi kachu
Ġtru e
Ġtru ck
Ġpres ident
mar vel
Ġslight ly
Ġpra da
Ġkne e
Ġuni ted
Ġreef s
Ġchas ing
Ġkatsu ya
Ġfrie ndly
Ġinse ct
Ġtun nel
Ġfu jifilm
arm or
Ġzo om
dream y
Ġbod hi
Ġvers ace
Ġnend roid
Ġbel t
Ġmac iej
Ġskyscra per
Ġsec ret
for mation
Ġer ased
Ġmes caline
Ġturb ulent
Ġvel v
cti ble
Ġpr ime
Ġfun ction
Ġdec or
Ġku ciara
Ġllo rens
Ġimpo ssible
Ġcolle ctible
Ġax e
Ġske letal
Ġclim bs
eter an
Ġexhi bition
Ġcraft sman
Ġnata lie
Ġstrip es
Ġcircuit ry
inf ini
Ġaven gers
Ġob ject
Ġgia com
Ġdepic tion
Ġep cot
amed ev
Ġteen age
Ġskateboard ing
Ġhex a
Ġauro ra
ðŁįİ ðŁĲĽ,
Ġcountry side
archi st
Ġki wi
Ġexist ence
Ġbrit tle
Ġbirth day
Ġinfluen cer
Ġcru ise
Ġdm t
Ġhous es
Ġgent le
Ġinvas ion
Ġyan ovskaya
Ġsuff ering
Ġtac tical
Ġruys ch
Ġish ida
biome chanical
Ġdissol ving
Ġsara h
Ġplague is
Ġclaw foot
Ġharve st
Ġeurop ean
Ġincred ible
Ġandrogy nous
bstr fluid
dim ensional
godd ess
ota ur
Ġess ence
Ġsate llite
tatto o
Ġclar inet
Ġfring e
Ġmal lismo
Ġmign ola
angh ai
Ġoch re
Ġhod as
Ġgis bert
Ġglim mer
Ġdeci mated
Ġdehar me
Ġkine tic
Ġkass an
Ġkha jiit
Ġkenta ro
Ġtshi rt
Ġvas netsov
Ġparal lax
Ġrum sey
Ġjace k
Ġanony mous
shaman istic
Ġphant om
Ġrutkow ksi
Ġfactor y
Ġunset tling
Ġdigitaltrans formation
Ġleop ard
Ġlang ley
Ġlagers tedt
Ġalchem ist
ideog ame
Ġsylva in
paces hip
Ġfromsoft ware
Ġgravita tional
Ġsymphon y
Ġmelod ica
Ġedmist on
Ġdisda in
Ġquill s
Ġcarcass es
Ġindieg amedev
Ġparfa it
Ġkyoushit su
Ġcraftsman ship
a e
a y
a se
a ster
a quin
b ri
b red
b atch
b urg
b ened
c z
c ream
c ury
c olle
d ar
d ia
d isturbing
e ch
e nding
e ves
e ven
e strad
f u
f am
f orn
g w
g od
g ger
g ins
h er
k ai
k itchen
k cd
l ush
l ord
l ings
m c
m id
m boy
n on
n en
n ut
o sh
p el
p at
p ir
p ink
p inski
s ad
s ant
t ri
u ko
v o
v ate
v ind
v ideogame
w olf
w inning
x el
x ican
x edo
z ant
z uki
§ ļ
³ ,
¸ ðŁĮ
Ñ Ģ
Ġ >
Ġ ing
Ġ um
Ġ iden
Ģ ,
in ty
in ato
Ġa th
Ġa ber
Ġa gn
er man
er ich
er ves
er ence
er amic
Ġs ent
Ġs up
Ġb ers
Ġb ren
Ġb ang
re c
re i
re alis
Ġc ri
Ġc rim
Ġc umber
Ġc ranium
Ġc eramic
ra ble
ra lized
ra ndom
Ġd er
Ġd al
Ġd ig
Ġd ant
Ġd ua
Ġd une
nd ril
le on
le aning
Ġp iet
Ġp ep
Ġp ione
ing y
rt le
Ġm ime
an u
an y
an ski
Ġo d
Ġo bli
Ġo zz
Ġo bama
Ġo sim
li ck
Ġh um
Ġh overing
th or
Ġg t
Ġg ib
Ġart no
ar n
ar ok
ic t
ic on
ic ation
or r
or s
or ies
or mous
gh rad
Ġde lo
Ġand o
te gra
ro ad
ro ach
Ġin bred
il n
Ġk ard
Ġk no
Ġk usa
Ġk iln
ol lu
Ġre de
Ġre eves
Ġt yp
es ley
ul ated
Ġe arle
ile t
Ġv il
it ter
la rt
Ġpa sta
Ġpa tern
Ġpa ras
ot eric
Ġli pa
Ġli mes
Ġth um
Ġsh rek
el li
el len
at chi
ch in
ch rom
ch ick
ut o
et s
et ball
Ġn ow
Ġn ud
ea rth
ea listic
ur on
Ġthe ory
ig old
ph otomanipulation
Ġj ol
Ġma ca
Ġma ghrad
Ġst u
Ġst ore
per ant
per son
station s
Ġpo v
Ġpo res
ss e
Ġan ici
Ġan archist
Ġpainting s
ki rt
sh ian
sh op
ne w
ne ise
Ġro gue
Ġro erich
Ġfo ss
Ġfo lia
od ka
Ġcon vention
ows ky
im o
Ġphoto s
ov er
Ġba sk
Ġba za
Ġba var
pt or
Ġhy p
Ġeng lund
ent er
ent warrior
Ġbeautiful l
Ġch ill
Ġch ang
po sure
ran ce
ran ch
mo st
Ġle n
Ġle co
ster y
Ġmo rt
Ġra z
Ġra ve
Ġra cing
ke anu
Ġsp ear
ud ini
qu et
iv ing
Ġy e
Ġl ut
Ġl lan
Ġla ura
Ġal ley
Ġal most
Ġz ep
Ġz uck
Ġz ingy
Ġco p
Ġco re
Ġco ca
Ġlo os
Ġlo ose
Ġto us
Ġto ilet
Ġbla zing
Ġbla des
Ġca s
Ġca val
Ġca estrad
Ġat tire
ci fer
Ġblack sm
Ġex oskeleton
cha ir
Ġne st
Ġte d
Ġte ndril
Ġwater colour
ins ide
Ġcom es
pa ge
Ġdes aturated
Ġab omin
ap pa
Ġsu kh
Ġfe w
Ġfe eling
Ġfe lix
Ġda z
Ġda inty
Ġta da
Ġey vind
Ġcy cles
Ġas k
Ġpro v
Ġpro ced
ib a
ib ranch
ðŁ Ľ
Ġred shi
Ġme at
Ġme xican
ung le
ll er
Ġso ma
Ġso cks
row th
Ġmag g
ish ing
Ġsur render
Ġins pir
Ġwh en
Ġwh al
si te
si um
si rens
Ġrob bie
Ġmar sh
Ġmar ching
ub is
ub el
Ġno el
ism uth
Ġi wa
Ġjo aquin
Ġfore head
vi ra
ment s
Ġho les
Ġho udini
Ġti les
Ġti res
Ġti tle
Ġcan yon
Ġdis gu
Ġdis cov
Ġdis ollu
tre es
Ġsa ge
Ġsa ys
Ġsa gan
Ġsa cred
Ġsa atchi
Ġmon oli
min imalistic
Ġbu hl
Ġac cess
Ġover ly
ĠðŁ ¥
ĠðŁ ĺ
ĠðŁ ļ
Ġgr itty
Ġcra b
Ġcra shing
Ġcra yon
Ġsuper model
Ġstar ships
Ġpla t
to o
Ġad ult
Ġdy nam
Ġel vira
Ġgame texture
press ed
Ġcar go
Ġbag gins
Ġbra nd
ste p
Ġlu cifer
Ġout door
ak h
Ġdan ce
Ġdan cer
Ġdan gers
stic a
Ġgo ing
Ġwe bb
Ġga u
Ġga rage
pe g
Ġpor tait
dra gon
Ġbig ger
Ġse mi
Ġfur ious
bin a
Ġcam el
Ġcam aro
Ġhu ys
Ġko pinski
Ġmod elling
Ġanima ted
gg ing
Ġfla mboy
!!!! !!
!!!! !!,
Ġalien a
Ġgu id
Ġve gas
fi ed
mon a
mon strous
Ġpic ab
yo i
Ġaf fection
va gant
Ġtho ught
Ġdream ing
Ġdream istic
Ġdream like
Ġmin nen
Ġspla tters
out standing
Ġna il
Ġsam us
night core
Ġfluid a
Ġretro battle
Ġref ined
ida bstrfluid
Ġsteam y
Ġday glo
Ġcol lid
Ġes oteric
Ġes perant
Ġamer ica
ita lart
Ġic hikawa
Ġpal let
Ġtw itter
Ġtechn icolor
Ġhar per
Ġhar nett
Ġhar uko
Ġhand paint
Ġrefle cting
Ġfair ies
Ġaut o
Ġfer ret
men tary
Ġka tie
ex tre
Ġair port
Ġfig urative
Ġfraz zeta
we iler
Ġlevel s
Ġrich mond
Ġmach inery
Ġche bok
Ġdog s
Ġfish erman
Ġcamp us
hyper detailed
Ġmor gan
Ġsteel punk
Ġsch orr
Ġcir cular
Ġsle ep
sc ar
sc ary
Ġpea ch
Ġpea sant
Ġgla mor
Ġwilliam s
Ġfri es
Ġshapes hi
Ġcou rty
Ġcinemato graphy
Ġboy ce
Ġce le
Ġfro st
Ġpol anski
Ġgun pla
rich ard
Ġsword s
Ġtu xedo
Ġbud d
Ġgate way
sty le
sty lized
Ġshow room
Ġdunge on
Ġwatch men
Ġfeath ered
Ġmix ture
Ġcorre a
Ġsor olla
Ġbal len
Ġbruta lism
ou in
Ġsome thing
Ġkar cz
Ġlip stick
Ġtur ning
Ġstructure s
Ġplay ground
Ġmer cury
Ġmer igold
Ġcreepy pasta
Ġgro ss
Ġmicro phone
Ġturt les
Ġstorm tro
Ġya ta
Ġya yoi
Ġber key
trans dimensional
Ġevery where
Ġspo on
Ġniel sen
Ġstri ke
award winning
Ġblock s
Ġpsych e
Ġpsych o
Ġswe et
Ġscar red
Ġlam p
Ġsymb io
Ġvr ubel
Ġoverg rowth
ĠðŁĲ ¸
Ġglitch core
Ġpres en
ban ese
wond erland
Ġhow ard
Ġten ant
Ġsyd ney
Ġtransce nding
Ġkne es
prin cess
Ġcalle d
Ġpig eon
Ġsorcer ess
flu idabstrfluid
Ġslim y
Ġdom my
Ġfal lout
Ġshop ping
Ġpoli shed
Ġfru its
Ġtro oper
Ġsto ic
she et
Ġchev al
mp tion
Ġput ting
Ġham ster
Ġgor o
Ġshark s
Ġwork shop
Ġgloom y
Ġbasti da
lon gest
Ġæ ľ
Ġgladi ator
Ġton al
Ġton gue
Ġturb ine
Ġely sium
Ġartific ia
Ġpleas ant
stran ge
Ġllo yd
Ġtotal ly
Ġcomple tely
Ġcomple mentary
Ġimpo sing
var ious
Ġunivers ity
bur ning
Ġbros min
Ġped ro
Ġpel ton
Ġpri vate
Ġfil thy
Ġwr ight
Ġgang ster
Ġclock punk
Ġcock roach
Ġnever ending
Ġsteal th
Ġflux ication
aver age
fron tal
pix el
sea mless
Ġsen ator
Ġmom my
Ġgon za
Ġvent uring
Ġrott en
Ġmem ory
Ġcoloss us
Ġdrif ter
Ġmini ature
scienti fic
Ġelder ly
Ġfuj ita
cord ia
fro do
Ġapp ea
Ġoss draws
Ġhun ting
Ġwan ting
alo gue
Ġruss ell
Ġjed d
Ġsport s
Ġgorilla z
Ġaqua tic
Ġdealer ship
fur cated
glow wave
gold en
muse um
tu rtle
Ġbri tish
Ġcali forn
Ġpist ol
Ġintel lig
Ġkel p
Ġreso urce
Ġtrait s
Ġmast ree
Ġros ie
Ġphanta stica
Ġunc rop
Ġunte thered
Ġscarp inato
Ġhapp iness
Ġragn arok
Ġalf ons
Ġdesce nding
Ġmeaning ful
Ġnood les
Ġnostal gia
Ġcrack head
Ġexpan sive
Ġcolon el
Ġbalth us
Ġsweat y
Ġvelv et
Ġfunction al
bened ict
dia gram
pel in
Ġiden tical
Ġagn es
Ġbers erk
Ġbren neise
Ġcumber batch
Ġdig italart
Ġdant on
Ġpep per
Ġpione er
Ġozz imo
Ġartno uveau
Ġdelo rean
Ġkusa ma
Ġrede mption
Ġtyp ical
Ġparas ols
Ġthum bs
Ġnud ibranch
Ġmaca bre
Ġmaghrad ze
Ġanici entwarrior
Ġfolia ge
Ġbask etball
Ġbaza ar
Ġbavar ian
Ġleco uffe
Ġllan as
Ġzep pelin
Ġzuck erberg
Ġcaval ry
Ġblacksm ith
Ġabomin ation
Ġtada o
Ġproced ural
Ġredshi ft
Ġinspir ing
Ġiwa kura
Ġdisollu tion
Ġmonoli th
Ġaccess ories
Ġgametexture s
Ġhuys um
Ġflamboy ant
monstrous ly
Ġpicab ia
Ġretrobattle stations
Ġcollid ing
Ġesperant o
Ġchebok ha
Ġcourty ard
a g
a j
a o
a ret
a pocalyptic
b l
b en
b il
b ine
b row
b ub
b ution
b utterf
c ard
c ond
c inestill
c amp
c lay
d or
d om
d ies
e zy
f c
f ly
f lix
g ic
g or
g ol
g un
g rom
g ren
g rin
g men
h ot
h and
h ulk
h artz
i ted
i que
i ft
i ka
i ence
i stran
j apan
k els
l lies
l sd
m u
m it
m ili
n g
n es
n ow
n ie
n ature
n ame
n orman
n ova
o h
o cy
o urney
p ar
p ol
p res
p elle
s ar
s ut
s qu
s pe
s keleton
t ricate
t les
t ronic
u tiful
v il
v ion
v ely
v ish
v ism
v ens
v ampire
v ladimir
v eteran
w is
w ig
w led
y ear
z ar
z ang
z alski
ª ðŁĩ
® ,
¹ ,
Ð °
Ð »
Ġ è
Ġ und
Ġ use
ĥ ,
in x
in ot
in ov
Ġa ud
Ġa gent
Ġa quar
Ġa iman
Ġa symmetrical
Ġa udio
Ġa osh
er ick
Ġs ile
Ġs ss
Ġs tal
Ġs ear
Ġs ini
Ġs ony
Ġb ent
Ġb low
Ġb old
Ġb ond
Ġb etta
Ġb rian
Ġb lown
Ġb rick
Ġb isson
on t
on ents
re mov
re otype
ta g
ta mer
ta rot
Ġc rt
Ġc ly
Ġc ere
Ġc rop
ra tic
Ġd as
Ġd ome
Ġd alle
Ġd day
Ġd apple
ti ger
ti ally
ti lity
nd ant
Ġp ress
Ġp rac
Ġp red
Ġp ub
Ġp itch
Ġp ue
ing le
Ġf en
Ġf ent
Ġf key
Ġf lint
Ġf inger
Ġm ine
Ġm ies
an i
an es
Ġo ri
li quid
li tary
Ġh ul
Ġh eld
Ġh ive
Ġh unter
th ers
th anos
Ġw on
Ġw ong
Ġw illem
Ġg and
Ġg ary
Ġg awa
Ġg ude
ar ine
ar tamer
en o
en ity
Ġby zant
or ity
gh ua
Ġde w
Ġde er
Ġde cal
Ġde pression
te st
al s
st ful
st ry
st rokes
Ġin a
Ġin tegra
Ġk ur
Ġk ent
Ġk arp
Ġk ush
Ġk art
Ġk ak
Ġk ings
Ġk iss
Ġk hd
Ġk elly
Ġk nown
Ġk itt
Ġk fc
tic ian
Ġre z
Ġre ali
Ġre ima
Ġre ality
Ġre aring
Ġre port
Ġre verse
Ġt r
Ġt ne
Ġt ent
Ġt rying
Ġt sut
es a
es ti
es tablishing
ul s
un ar
Ġe i
Ġe is
Ġe stra
Ġe man
Ġe me
Ġe ff
ile s
ce ll
ce ption
lo ck
Ġv odka
it c
la s
is law
ma in
ma rt
ma tte
Ġpa me
Ġli u
Ġli lies
Ġli llies
Ġth ing
Ġth igh
Ġth ird
Ġth ief
Ġsh ed
Ġsh ine
Ġsh ows
el ze
at ti
at ur
ch y
ch am
ch inese
sta tic
sta ble
sta pocalyptic
Ġr ive
Ġr ios
Ġr inot
Ġn c
Ġn el
Ġn asa
Ġn tricate
ea s
ig i
om u
ph ant
id ized
Ġma w
Ġma ul
Ġst ro
Ġst ran
Ġst ret
per itas
ali d
Ġpo grom
Ġpo stapocalyptic
ss os
nder son
Ġwi stful
lu c
lu re
am er
am is
am arine
alis a
Ġan al
Ġan ubis
sh ine
ne cted
ct us
ct ly
ad es
ad ratic
Ġro l
Ġro he
Ġro berto
Ġro ots
Ġro zalski
Ġrender man
Ġen ormous
ate au
Ġfo und
od e
od s
Ġcon j
Ġint ert
im m
se id
stra te
Ġba ma
Ġtre k
Ġtre nds
Ġtre nch
Ġeng line
Ġhyper space
Ġhyper ealistic
Ġcolor ing
Ġfa ci
Ġfa sc
Ġch an
Ġch al
Ġch am
Ġch ap
Ġch ip
Ġch ocolate
Ġch esley
Ġch ateau
Ġun fa
Ġun even
po st
po ol
po int
po uring
po leon
ran cy
Ġsc re
Ġsc ra
Ġsc ot
mo on
mo ck
Ġlight year
cus i
Ġbe elze
Ġle ads
Ġle tho
Ġle page
Ġle banese
Ġle wis
Ġha w
Ġra is
Ġsp ell
Ġsp inning
Ġsp iders
Ġsta nds
ri a
ri lic
ri fic
qu es
Ġy in
Ġy ard
Ġl aros
Ġla cha
Ġla bo
Ġla by
Ġal ter
Ġal ong
Ġal lure
Ġfanta st
Ġar gy
ber ries
Ġface book
rom orphic
Ġco le
Ġco yp
Ġlo vely
Ġto u
Ġto on
Ġmu ral
Ġmu ham
Ġca ther
Ġca ctus
Ġat rey
Ġblack board
Ġex if
Ġex posure
Ġne ko
Ġte st
Ġte let
Ġte ena
Ġwater mel
as k
Ġcom bat
Ġcom mission
Ġcom mand
Ġdes k
ap es
Ġbr ing
Ġoil painting
Ġsu zuki
man n
Ġda ugh
Ġbo o
Ġta gs
Ġta too
Ġbi ke
Ġdark wave
Ġele phant
na cio
lic al
Ġsun lit
Ġsun ray
Ġsun rays
Ġsun shine
Ġru th
bo ration
Ġas peritas
Ġwin kel
Ġpro udly
Ġpro strate
Ġdo ra
Ġfuturis te
Ġyo ji
co in
co pic
co unt
ðŁ İ
ðŁ ¤ĸ
ðŁ §ļ
Ġsym etric
Ġme me
Ġme chan
Ġed en
Ġso litary
row ning
Ġgirl frie
Ġmag enta
Ġor bit
Ġhair y
Ġsur gery
Ġmat t
and re
ub step
Ġvib rancy
ward s
Ġjo el
Ġjo lie
ft ers
Ġho le
Ġti tles
Ġlea ve
Ġher on
Ġgig achad
Ġnight time
Ġsa uron
Ġmon alisa
Ġbu x
Ġac rilic
gra nd
gra ss
ĠðŁ ¤
Ġgr in
sk ull
Ġcra ven
Ġfor mat
Ġfor rest
Ġsuper nova
wa k
Ġstar ring
Ġpla in
to p
Ġad don
Ġdy ing
Ġel vis
Ġqu adratic
Ġmy self
Ġmy name
Ġvan itas
Ġgame cube
Ġang st
os is
press ing
Ġcar lo
Ġcar vaggio
Ġcar bine
Ġcolo ured
Ġlu igi
Ġmed ical
Ġout st
Ġwor ker
Ġbright ly
Ġhor key
Ġgo zilla
Ġga unter
pe ople
ba ch
ba se
ba by
Ġu tility
len vironement
Ġim m
Ġali ens
Ġse ed
Ġse men
Ġarm chair
rin th
Ġcre ated
Ġcam o
Ġflo rence
Ġko ala
Ġem itting
Ġshink awa
Ġtra ck
Ġtra vis
Ġbrush strokes
Ġfla res
Ġbea m
Ġgu let
Ġgu iller
Ġge k
fi ve
Ġpic king
Ġima gery
Ġprin ted
Ġmel ted
da vid
yo ur
Ġaf ro
Ġaf remov
br ity
Ġmus lim
Ġskin ny
Ġskin ned
Ġble nd
Ġdri ps
va ge
Ġsw ift
Ġvic t
Ġhe at
Ġhe ms
Ġhe nderson
Ġmin ent
lla ine
za ch
Ġsol ar
Ġfine art
Ġfine artamer
Ġhelmet s
bor ne
ick ed
Ġna sty
lit tle
Ġpe te
Ġpe ndant
Ġfin land
Ġfin ished
go uache
Ġsho e
ha us
Ġrad ia
su le
Ġmi ho
Ġillumin ated
Ġretro futurism
Ġkon g
Ġshi ft
Ġshi kin
Ġmoon cake
Ġsteam ing
Ġimpression ist
ue le
Ġwal ks
Ġwal mart
Ġporce llaine
ath y
Ġgi ve
Ġinf ini
Ġunder standing
Ġaki ra
Ġaki hito
wl star
Ġcol lier
Ġes cape
Ġcrystal li
ior i
Ġrid ers
Ġraytra ce
Ġmark et
Ġdon wood
Ġtechn o
bra wlstar
Ġinter con
Ġwea ver
Ġwea rable
Ġpan el
Ġdeep dream
Ġtal k
Ġkim on
ling er
Ġger hartz
Ġlow brow
Ġiv y
Ġtan g
Ġsea mless
Ġdire ctly
ex pressive
ex posed
we althy
Ġbur rows
Ġowl s
Ġvo xel
Ġrich ard
Ġcro c
Ġcro ods
Ġche ese
Ġchar les
Ġspiral ing
Ġcamp site
hyper realist
Ġsing ing
vers ial
Ġcir i
Ġarc ology
Ġsub tle
enta tion
Ġbro ther
Ġtow ards
Ġser ious
Ġpar lor
Ġpar tially
Ġextra vagant
Ġgather ing
Ġsolondz as
Ġx in
utop ian
Ġtor i
Ġtor o
Ġphotosho ting
Ġbre aking
Ġva se
Ġpol ar
Ġwings pan
tes que
Ġgrim es
eth ereal
Ġclass y
can io
Ġsand ra
Ġcrow ded
Ġform al
Ġver mili
Ġchi ho
Ġzh ou
Ġzh ong
Ġban k
Ġban jo
Ġbow l
Ġbal main
Ġry an
Ġjen ga
mod ern
no se
Ġstic king
Ġnic e
Ġjon ze
Ġmona stery
Ġmil lenn
Ġtur ned
Ġcand id
Ġjeff ery
Ġarab ian
Ġcup cake
Ġhim self
Ġconf erence
gal actic
Ġbut ton
Ġbut tig
Ġglor ious
Ġgro tesque
Ġartist s
Ġcomp onents
sur real
Ġemer ging
Ġju les
Ġsymbo lic
bat man
sn eakers
rot te
Ġspark les
Ġcap tive
Ġdoor way
pet er
Ġsla anes
Ġblock ing
Ġdin ner
Ġdin sey
Ġscar let
Ġterri er
wh iskey
Ġze iss
Ġbou rotte
Ġoverg rowing
ĠðŁĲ °
guer reotype
wo rth
Ġbran ch
Ġbran cusi
Ġdj ungle
mar ble
Ġã Ģ
Ġgal ore
Ġcontro versial
Ġbase ment
Ġbaby lon
Ġshoul d
cur led
Ġbul akh
Ġbill s
Ġabsurd ist
Ġpyramid s
Ġom ni
Ġcoo per
ðŁį Ħ
Ġsumm it
Ġpoli tician
Ġanth romorphic
ĠðŁĮ ±
ĠðŁĮ ¿
Ġlud wig
Ġbones tell
Ġconqu ering
Ġintern et
Ġbath room
Ġdisplay ed
Ġmedita tion
Ġpoly count
Ġsig ourney
Ġcig aret
Ġfred erick
Ġhid ing
Ġham mock
Ġvers us
Ġvers ion
Ġspra wled
Ġpossess ed
Ġbel ts
Ġcarp enter
Ġget ting
Ġven us
Ġven ice
mad s
Ġdar row
Ġdel ville
Ġvel cro
Ġnet flix
Ġartific ial
Ġterra ce
plan ar
plan et
Ġpr ussian
Ġkid die
Ġthunder storm
Ġgelatin osis
Ġgriff ith
Ġsat urn
rat ory
Ġdia gram
Ġdia blo
Ġunivers um
Ġexhi bit
Ġtea house
Ġprote in
Ġprote ct
Ġnata lia
spider man
jeff ree
bur ger
sun flower
Ġpill ars
Ġmur der
Ġec clectic
omin ous
Ġcock pit
ĠðŁĩ ªðŁĩ
Ġcottage core
Ġfernand ez
hea vy
sw amp
some one
Ġcr usta
Ġmol lis
tho mas
Ġwo und
Ġlist ening
Ġni hei
Ġspan ning
Ġspan ish
Ġspar row
Ġexci ted
Ġsurf ing
Ġsequ ents
Ġdoll s
Ġaw esome
Ġsid ious
Ġsunk en
Ġcu bo
Ġpie ces
Ġhom er
tech n
urne grin
Ġzom bies
Ġtape stry
Ġindig o
Ġoptim ism
Ġhiro shi
Ġresear cher
Ġbambo os
Ġtessella tion
aki hito
flo ating
fig ure
Ġig nacio
Ġque ens
Ġbit coin
Ġfol k
Ġreed us
Ġvio let
chen bach
Ġjac en
Ġpotato es
Ġanno yed
Ġenjo ying
Ġlar son
Ġnews paper
Ġtitan fall
Ġbug atti
Ġbraid s
Ġmik kels
Ġschrie k
Ġvalent ine
Ġspeci es
Ġguns linger
Ġballo on
Ġgiacom etti
ech no
Ġing ame
Ġath ena
Ġaber ration
erves cent
Ġbang s
rec laimed
Ġcri in
Ġobli vion
Ġosim ulated
Ġkno ssos
Ġvil lain
chrom ia
chick en
Ġjol ly
Ġstu art
Ġmort orcycle
Ġye ezy
Ġcop ying
Ġtendril s
Ġprov oking
Ġmagg iori
Ġdisgu sting
Ġplat form
Ġoutdoor s
Ġguid o
Ġauto ma
extre mely
Ġshapeshi fters
Ġcele brity
Ġbudd ha
Ġsymbio si
Ġpresen ted
fluidabstrfluid gouache
Ġcockroach es
Ġgonza lez
Ġappea rance
bil ateral
japan ese
zang ief
Ġaud rey
Ġaquar ium
Ġaosh ima
Ġsini ster
Ġdas canio
Ġdapple d
Ġpue blo
Ġfen ghua
Ġfent on
Ġhul led
Ġgand alf
Ġgawa in
Ġkarp athy
Ġkush inov
Ġkhd r
Ġreali zing
Ġreima gined
Ġtsut omu
Ġeis man
Ġestra da
Ġeman uele
Ġeme i
Ġeff ervescent
Ġpame la
Ġthigh s
Ġrinot una
Ġstret ching
Ġintert wined
Ġfaci lity
Ġfasc in
Ġunfa zed
Ġbeelze bub
Ġspell book
Ġlaros a
Ġlacha pelle
Ġlabo ratory
Ġlaby rinth
Ġargy le
Ġcoyp el
Ġmuham mad
Ġcather ine
Ġatrey u
Ġtelet ub
Ġteena ger
Ġwatermel on
Ġdaugh ter
Ġwinkel mann
Ġgirlfrie nd
Ġmyname istran
Ġsemen owsky
Ġguiller mo
Ġhems worth
Ġfineartamer ica
Ġshikin ami
brawlstar s
Ġintercon nected
Ġvermili on
Ġmillenn ium
Ġbuttig ieg
Ġslaanes h
Ġcigaret te
ĠðŁĩªðŁĩ ¬
Ġmikkels en
' re
' ll
a v
a ber
a ond
a gu
a issance
b id
b low
b io
b ear
b as
b ird
b by
b utter
b ubble
b den
b bles
b uto
b ismuth
c l
c ta
c ic
c la
c am
c ap
c ron
c ome
c ons
c ings
c iss
c cer
c umber
d s
d el
d ov
d ish
d les
d ore
d une
d eath
d wayne
e i
e ta
e un
f ight
f ia
g la
g ot
g ne
g ran
g ard
g reen
g ene
g allery
h ic
h at
h om
h ind
i j
i us
i ed
i ju
j an
j im
j ump
j ask
k ka
k inson
l t
l le
l van
m ark
m ished
m ulti
n u
o o
o ph
o qu
o tive
o ue
p ti
p ut
p ig
p ia
p as
p ense
r ight
r ish
r ub
r unner
r hiz
s po
s and
s war
s paceship
s atur
t se
t own
t rump
t ropical
u o
u ting
u ce
u is
u ga
u haus
v ic
v or
v io
v olution
v ice
v fluidabstrfluidgouache
w y
w ea
w lop
w ise
w oven
x ia
y r
y an
y ons
z el
z io
z hen
¡ ðŁ§ļ
¢ ,
¥ ,
© ¡
± ±
¶ ,
¸ ,
¹ ´
» Ħ
Ð µ
Ð º
Ð ½
Ñ Ĥ
Ñ ĥ
Ġ '
Ġ @
Ġ ä
Ġ ç
Ġ ib
Ġ uss
ĩ ¤
ı ¸
Ĵ ĥ,
ĵ ,
ķ Ĭ
Ĺ ,
Ľ ¨
Ľ ª
ł ĳ
in ar
in ary
Ġa k
Ġa ch
Ġa ard
Ġa mon
Ġa yo
Ġa udi
er in
er on
er vfluidabstrfluidgouache
Ġs es
Ġs ly
Ġs lu
Ġs und
Ġs aw
Ġs ana
Ġs ides
Ġs kirt
Ġb w
Ġb om
Ġb ric
Ġb ark
Ġb urg
Ġb utter
Ġb inary
on ic
on ib
on oi
re shing
ta ins
Ġc ust
Ġc ald
Ġc ita
ra ts
ra tes
ra gana
Ġd or
Ġd il
Ġd ot
Ġd od
Ġd unk
Ġd na
Ġd atura
Ġd olph
Ġd umble
Ġd unes
Ġd wayne
ti le
nd ic
nd ition
le ving
le mons
Ġp c
Ġp it
Ġp ure
Ġp ter
Ġp rey
Ġp rix
Ġp rim
Ġp ries
Ġf ed
Ġf id
Ġf lop
Ġf rey
Ġf ading
Ġf lick
Ġf rowning
Ġm is
Ġm im
Ġm up
Ġm ord
Ġm illi
Ġm oly
Ġm inecraft
an z
an th
an ist
an alogue
Ġo per
Ġo ak
li k
li sta
li fe
li ft
li ving
li era
li tan
Ġh ed
Ġh atch
Ġh unt
Ġh oney
th es
th ali
th wa
th ree
Ġw el
Ġw ri
Ġw ang
Ġw rit
Ġw ool
Ġg ol
Ġg ild
Ġg len
Ġg iving
Ġg anz
ar in
ar nate
ar shian
ar liera
en ous
en ment
en vir
en tial
en vironement
ic y
ic es
ic ature
Ġde la
Ġde ck
Ġde ity
Ġde struction
Ġde pressed
Ġde leving
te ss
te ad
te ment
te land
ro g
ro de
ro bo
ro vert
al and
st ron
st ones
Ġin de
Ġin cre
Ġin oue
il a
Ġk un
Ġk om
Ġk ow
Ġk am
Ġk ang
Ġk pop
Ġk appa
tic elli
ol ot
ol ine
Ġre lic
Ġre lie
Ġre lax
Ġre ndition
Ġt us
Ġt ut
Ġt si
Ġt rough
Ġt rit
es tic
es thes
ul field
un enko
un tain
Ġe po
Ġe ve
Ġe qu
Ġe vi
Ġe ak
lo e
lo ve
Ġv ir
Ġv ampi
Ġv ladimir
Ġv dov
it lin
la t
la st
la dy
la mp
is ted
is ode
ma ra
ma ss
ma ge
us o
us ted
us ual
us ky
us age
us cant
Ġpa i
Ġpa ra
Ġpa ti
Ġpa py
ot er
ot one
ot ball
Ġli s
Ġli ken
ed ing
ed ish
Ġth an
Ġsh atter
Ġsh elf
Ġsh rim
Ġsh anghai
el ina
ch s
ch ant
ch ery
ch ris
ch ibi
ch loe
ut s
sta cked
et le
et onib
Ġr ong
Ġr ice
Ġr usted
ine stone
Ġn iz
Ġn umber
Ġn amed
ur i
Ġthe m
ig e
ig matic
om punk
om use
om ina
Ġon scienti
Ġj in
Ġj as
Ġj ana
Ġj oven
Ġj peg
id ated
id ents
Ġma king
Ġma ze
Ġma rty
Ġma dis
Ġma fia
Ġst op
Ġst uck
per ko
per thwa
ali ke
Ġpo op
Ġpo go
Ġpo lish
Ġpo ison
Ġpo ured
Ġpo oh
ss ic
ss om
ss io
am ous
oto pia
Ġan ne
Ġan vil
Ġan esthes
ir on
ir king
ir ky
Ġhigh spe
sh anghai
ne on
tal l
ad in
ad ian
Ġro o
Ġro t
Ġro me
Ġro chin
Ġen co
Ġen tire
Ġen ticing
Ġen aissance
Ġfo u
Ġfo otball
od le
od es
od ile
Ġcon e
Ġcon an
Ġcon sc
Ġcon tin
ie le
im ov
se mi
stra nds
um er
ov tse
Ġba y
Ġba il
Ġba be
Ġba pti
Ġtre sure
pt ual
Ġeng land
Ġfa ith
Ġfa zio
Ġintricate ly
Ġch ili
Ġch eck
Ġch oker
Ġch oi
Ġun usual
Ġsharp ed
po sa
po seid
Ġsc ream
Ġsc rat
sy lvan
sy ndic
mo th
mo ther
mo untain
Ġlight rays
Ġlight wea
Ġbe en
Ġbe st
Ġbe utiful
Ġbe etle
Ġle ss
Ġle tter
Ġle gg
Ġle gged
Ġle tters
Ġstyle s
ster one
ster field
Ġmo usta
Ġha cket
Ġha ndy
Ġha ag
Ġra ces
Ġra bb
Ġra vens
Ġdra cul
ke letal
Ġsp in
Ġsp utter
ud o
ud ged
Ġsta sh
Ġsta ying
ers ing
unk y
ri um
ri be
ri ka
oth ea
Ġy arn
Ġl ind
Ġl liam
Ġla p
Ġla in
Ġla ptop
Ġla vish
Ġla zar
up s
Ġal bi
Ġal berto
Ġar ney
Ġar zach
ber land
Ġz eld
Ġz oid
Ġz ek
Ġz ex
Ġz eron
de ck
Ġco con
Ġco uld
Ġlo mo
Ġlo ver
Ġlo ren
Ġlo af
Ġlo uis
Ġto ur
Ġto urnegrin
Ġbla ke
Ġmu ta
Ġca ge
Ġca se
Ġca ble
Ġca bin
Ġca pture
Ġca sc
Ġca sson
Ġca ulfield
Ġca itlin
ter ey
Ġfi ve
Ġfi bon
Ġat tor
Ġat tri
Ġat kinson
Ġat ompunk
Ġblack s
Ġblack berry
Ġex esa
Ġex pressing
Ġne croman
Ġne cron
Ġte sto
as oph
Ġcom mons
Ġcom bina
Ġab stra
Ġab and
Ġab aond
Ġab omina
ap idated
Ġbr ie
man ga
ima lism
Ġfe el
fe i
Ġda fo
Ġbackground s
Ġbo rel
Ġbo ards
Ġta les
Ġta xi
ga ga
Ġbi furcated
Ġdark so
na ut
na tive
na ive
ich ao
Ġsun bea
Ġcy an
Ġcy bers
ian a
Ġru g
Ġru o
Ġru st
Ġru ined
bo at
Ġwin nie
Ġis ek
Ġis lands
Ġhead ed
Ġhead less
Ġhead phone
Ġhead lamp
Ġpro mo
Ġpro to
Ġpro gram
Ġdo umb
Ġdo odle
Ġste ven
Ġste ps
Ġyo semi
co p
co ol
co ck
co pe
co urse
ðŁ ¤
ðŁ ¦
ðŁ ĳ
pic ture
Ġgra ve
Ġgra ves
Ġgra zing
Ġgra ding
Ġred d
Ġme kka
ff ins
ff erent
ff any
ered in
Ġwoman s
Ġwa nder
Ġwa if
Ġed m
Ġed ged
Ġed gar
Ġso ur
Ġso ck
Ġso ak
Ġpix ela
Ġmag ia
Ġmag no
Ġmag estic
Ġor bs
Ġor gana
Ġhair s
Ġhair style
Ġfull body
Ġhd d
art work
Ġins ight
Ġrob b
Ġale ssio
Ġmar cus
Ġmar ily
Ġmar got
Ġbar bec
Ġno ct
Ġno rton
Ġjo san
Ġjo gia
Ġjo urne
ya ka
Ġfran ces
ty pe
let to
ris on
Ġtom er
Ġti e
Ġti be
Ġti ffany
Ġher d
Ġpaint jo
Ġcan adian
chi p
Ġdis aster
Ġross i
Ġsa usage
Ġsa yaka
Ġmon ad
Ġmon ge
Ġmon tage
Ġmon oc
Ġmon itor
Ġmon tain
Ġmon otone
Ġmon terey
min otaur
Ġbu ck
Ġbu gs
Ġbu rton
Ġac ne
Ġac ademia
Ġover flow
ĠðŁ ĵ
ĠðŁ Ķ
ĠðŁ Ĵĥ,
Ġgr id
Ġgr ingle
Ġtran sylvan
Ġfor ge
Ġsuper flat
wa ves
Ġflu te
Ġspace man
Ġel ven
Ġqu ar
Ġqu irky
gu cci
Ġgame play
Ġang els
Ġcar us
Ġcar icature
Ġcar ribe
ac c
ac tion
ac ci
ac rylic
ac tions
ste ven
Ġlu te
Ġmc cub
Ġmc fly
Ġcell s
Ġcell ular
Ġhor rific
Ġgo bi
Ġwe eping
Ġga int
Ġdraw ception
pe i
pe ndence
ba ev
ba uhaus
Ġu i
Ġu gallery
len tino
Ġgod ly
Ġsm irking
Ġsm udged
Ġrh y
Ġrh inestone
Ġrh odes
Ġcolorful l
Ġblo ke
Ġblo tter
dra sil
cent ralized
Ġse quo
Ġse gmen
Ġarm ed
Ġarm stron
Ġcre ate
Ġcre vice
Ġprof ess
Ġem il
Ġem pi
Ġem boss
Ġem ika
Ġtra m
Ġtra mp
Ġhan g
Ġhan gar
Ġhan uka
gg et
gg drasil
Ġpsy ched
Ġir i
Ġir ish
!!!! ,
Ġalex andre
Ġbea k
Ġbea th
Ġgu o
Ġve lez
Ġve hic
Ġge ek
Ġge of
Ġangle d
Ġmel moth
Ġfire ball
Ġja ma
Ġja eun
Ġglo ver
Ġlook alike
be li
be th
Ġaf tern
Ġgoth am
Ġfan ning
Ġfan gs
Ġcomic book
ev il
Ġmus cles
Ġble mished
Ġble eding
Ġdri bb
Ġfront line
va se
Ġlens es
Ġsw edish
Ġres et
Ġres ident
Ġvic e
Ġhe nd
Ġhe al
Ġhe iders
Ġhe jump
Ġcry sta
Ġmin kowski
Ġmin otaur
Ġmin dar
Ġmin ority
Ġpastel s
Ġbeks ink
Ġcolour ing
ellow ship
Ġcontrast s
Ġlights aber
Ġpark s
Ġpark ed
Ġna tive
Ġna gai
Ġna poleon
Ġna thali
ious ness
Ġpe i
Ġpe sty
Ġpe bbles
Ġpe lat
Ġsho es
Ġsho hei
Ġsho uting
sp i
Ġrad io
Ġcub ist
Ġmodel s
sa ul
sa int
tor ian
Ġpen ny
Ġmi ami
Ġwitch craft
water fall
Ġref reshing
Ġmax field
Ġalexander mc
Ġshi eld
Ġinf amous
Ġcast ing
dy ne
di fferent
wl ing
olog ical
Ġcol lin
Ġcol ras
Ġes ti
Ġes que
ca ve
Ġtime less
Ġfren zy
eric o
Ġtw isted
Ġjacket s
Ġcla d
Ġrid ge
ret ched
Ġhalf ing
Ġbl ushing
zz le
zz ly
Ġbeach es
Ġtechn ique
Ġwond er
Ġinter woven
ip ment
ja y
Ġink arnate
Ġpan ic
Ġpan els
con stru
con cordia
Ġnov eau
Ġtable s
Ġtan ning
Ġtan ks
Ġsnow ing
Ġcor gi
Ġcor bus
Ġcor uscant
Ġden ys
Ġdragon flies
Ġnovel s
com b
com bat
com mission
Ġbor berland
Ġcur ves
Ġcur ious
Ġka z
Ġka iser
Ġka buto
Ġknight s
ex pired
ex plo
Ġbus te
Ġline less
Ġplan es
Ġgh arliera
Ġnin jask
we st
we led
Ġare a
Ġare na
Ġbed ouin
Ġbur dis
Ġbur ied
Ġmach ines
Ġperson al
Ġcro ft
Ġche sterfield
Ġchar is
Ġprincess es
Ġfish ing
Ġandre j
Ġandre w
Ġcamp fire
Ġsal oon
Ġsal vage
Ġmor rison
Ġarc tic
Ġarc anist
Ġsub way
Ġsub mar
Ġsub cons
Ġbro thers
Ġtow ard
Ġtow els
Ġser enity
Ġpar liam
Ġpar rish
Ġking dom
cu le
Ġgla s
Ġdeco rative
its une
Ġsqu id
Ġmountain ous
Ġtooth brush
Ġgem stones
Ġx kcd
Ġscreenshot satur
Ġbox ing
.. ..
bre lla
bre aking
Ġwild life
Ġtor rent
Ġtor ches
Ġcinemato graphic
Ġice cream
Ġce ptual
