{
  "version": "1.0",
  "truncation": {
    "direction": "Right",
    "max_length": 128,
    "strategy": "LongestFirst",
    "stride": 0
  },
  "padding": null,
  "added_tokens": [
    {
      "id": 0,
      "content": "<|endoftext|>",
      "single_word": false,
      "lstrip": false,
      "rstrip": false,
      "normalized": true,
      "special": true
    }
  ],
  "normalizer": null,
  "pre_tokenizer": {
    "type": "ByteLevel",
    "add_prefix_space": false,
    "trim_offsets": true,
    "use_regex": true
  },
  "post_processor": {
    "type": "ByteLevel",
    "add_prefix_space": true,
    "trim_offsets": false,
    "use_regex": true
  },
  "decoder": {
    "type": "ByteLevel",
    "add_prefix_space": true,
    "trim_offsets": true,
    "use_regex": true
  },
  "model": {
    "type": "BPE",
    "dropout": null,
    "unk_token": null,
    "continuing_subword_prefix": "",
    "end_of_word_suffix": "",
    "fuse_unk": false,
    "byte_fallback": false,
    "ignore_merges": false,
    "vocab": {
      "<|endoftext|>": 0,
      "!": 1,
      "\"": 2,
      "#": 3,
      "$": 4,
      "%": 5,
      "&": 6,
      "'": 7,
      "(": 8,
      ")": 9,
      "*": 10,
      "+": 11,
      ",": 12,
      "-": 13,
      ".": 14,
      "/": 15,
      "0": 16,
      "1": 17,
      "2": 18,
      "3": 19,
      "4": 20,
      "5": 21,
      "6": 22,
      "7": 23,
      "8": 24,
      "9": 25,
      ":": 26,
      ";": 27,
      "<": 28,
      "=": 29,
      ">": 30,
      "?": 31,
      "@": 32,
      "A": 33,
      "B": 34,
      "C": 35,
      "D": 36,
      "E": 37,
      "F": 38,
      "G": 39,
      "H": 40,
      "I": 41,
      "J": 42,
      "K": 43,
      "L": 44,
      "M": 45,
      "N": 46,
      "O": 47,
      "P": 48,
      "Q": 49,
      "R": 50,
      "S": 51,
      "T": 52,
      "U": 53,
      "V": 54,
      "W": 55,
      "X": 56,
      "Y": 57,
      "Z": 58,
      "[": 59,
      "\\": 60,
      "]": 61,
      "^": 62,
      "_": 63,
      "`": 64,
      "a": 65,
      "b": 66,
      "c": 67,
      "d": 68,
      "e": 69,
      "f": 70,
      "g": 71,
      "h": 72,
      "i": 73,
      "j": 74,
      "k": 75,
      "l": 76,
      "m": 77,
      "n": 78,
      "o": 79,
      "p": 80,
      "q": 81,
      "r": 82,
      "s": 83,
      "t": 84,
      "u": 85,
      "v": 86,
      "w": 87,
      "x": 88,
      "y": 89,
      "z": 90,
      "{": 91,
      "|": 92,
      "}": 93,
      "~": 94,
      "¡": 95,
      "¢": 96,
      "£": 97,
      "¤": 98,
      "¥": 99,
      "¦": 100,
      "§": 101,
      "¨": 102,
      "©": 103,
      "ª": 104,
      "«": 105,
      "¬": 106,
      "®": 107,
      "¯": 108,
      "°": 109,
      "±": 110,
      "²": 111,
      "³": 112,
      "´": 113,
      "µ": 114,
      "¶": 115,
      "·": 116,
      "¸": 117,
      "¹": 118,
      "º": 119,
      "»": 120,
      "¼": 121,
      "½": 122,
      "¾": 123,
      "¿": 124,
      "À": 125,
      "Á": 126,
      "Â": 127,
      "Ã": 128,
      "Ä": 129,
      "Å": 130,
      "Æ": 131,
      "Ç": 132,
      "È": 133,
      "É": 134,
      "Ê": 135,
      "Ë": 136,
      "Ì": 137,
      "Í": 138,
      "Î": 139,
      "Ï": 140,
      "Ð": 141,
      "Ñ": 142,
      "Ò": 143,
      "Ó": 144,
      "Ô": 145,
      "Õ": 146,
      "Ö": 147,
      "×": 148,
      "Ø": 149,
      "Ù": 150,
      "Ú": 151,
      "Û": 152,
      "Ü": 153,
      "Ý": 154,
      "Þ": 155,
      "ß": 156,
      "à": 157,
      "á": 158,
      "â": 159,
      "ã": 160,
      "ä": 161,
      "å": 162,
      "æ": 163,
      "ç": 164,
      "è": 165,
      "é": 166,
      "ê": 167,
      "ë": 168,
      "ì": 169,
      "í": 170,
      "î": 171,
      "ï": 172,
      "ð": 173,
      "ñ": 174,
      "ò": 175,
      "ó": 176,
      "ô": 177,
      "õ": 178,
      "ö": 179,
      "÷": 180,
      "ø": 181,
      "ù": 182,
      "ú": 183,
      "û": 184,
      "ü": 185,
      "ý": 186,
      "þ": 187,
      "ÿ": 188,
      "Ā": 189,
      "ā": 190,
      "Ă": 191,
      "ă": 192,
      "Ą": 193,
      "ą": 194,
      "Ć": 195,
      "ć": 196,
      "Ĉ": 197,
      "ĉ": 198,
      "Ċ": 199,
      "ċ": 200,
      "Č": 201,
      "č": 202,
      "Ď": 203,
      "ď": 204,
      "Đ": 205,
      "đ": 206,
      "Ē": 207,
      "ē": 208,
      "Ĕ": 209,
      "ĕ": 210,
      "Ė": 211,
      "ė": 212,
      "Ę": 213,
      "ę": 214,
      "Ě": 215,
      "ě": 216,
      "Ĝ": 217,
      "ĝ": 218,
      "Ğ": 219,
      "ğ": 220,
      "Ġ": 221,
      "ġ": 222,
      "Ģ": 223,
      "ģ": 224,
      "Ĥ": 225,
      "ĥ": 226,
      "Ħ": 227,
      "ħ": 228,
      "Ĩ": 229,
      "ĩ": 230,
      "Ī": 231,
      "ī": 232,
      "Ĭ": 233,
      "ĭ": 234,
      "Į": 235,
      "į": 236,
      "İ": 237,
      "ı": 238,
      "Ĳ": 239,
      "ĳ": 240,
      "Ĵ": 241,
      "ĵ": 242,
      "Ķ": 243,
      "ķ": 244,
      "ĸ": 245,
      "Ĺ": 246,
      "ĺ": 247,
      "Ļ": 248,
      "ļ": 249,
      "Ľ": 250,
      "ľ": 251,
      "Ŀ": 252,
      "ŀ": 253,
      "Ł": 254,
      "ł": 255,
      "Ń": 256,
      "in": 257,
      "Ġa": 258,
      "er": 259,
      "Ġs": 260,
      "Ġb": 261,
      "on": 262,
      "re": 263,
      "ta": 264,
      "Ġc": 265,
      "ra": 266,
      "Ġd": 267,
      "ti": 268,
      "nd": 269,
      "le": 270,
      "Ġp": 271,
      "ing": 272,
      "rt": 273,
      "Ġf": 274,
      "Ġm": 275,
      "an": 276,
      "Ġo": 277,
      "li": 278,
      "Ġh": 279,
      "th": 280,
      "Ġw": 281,
      "Ġg": 282,
      "Ġart": 283,
      "ar": 284,
      "en": 285,
      "Ġby": 286,
      "ic": 287,
      "or": 288,
      "Ġof": 289,
      "gh": 290,
      "Ġde": 291,
      "Ġand": 292,
      "te": 293,
      "ro": 294,
      "al": 295,
      "st": 296,
      "Ġin": 297,
      "tion": 298,
      "il": 299,
      "Ġk": 300,
      "tic": 301,
      "ol": 302,
      "Ġre": 303,
      "ting": 304,
      "Ġt": 305,
      "es": 306,
      "ul": 307,
      "Ġdeta": 308,
      "un": 309,
      "Ġe": 310,
      "ile": 311,
      "ce": 312,
      "iled": 313,
      "lo": 314,
      "Ġv": 315,
      "it": 316,
      "la": 317,
      "is": 318,
      "ma": 319,
      "us": 320,
      "Ġdetailed": 321,
      "Ġpa": 322,
      "ot": 323,
      "Ġli": 324,
      "ed": 325,
      "Ġth": 326,
      "Ġsh": 327,
      "el": 328,
      "at": 329,
      "ch": 330,
      "ut": 331,
      "sta": 332,
      "et": 333,
      "Ġr": 334,
      "ine": 335,
      "igh": 336,
      "Ġn": 337,
      "ea": 338,
      "Ġligh": 339,
      "ur": 340,
      "Ġthe": 341,
      "ig": 342,
      "om": 343,
      "ph": 344,
      "Ġon": 345,
      "Ġj": 346,
      "id": 347,
      "Ġma": 348,
      "Ġst": 349,
      "per": 350,
      "Ġpain": 351,
      "ali": 352,
      "station": 353,
      "ck": 354,
      "Ġartstation": 355,
      "Ġpo": 356,
      "ss": 357,
      "ful": 358,
      "ow": 359,
      "ly": 360,
      "ric": 361,
      "nder": 362,
      "Ġwi": 363,
      "lu": 364,
      "am": 365,
      "alis": 366,
      "oto": 367,
      "Ġwith": 368,
      "Ġan": 369,
      "rait": 370,
      "Ġpainting": 371,
      "rtrait": 372,
      "Ġgre": 373,
      "ir": 374,
      "ki": 375,
      "Ġhigh": 376,
      "sh": 377,
      "ne": 378,
      "tal": 379,
      "ct": 380,
      "ad": 381,
      "Ġro": 382,
      "Ġrender": 383,
      "Ġen": 384,
      "ate": 385,
      "olor": 386,
      "Ġfo": 387,
      "matic": 388,
      "Ġ8": 389,
      "ge": 390,
      "Ġ-": 391,
      "Ġlighting": 392,
      "od": 393,
      "Ġcon": 394,
      "Ġph": 395,
      "ows": 396,
      "ie": 397,
      "Ġint": 398,
      "Ġgreg": 399,
      "eau": 400,
      "im": 401,
      "se": 402,
      "stra": 403,
      "Ġphoto": 404,
      "um": 405,
      "ov": 406,
      "tiful": 407,
      "eautiful": 408,
      "Ġportrait": 409,
      "alistic": 410,
      "Ġba": 411,
      "nding": 412,
      "Ġrut": 413,
      "Ġtre": 414,
      "pt": 415,
      "Ġhy": 416,
      "kows": 417,
      "Ġrutkows": 418,
      "Ġeng": 419,
      "Ġoc": 420,
      "ent": 421,
      "Ġhyper": 422,
      "Ġocta": 423,
      "Ġoctane": 424,
      "Ġil": 425,
      "arp": 426,
      "Ġrutkowski": 427,
      "Ġcolor": 428,
      "Ġbeautiful": 429,
      "ricate": 430,
      "Ġfa": 431,
      "Ġintricate": 432,
      "Ġhighly": 433,
      "ital": 434,
      "Ġch": 435,
      "Ġun": 436,
      "ure": 437,
      "cept": 438,
      "Ġcine": 439,
      "igital": 440,
      "Ġtrending": 441,
      "Ġsharp": 442,
      "po": 443,
      "Ġconcept": 444,
      "Ġdigital": 445,
      "ran": 446,
      "Ġsc": 447,
      "real": 448,
      "ve": 449,
      "sy": 450,
      "raph": 451,
      "mo": 452,
      "anta": 453,
      "Ġillu": 454,
      "Ġlight": 455,
      "Ġ0": 456,
      "Ġsty": 457,
      "ant": 458,
      "Ġ4": 459,
      "cus": 460,
      "Ġbe": 461,
      "Ġcinematic": 462,
      "Ġle": 463,
      "low": 464,
      "Ġfocus": 465,
      "Ġstyle": 466,
      "ster": 467,
      "Ġmo": 468,
      "Ġengine": 469,
      "tra": 470,
      "Ġha": 471,
      "Ġillustra": 472,
      "ard": 473,
      "und": 474,
      "Ġra": 475,
      "Ġdra": 476,
      "Ġunreal": 477,
      "ke": 478,
      "Ġsp": 479,
      "hi": 480,
      "ud": 481,
      "Ġsta": 482,
      "Ġrealistic": 483,
      "ple": 484,
      "ion": 485,
      "ers": 486,
      "unk": 487,
      "Ġillustration": 488,
      "Ġman": 489,
      "ri": 490,
      "Ġ5": 491,
      "oth": 492,
      "qu": 493,
      "io": 494,
      "iv": 495,
      "ear": 496,
      "ater": 497,
      "Ġy": 498,
      "Ġl": 499,
      "Ġla": 500,
      "up": 501,
      "ark": 502,
      "Ġal": 503,
      "old": 504,
      "Ġfanta": 505,
      "Ġar": 506,
      "Ġback": 507,
      "ber": 508,
      "graph": 509,
      "Ġz": 510,
      "de": 511,
      "Ġface": 512,
      "etric": 513,
      "Ġfantasy": 514,
      "ry": 515,
      "round": 516,
      "Ġ3": 517,
      "Ġ1": 518,
      "ight": 519,
      "rom": 520,
      "ide": 521,
      "!!": 522,
      "Ġclo": 523,
      "Ġco": 524,
      "ia": 525,
      "ger": 526,
      "Ġsmo": 527,
      "Ġlo": 528,
      "Ġto": 529,
      "Ġbla": 530,
      "Ġdetail": 531,
      "Ġmu": 532,
      "Ġca": 533,
      "ter": 534,
      "Ġfi": 535,
      "aw": 536,
      "punk": 537,
      "Ġat": 538,
      "alism": 539,
      "ress": 540,
      "ci": 541,
      "ning": 542,
      "Ġcolors": 543,
      "Ġblack": 544,
      "Ġex": 545,
      "cha": 546,
      "ery": 547,
      "ull": 548,
      "Ġne": 549,
      "ultra": 550,
      "Ġte": 551,
      "Ġwater": 552,
      "Ġsy": 553,
      "ess": 554,
      "Ġultra": 555,
      "ins": 556,
      "ground": 557,
      "all": 558,
      "germ": 559,
      "as": 560,
      "Ġcom": 561,
      "Ġartgerm": 562,
      "pa": 563,
      "Ġdes": 564,
      "Ġab": 565,
      "Ġfrom": 566,
      "ap": 567,
      "Ġhea": 568,
      "ted": 569,
      "Ġsk": 570,
      "Ġbr": 571,
      "Ġdramatic": 572,
      "Ġoil": 573,
      "Ġphotograph": 574,
      "Ġsu": 575,
      "utur": 576,
      "man": 577,
      "ima": 578,
      "Ġsmooth": 579,
      "Ġwear": 580,
      "Ġfe": 581,
      "uturis": 582,
      "fe": 583,
      "Ġshad": 584,
      "Ġda": 585,
      "Ġbackground": 586,
      "ody": 587,
      "Ġbo": 588,
      "Ġshot": 589,
      "ver": 590,
      "Ġta": 591,
      "ga": 592,
      "Ġmaster": 593,
      "Ġmucha": 594,
      "portrait": 595,
      "Ġbi": 596,
      "Ġvery": 597,
      "Ġwearing": 598,
      "Ġdark": 599,
      "ell": 600,
      "ime": 601,
      "Ġcha": 602,
      "Ġele": 603,
      "na": 604,
      "lic": 605,
      "Ġstud": 606,
      "Ġey": 607,
      "ich": 608,
      "realistic": 609,
      "Ġup": 610,
      "Ġgold": 611,
      "one": 612,
      "ix": 613,
      "Ġsun": 614,
      "olum": 615,
      "Ġcy": 616,
      "Ġ2": 617,
      "ign": 618,
      "lass": 619,
      "ian": 620,
      "the": 621,
      "Ġru": 622,
      "bo": 623,
      "Ġas": 624,
      "hite": 625,
      "wor": 626,
      "Ġwin": 627,
      "Ġis": 628,
      "ract": 629,
      "Ġ9": 630,
      "ity": 631,
      "Ġwhite": 632,
      "ron": 633,
      "Ġdesign": 634,
      "Ġhead": 635,
      "racter": 636,
      "ous": 637,
      "Ġpro": 638,
      "Ġstudio": 639,
      "Ġvolum": 640,
      "Ġbody": 641,
      "Ġ6": 642,
      "Ġdo": 643,
      "ical": 644,
      "olo": 645,
      "Ġanime": 646,
      "Ġfuturis": 647,
      "ush": 648,
      "nds": 649,
      "iew": 650,
      "berpunk": 651,
      "ature": 652,
      "Ġste": 653,
      "Ġview": 654,
      "irl": 655,
      "Ġyo": 656,
      "gant": 657,
      "Ġcharacter": 658,
      "co": 659,
      "ib": 660,
      "ðŁ": 661,
      "pic": 662,
      "Ġgra": 663,
      "Ġred": 664,
      "Ġvolumetric": 665,
      "Ġsym": 666,
      "oman": 667,
      "Ġme": 668,
      "Ġeyes": 669,
      "Ġwar": 670,
      "stract": 671,
      "Ġelegant": 672,
      "ung": 673,
      "ink": 674,
      "me": 675,
      "ff": 676,
      "ld": 677,
      "ered": 678,
      "color": 679,
      "rac": 680,
      "Ġray": 681,
      "ura": 682,
      "Ġflow": 683,
      "ere": 684,
      "ok": 685,
      "Ġwoman": 686,
      "ll": 687,
      "Ġwa": 688,
      "uv": 689,
      "phon": 690,
      "Ġed": 691,
      "Ġabstract": 692,
      "ely": 693,
      "Ġso": 694,
      "row": 695,
      "que": 696,
      "Ġpix": 697,
      "Ġgirl": 698,
      "Ġmag": 699,
      "Ġclose": 700,
      "Ġor": 701,
      "Ġcov": 702,
      "iece": 703,
      "Ġhair": 704,
      "Ġwatercolor": 705,
      "ace": 706,
      "Ġfull": 707,
      "work": 708,
      "realism": 709,
      "ish": 710,
      "Ġshaded": 711,
      "Ġblu": 712,
      "Ġhd": 713,
      "Ġepic": 714,
      "ble": 715,
      "Ġsur": 716,
      "ation": 717,
      "piece": 718,
      "Ġsymm": 719,
      "art": 720,
      "Ġmat": 721,
      "Ġins": 722,
      "Ġwh": 723,
      "Ġlon": 724,
      "si": 725,
      "red": 726,
      "Ġrob": 727,
      "Ġalphon": 728,
      "Ġblue": 729,
      "Ġbee": 730,
      "Ġcyberpunk": 731,
      "Ġale": 732,
      "ome": 733,
      "rant": 734,
      "and": 735,
      "Ġmar": 736,
      "Ġ(": 737,
      "ren": 738,
      "Ġglass": 739,
      "ub": 740,
      "Ġalphonse": 741,
      "ilm": 742,
      "Ġbeeple": 743,
      "Ġbar": 744,
      "Ġ)": 745,
      "Ġmade": 746,
      "Ġphotography": 747,
      "till": 748,
      "Ġartwork": 749,
      "ligh": 750,
      "Ġvib": 751,
      "Ġno": 752,
      "ism": 753,
      "Ġfuturistic": 754,
      "sing": 755,
      "Ġmasterpiece": 756,
      "ward": 757,
      "Ġi": 758,
      "Ġjo": 759,
      "ft": 760,
      "ya": 761,
      "Ġcg": 762,
      "Ġfran": 763,
      "fect": 764,
      "Ġfore": 765,
      "lop": 766,
      "Ġke": 767,
      "shin": 768,
      "mer": 769,
      "Ġmatte": 770,
      "ty": 771,
      "let": 772,
      "Ġgolden": 773,
      "son": 774,
      "photo": 775,
      "so": 776,
      "ther": 777,
      "eld": 778,
      "Ġruan": 779,
      "bi": 780,
      "vi": 781,
      "Ġpet": 782,
      "Ġkuv": 783,
      "ris": 784,
      "Ġwlop": 785,
      "shinov": 786,
      "Ġkuvshinov": 787,
      "ment": 788,
      "Ġjia": 789,
      "ivid": 790,
      "ai": 791,
      "orn": 792,
      "Ġsci": 793,
      "Ġho": 794,
      "Ġvivid": 795,
      "ute": 796,
      "ape": 797,
      "Ġtom": 798,
      "Ġvibrant": 799,
      "Ġti": 800,
      "Ġrealism": 801,
      "Ġlea": 802,
      "Ġsymmetric": 803,
      "Ġher": 804,
      "Ġpaint": 805,
      "Ġmm": 806,
      "Ġcan": 807,
      "ond": 808,
      "tive": 809,
      "Ġgig": 810,
      "Ġrock": 811,
      "chi": 812,
      "Ġdis": 813,
      "Ġnight": 814,
      "tre": 815,
      "Ġross": 816,
      "Ġsa": 817,
      "les": 818,
      "Ġgraph": 819,
      "Ġphotorealistic": 820,
      "male": 821,
      "Ġmon": 822,
      "Ġforest": 823,
      "Ġgraphic": 824,
      "king": 825,
      "min": 826,
      "Ġsky": 827,
      "ving": 828,
      "ade": 829,
      "Ġlong": 830,
      "Ġbu": 831,
      "tailed": 832,
      "detailed": 833,
      "Ġac": 834,
      "Ġcity": 835,
      "gra": 836,
      "ist": 837,
      "Ġcent": 838,
      "ame": 839,
      "light": 840,
      "ili": 841,
      "Ġover": 842,
      "ĠðŁ": 843,
      "Ġgr": 844,
      "sk": 845,
      "Ġdetails": 846,
      "Ġstill": 847,
      "Ġmov": 848,
      "antart": 849,
      "ern": 850,
      "Ġdevi": 851,
      "sition": 852,
      "Ġtran": 853,
      "Ġextre": 854,
      "Ġdeviantart": 855,
      "lim": 856,
      "lin": 857,
      "Ġcra": 858,
      "Ġscen": 859,
      "Ġcompo": 860,
      "Ġcle": 861,
      "Ġfor": 862,
      "cher": 863,
      "ety": 864,
      "ciety": 865,
      "iant": 866,
      "Ġsuper": 867,
      "Ġfemale": 868,
      "wa": 869,
      "Ġstar": 870,
      "Ġfrank": 871,
      "Ġ:": 872,
      "Ġmanga": 873,
      "Ġyoung": 874,
      "vir": 875,
      "Ġper": 876,
      "Ġpla": 877,
      "Ġcomposition": 878,
      "xt": 879,
      "Ġwinning": 880,
      "Ġfilm": 881,
      "orph": 882,
      "rop": 883,
      "Ġfield": 884,
      "Ġcgso": 885,
      "Ġcgsociety": 886,
      "to": 887,
      "Ġ7": 888,
      "Ġad": 889,
      "ael": 890,
      "Ġdy": 891,
      "Ġflu": 892,
      "Ġspace": 893,
      "unge": 894,
      "Ġel": 895,
      "Ġje": 896,
      "Ġqu": 897,
      "ral": 898,
      "Ġjam": 899,
      "Ġmovie": 900,
      "gu": 901,
      "Ġmy": 902,
      "Ġvan": 903,
      "Ġkey": 904,
      "lant": 905,
      "Ġgame": 906,
      "Ġang": 907,
      "Ġenvir": 908,
      "Ġperfect": 909,
      "os": 910,
      "press": 911,
      "Ġwide": 912,
      "box": 913,
      "Ġaward": 914,
      "kes": 915,
      "Ġrobot": 916,
      "Ġcar": 917,
      "Ġjames": 918,
      "ac": 919,
      "Ġcolo": 920,
      "Ġbag": 921,
      "'s": 922,
      "Ġbra": 923,
      "ley": 924,
      "Ġglow": 925,
      "ste": 926,
      "Ġlu": 927,
      "Ġmich": 928,
      "Ġgiger": 929,
      "Ġmed": 930,
      "ild": 931,
      "shaw": 932,
      "Ġhyperrealism": 933,
      "Ġsymmetrical": 934,
      "Ġdi": 935,
      "Ġout": 936,
      "Ġfeature": 937,
      "Ġwor": 938,
      "ak": 939,
      "my": 940,
      "Ġmc": 941,
      "ines": 942,
      "Ġcell": 943,
      "Ġbright": 944,
      "Ġpixiv": 945,
      "bli": 946,
      "Ġhor": 947,
      "Ġpeter": 948,
      "Ġbagshaw": 949,
      "Ġdan": 950,
      "Ġtrac": 951,
      "Ġmale": 952,
      "Ġtracing": 953,
      "stic": 954,
      "ton": 955,
      "ust": 956,
      "Ġgo": 957,
      "Ġklim": 958,
      "shi": 959,
      "Ġklimt": 960,
      "ves": 961,
      "Ġwe": 962,
      "Ġga": 963,
      "Ġdraw": 964,
      "cal": 965,
      "pe": 966,
      "ream": 967,
      "ads": 968,
      "Ġmak": 969,
      "ba": 970,
      "Ġu": 971,
      "len": 972,
      "Ġim": 973,
      "Ġgod": 974,
      "usta": 975,
      "era": 976,
      "ance": 977,
      "Ġwall": 978,
      "iny": 979,
      "Ġcat": 980,
      "Ġdress": 981,
      "ens": 982,
      "vas": 983,
      "Ġsm": 984,
      "Ġrh": 985,
      "Ġposter": 986,
      "Ġcolorful": 987,
      "nam": 988,
      "Ġblo": 989,
      "tista": 990,
      "Ġpor": 991,
      "rown": 992,
      "dra": 993,
      "ined": 994,
      "Ġbig": 995,
      "Ġarts": 996,
      "ched": 997,
      "Ġcloud": 998,
      "cent": 999,
      "Ġali": 1000,
      "Ġse": 1001,
      "Ġfur": 1002,
      "Ġarm": 1003,
      "rin": 1004,
      "Ġcre": 1005,
      "Ġdep": 1006,
      "bin": 1007,
      "Ġprof": 1008,
      "cape": 1009,
      "iet": 1010,
      "orphic": 1011,
      "yp": 1012,
      "Ġcam": 1013,
      "Ġjes": 1014,
      "Ġflo": 1015,
      "list": 1016,
      "Ġhu": 1017,
      "Ġko": 1018,
      "Ġem": 1019,
      "ons": 1020,
      "Ġmod": 1021,
      "Ġanders": 1022,
      "Ġshink": 1023,
      "ilian": 1024,
      "Ġcute": 1025,
      "ord": 1026,
      "Ġtra": 1027,
      "unning": 1028,
      "Ġcovered": 1029,
      "Ġmakoto": 1030,
      "Ġrhads": 1031,
      "ks": 1032,
      "tist": 1033,
      "Ġold": 1034,
      "Ġpalet": 1035,
      "Ġrendered": 1036,
      "gram": 1037,
      "Ġpalette": 1038,
      "tter": 1039,
      "ying": 1040,
      "Ġhan": 1041,
      "Ġneon": 1042,
      "Ġcanvas": 1043,
      "Ġdepth": 1044,
      "Ġshinkai": 1045,
      "Ġanima": 1046,
      "mos": 1047,
      "gg": 1048,
      "ial": 1049,
      "Ġgusta": 1050,
      "uman": 1051,
      "Ġbrush": 1052,
      "ns": 1053,
      "orge": 1054,
      "cture": 1055,
      "rak": 1056,
      "Ġcover": 1057,
      "Ġscene": 1058,
      "Ġmichael": 1059,
      "ep": 1060,
      "Ġsim": 1061,
      "ney": 1062,
      "Ġglowing": 1063,
      "jsing": 1064,
      "Ġfla": 1065,
      "ill": 1066,
      "Ġejsing": 1067,
      "Ġgreen": 1068,
      "Ġilya": 1069,
      "Ġcraig": 1070,
      "Ġjesper": 1071,
      "sm": 1072,
      "ven": 1073,
      "Ġpsy": 1074,
      "Ġmull": 1075,
      "Ġflowers": 1076,
      "Ġmullins": 1077,
      "tan": 1078,
      "ings": 1079,
      "Ġhis": 1080,
      "Ġbeh": 1081,
      "Ġjoh": 1082,
      "Ġfron": 1083,
      "ille": 1084,
      "Ġgrunge": 1085,
      "Ġanimation": 1086,
      "Ġir": 1087,
      "!!!!": 1088,
      "Ġwind": 1089,
      "beautiful": 1090,
      "mely": 1091,
      "Ġkilian": 1092,
      "Ġpose": 1093,
      "oviet": 1094,
      "Ġalex": 1095,
      "pression": 1096,
      "Ġalien": 1097,
      "ass": 1098,
      "tro": 1099,
      "Ġsoviet": 1100,
      "Ġbea": 1101,
      "Ġdof": 1102,
      "oon": 1103,
      "ws": 1104,
      "Ġgu": 1105,
      "ndscape": 1106,
      "Ġgustav": 1107,
      "nate": 1108,
      "vid": 1109,
      "Ġve": 1110,
      "itch": 1111,
      "ality": 1112,
      "Ġsoft": 1113,
      "reet": 1114,
      "Ġge": 1115,
      "Ġextremely": 1116,
      "fi": 1117,
      "mon": 1118,
      "ny": 1119,
      "res": 1120,
      "Ġpic": 1121,
      "ato": 1122,
      "ami": 1123,
      "Ġsuit": 1124,
      "namic": 1125,
      "op": 1126,
      "Ġima": 1127,
      "Ġhuman": 1128,
      "Ġsyn": 1129,
      "Ġornate": 1130,
      "ko": 1131,
      "raving": 1132,
      "Ġengraving": 1133,
      "xture": 1134,
      "Ġquality": 1135,
      "Ġapo": 1136,
      "Ġprin": 1137,
      "Ġinsta": 1138,
      "cket": 1139,
      "Ġtrans": 1140,
      "Ġangle": 1141,
      "mosph": 1142,
      "vich": 1143,
      "Ġmel": 1144,
      "Ġfire": 1145,
      "Ġatmosph": 1146,
      "Ġmalevich": 1147,
      "ugh": 1148,
      "ye": 1149,
      "Ġnad": 1150,
      "Ġja": 1151,
      "Ġmoun": 1152,
      "queen": 1153,
      "Ġinstagram": 1154,
      "Ġnadar": 1155,
      "da": 1156,
      "elic": 1157,
      "Ġglo": 1158,
      "chan": 1159,
      "oque": 1160,
      "Ġghi": 1161,
      "Ġstreet": 1162,
      "Ġdrag": 1163,
      "Ġlook": 1164,
      "Ġhdr": 1165,
      "Ġirak": 1166,
      "Ġghibli": 1167,
      "Ġirakli": 1168,
      "Ġpaste": 1169,
      "Ġcinema": 1170,
      "ional": 1171,
      "Ġarchi": 1172,
      "Ġmasterful": 1173,
      "orgeous": 1174,
      "Ġroman": 1175,
      "Ġstained": 1176,
      "chedelic": 1177,
      "be": 1178,
      "yo": 1179,
      "Ġaf": 1180,
      "Ġgoth": 1181,
      "shion": 1182,
      "Ġcart": 1183,
      "Ġdynamic": 1184,
      "Ġjean": 1185,
      "Ġworld": 1186,
      "draws": 1187,
      "Ġarchite": 1188,
      "ctive": 1189,
      "pp": 1190,
      "Ġit": 1191,
      "Ġfan": 1192,
      "orman": 1193,
      "uture": 1194,
      "Ġcomic": 1195,
      "br": 1196,
      "ev": 1197,
      "Ġmus": 1198,
      "mas": 1199,
      "ctor": 1200,
      "Ġza": 1201,
      "Ġtexture": 1202,
      "Ġskin": 1203,
      "Ġhour": 1204,
      "Ġgraphics": 1205,
      "Ġcartoon": 1206,
      "fol": 1207,
      "Ġble": 1208,
      "Ġdri": 1209,
      "Ġmid": 1210,
      "Ġroom": 1211,
      "Ġclouds": 1212,
      "Ġfront": 1213,
      "va": 1214,
      "ze": 1215,
      "Ġartbox": 1216,
      "Ġartfol": 1217,
      "Ġbaroque": 1218,
      "Ġsynth": 1219,
      "ction": 1220,
      "ood": 1221,
      "Ġside": 1222,
      "shing": 1223,
      "Ġstanding": 1224,
      "ractal": 1225,
      "Ġrossdraws": 1226,
      "calyp": 1227,
      "ual": 1228,
      "rokes": 1229,
      "Ġlens": 1230,
      "Ġlandscape": 1231,
      "Ġzorn": 1232,
      "bius": 1233,
      "Ġdrawing": 1234,
      "met": 1235,
      "ograph": 1236,
      "Ġsw": 1237,
      "Ġfractal": 1238,
      "Ġgorgeous": 1239,
      "Ġres": 1240,
      "Ġcontra": 1241,
      "Ġfashion": 1242,
      "Ġmoe": 1243,
      "Ġpsychedelic": 1244,
      "ald": 1245,
      "Ġvic": 1246,
      "inski": 1247,
      "thetic": 1248,
      "Ġmoebius": 1249,
      "cra": 1250,
      "cing": 1251,
      "lan": 1252,
      "pal": 1253,
      "libin": 1254,
      "Ġhel": 1255,
      "Ġhold": 1256,
      "Ġtho": 1257,
      "Ġnature": 1258,
      "Ġbilibin": 1259,
      "Ġsurreal": 1260,
      "Ġcentered": 1261,
      "ating": 1262,
      "Ġam": 1263,
      "Ġdream": 1264,
      "Ġstrokes": 1265,
      "imalist": 1266,
      "Ġarchitecture": 1267,
      "Ġhe": 1268,
      "ise": 1269,
      "Ġinside": 1270,
      "set": 1271,
      "Ġcry": 1272,
      "Ġmin": 1273,
      "omorphic": 1274,
      "Ġarmor": 1275,
      "Ġjohn": 1276,
      "Ġromantic": 1277,
      "eck": 1278,
      "lla": 1279,
      "val": 1280,
      "Ġpost": 1281,
      "ropomorphic": 1282,
      "Ġapocalyp": 1283,
      "Ġpastel": 1284,
      "clo": 1285,
      "hr": 1286,
      "ka": 1287,
      "Ġbeks": 1288,
      "Ġspla": 1289,
      "Ġinsan": 1290,
      "Ġhuge": 1291,
      "Ġwindow": 1292,
      "fx": 1293,
      "tage": 1294,
      "thropomorphic": 1295,
      "ouse": 1296,
      "Ġcolour": 1297,
      "Ġhans": 1298,
      "Ġholding": 1299,
      "fic": 1300,
      "ru": 1301,
      "tle": 1302,
      "vel": 1303,
      "ird": 1304,
      "Ġspi": 1305,
      "Ġmagic": 1306,
      "Ġbeksinski": 1307,
      "Ġartful": 1308,
      "Ġartpal": 1309,
      "Ġtech": 1310,
      "Ġzatista": 1311,
      "za": 1312,
      "Ġsol": 1313,
      "Ġfine": 1314,
      "ory": 1315,
      "Ġvin": 1316,
      "Ġlike": 1317,
      "ellow": 1318,
      "Ġmask": 1319,
      "chanical": 1320,
      "Ġcontrast": 1321,
      "Ġhelmet": 1322,
      "dress": 1323,
      "ler": 1324,
      "Ġgiant": 1325,
      "rior": 1326,
      "Ġtop": 1327,
      "Ġheaddress": 1328,
      "Ġromanticism": 1329,
      "Ġpunk": 1330,
      "Ġwood": 1331,
      "esthetic": 1332,
      "bor": 1333,
      "ror": 1334,
      "Ġinto": 1335,
      "Ġlights": 1336,
      "essional": 1337,
      "Ġmetal": 1338,
      "Ġbehance": 1339,
      "out": 1340,
      "Ġpark": 1341,
      "stone": 1342,
      "keh": 1343,
      "paper": 1344,
      "Ġbokeh": 1345,
      "Ġbiome": 1346,
      "Ġapocalyptic": 1347,
      "cess": 1348,
      "ick": 1349,
      "Ġna": 1350,
      "ges": 1351,
      "Ġflowing": 1352,
      "Ġclean": 1353,
      "bacher": 1354,
      "Ġsam": 1355,
      "Ġev": 1356,
      "own": 1357,
      "Ġstella": 1358,
      "Ġartslant": 1359,
      "Ġimage": 1360,
      "Ġaesthetic": 1361,
      "ange": 1362,
      "lit": 1363,
      "artist": 1364,
      "roid": 1365,
      "Ġmohr": 1366,
      "ious": 1367,
      "Ġmohrbacher": 1368,
      "int": 1369,
      "Ġpe": 1370,
      "atch": 1371,
      "Ġstunning": 1372,
      "Ġrain": 1373,
      "Ġwarrior": 1374,
      "Ġwallpaper": 1375,
      "Ġpers": 1376,
      "urg": 1377,
      "Ġjere": 1378,
      "wave": 1379,
      "Ġmelting": 1380,
      "Ġthomas": 1381,
      "Ġjeremy": 1382,
      "ies": 1383,
      "jo": 1384,
      "reen": 1385,
      "Ġfin": 1386,
      "lia": 1387,
      "chess": 1388,
      "Ġsmoke": 1389,
      "onement": 1390,
      "Ġblender": 1391,
      "go": 1392,
      "ker": 1393,
      "ree": 1394,
      "Ġgfx": 1395,
      "Ġsho": 1396,
      "Ġmanchess": 1397,
      "Ġyellow": 1398,
      "Ġcloth": 1399,
      "Ġfuturism": 1400,
      "Ġgfxartist": 1401,
      "night": 1402,
      "sp": 1403,
      "ution": 1404,
      "zy": 1405,
      "tian": 1406,
      "atura": 1407,
      "Ġhaun": 1408,
      "Ġclear": 1409,
      "Ġjung": 1410,
      "pera": 1411,
      "ieval": 1412,
      "Ġpixar": 1413,
      "Ġwho": 1414,
      "ander": 1415,
      "range": 1416,
      "Ġfeatures": 1417,
      "Ġprofessional": 1418,
      "ha": 1419,
      "oid": 1420,
      "Ġhal": 1421,
      "Ġlife": 1422,
      "Ġrad": 1423,
      "Ġdisney": 1424,
      "Ġbuild": 1425,
      "Ġfluid": 1426,
      "close": 1427,
      "Ġinsanely": 1428,
      "zki": 1429,
      "olution": 1430,
      "adzki": 1431,
      "ples": 1432,
      "Ġzaw": 1433,
      "Ġmounta": 1434,
      "Ġzawadzki": 1435,
      "hu": 1436,
      "su": 1437,
      "ert": 1438,
      "Ġcub": 1439,
      "ang": 1440,
      "Ġty": 1441,
      "Ġenviron": 1442,
      "Ġenvironement": 1443,
      "Ġmodel": 1444,
      ",,": 1445,
      "sa": 1446,
      "tor": 1447,
      "Ġpen": 1448,
      "Ġmi": 1449,
      "Ġanthropomorphic": 1450,
      "Ġillumin": 1451,
      "iver": 1452,
      "Ġdavid": 1453,
      "Ġkopera": 1454,
      "ith": 1455,
      "side": 1456,
      "Ġwitch": 1457,
      "Ġkaw": 1458,
      "Ġretro": 1459,
      "Ġthat": 1460,
      "Ġanton": 1461,
      "Ġmagical": 1462,
      "Ġmedieval": 1463,
      "bal": 1464,
      "pi": 1465,
      "Ġhyperdetailed": 1466,
      "Ġscreen": 1467,
      "hl": 1468,
      "water": 1469,
      "ini": 1470,
      "Ġsit": 1471,
      "ence": 1472,
      "lain": 1473,
      "rylic": 1474,
      "ĠðŁİ": 1475,
      "asso": 1476,
      "Ġpicasso": 1477,
      "Ġresolution": 1478,
      "erful": 1479,
      "Ġref": 1480,
      "land": 1481,
      "Ġmax": 1482,
      "urai": 1483,
      "Ġleather": 1484,
      "Ġalexander": 1485,
      "borg": 1486,
      "cci": 1487,
      "og": 1488,
      "erent": 1489,
      "Ġdr": 1490,
      "Ġmist": 1491,
      "Ġhard": 1492,
      "Ġkon": 1493,
      "Ġshadows": 1494,
      "Ġalena": 1495,
      "Ġtyler": 1496,
      "Ġenvironment": 1497,
      "Ġillumination": 1498,
      "Ġaen": 1499,
      "Ġfra": 1500,
      "arle": 1501,
      "eng": 1502,
      "Ġshi": 1503,
      "ida": 1504,
      "Ġmoon": 1505,
      "Ġsteam": 1506,
      "Ġmarc": 1507,
      "Ġacrylic": 1508,
      "Ġimpression": 1509,
      "Ġsamurai": 1510,
      "Ġaenami": 1511,
      "ue": 1512,
      "Ġwal": 1513,
      "ican": 1514,
      "nation": 1515,
      "ustin": 1516,
      "Ġporce": 1517,
      "Ġhaunting": 1518,
      "cy": 1519,
      "high": 1520,
      "Ġsn": 1521,
      "Ġfade": 1522,
      "ros": 1523,
      "hiko": 1524,
      "Ġarti": 1525,
      "Ġiris": 1526,
      "ĠðŁİ§": 1527,
      "ath": 1528,
      "ner": 1529,
      "Ġcel": 1530,
      "Ġgi": 1531,
      "Ġinf": 1532,
      "Ġpaper": 1533,
      "stal": 1534,
      "Ġlois": 1535,
      "cient": 1536,
      "Ġday": 1537,
      "Ġedlin": 1538,
      "Ġleaves": 1539,
      "Ġblendernation": 1540,
      "futuris": 1541,
      "glass": 1542,
      "ana": 1543,
      "Ġcast": 1544,
      "Ġdahl": 1545,
      "gue": 1546,
      "Ġunder": 1547,
      "Ġbloom": 1548,
      "Ġfadeev": 1549,
      "bum": 1550,
      "dy": 1551,
      "Ġaki": 1552,
      "ily": 1553,
      "Ġone": 1554,
      "Ġbaarle": 1555,
      "Ġhyperrealistic": 1556,
      "Ġlake": 1557,
      "Ġwave": 1558,
      "Ġfeatured": 1559,
      "Ġmcqueen": 1560,
      "Ġfurry": 1561,
      "Ġvector": 1562,
      "Ġporcelain": 1563,
      "di": 1564,
      "wl": 1565,
      "well": 1566,
      "arge": 1567,
      "sho": 1568,
      "Ġrutkowsk": 1569,
      "Ġexp": 1570,
      "Ġbook": 1571,
      "olog": 1572,
      "Ġcamera": 1573,
      "cul": 1574,
      "ium": 1575,
      "lis": 1576,
      "Ġnorman": 1577,
      "Ġmoss": 1578,
      "Ġmann": 1579,
      "Ġcol": 1580,
      "Ġpur": 1581,
      "Ġfuture": 1582,
      "Ġsunset": 1583,
      "Ġscifi": 1584,
      "Ġdried": 1585,
      "Ġimpressionism": 1586,
      "by": 1587,
      "film": 1588,
      "ier": 1589,
      "ts": 1590,
      "Ġes": 1591,
      "Ġamer": 1592,
      "ones": 1593,
      "Ġhouse": 1594,
      "usion": 1595,
      "Ġstra": 1596,
      "Ġcyborg": 1597,
      "sky": 1598,
      "Ġvintage": 1599,
      "ca": 1600,
      "ita": 1601,
      "Ġcrown": 1602,
      "lite": 1603,
      "ense": 1604,
      "Ġind": 1605,
      "Ġtri": 1606,
      "Ġnation": 1607,
      "Ġtrees": 1608,
      "Ġyosh": 1609,
      "Ġtime": 1610,
      "Ġcrystal": 1611,
      "bs": 1612,
      "Ġic": 1613,
      "Ġfren": 1614,
      "Ġear": 1615,
      "iss": 1616,
      "Ġwarm": 1617,
      "Ġwax": 1618,
      "Ġrockwell": 1619,
      "Ġmyce": 1620,
      "Ġfloating": 1621,
      "Ġbiomechanical": 1622,
      "futuristic": 1623,
      "eric": 1624,
      "ndy": 1625,
      "Ġpal": 1626,
      "room": 1627,
      "Ġtw": 1628,
      "Ġfox": 1629,
      "Ġjacket": 1630,
      "Ġyoshida": 1631,
      "Ġ&": 1632,
      "ind": 1633,
      "Ġcla": 1634,
      "Ġpatter": 1635,
      "urb": 1636,
      "shot": 1637,
      "Ġillustrated": 1638,
      "Ġstars": 1639,
      "Ġakihiko": 1640,
      "Ġpurple": 1641,
      "Ġmycelia": 1642,
      "ior": 1643,
      "zed": 1644,
      "Ġsil": 1645,
      "orm": 1646,
      "illi": 1647,
      "Ġshap": 1648,
      "elan": 1649,
      "Ġrid": 1650,
      "Ġgrey": 1651,
      "Ġwhelan": 1652,
      "bient": 1653,
      "Ġgothic": 1654,
      "Ġambient": 1655,
      "Ġamerican": 1656,
      "ive": 1657,
      "ret": 1658,
      "Ġpainter": 1659,
      "Ġall": 1660,
      "Ġcoat": 1661,
      "Ġdesert": 1662,
      "Ġraytra": 1663,
      "Ġway": 1664,
      "Ġsitting": 1665,
      "Ġnational": 1666,
      "Ġfrench": 1667,
      "ball": 1668,
      "Ġ]": 1669,
      "Ġmark": 1670,
      "illa": 1671,
      "Ġkink": 1672,
      "Ġreal": 1673,
      "Ġlit": 1674,
      "Ġfort": 1675,
      "Ġkinkade": 1676,
      "Ġdon": 1677,
      "plex": 1678,
      "Ġgrainy": 1679,
      "ffy": 1680,
      "Ġedges": 1681,
      "Ġhorror": 1682,
      "Ġvictor": 1683,
      "Ġhalf": 1684,
      "Ġpainterly": 1685,
      "Ġbl": 1686,
      "Ġelite": 1687,
      "Ġville": 1688,
      "uss": 1689,
      "Ġtem": 1690,
      "Ġsimon": 1691,
      "Ġvillene": 1692,
      "dle": 1693,
      "ore": 1694,
      "zz": 1695,
      "inity": 1696,
      "Ġbrown": 1697,
      "Ġdim": 1698,
      "Ġplant": 1699,
      "Ġmut": 1700,
      "Ġhil": 1701,
      "alle": 1702,
      "lying": 1703,
      "ach": 1704,
      "ky": 1705,
      "xy": 1706,
      "ys": 1707,
      "Ġnatura": 1708,
      "Ġscout": 1709,
      "bert": 1710,
      "Ġlove": 1711,
      "Ġbeach": 1712,
      "Ġtechn": 1713,
      "Ġradiant": 1714,
      "Ġbuilding": 1715,
      "bra": 1716,
      "cer": 1717,
      "iel": 1718,
      "Ġwond": 1719,
      "Ġandroid": 1720,
      "utter": 1721,
      "ury": 1722,
      "Ġinter": 1723,
      "Ġarch": 1724,
      "Ġsunglass": 1725,
      "Ġglobal": 1726,
      "Ġraytracing": 1727,
      "cas": 1728,
      "ek": 1729,
      "ik": 1730,
      "kin": 1731,
      "Ġ[": 1732,
      "Ġsma": 1733,
      "Ġhar": 1734,
      "tional": 1735,
      "use": 1736,
      "odak": 1737,
      "lowe": 1738,
      "Ġhand": 1739,
      "Ġhands": 1740,
      "Ġextreme": 1741,
      "Ġatmospheric": 1742,
      "ecker": 1743,
      "irds": 1744,
      "Ġrefle": 1745,
      "Ġsteampunk": 1746,
      "if": 1747,
      "ndecker": 1748,
      "Ġwea": 1749,
      "ala": 1750,
      "etch": 1751,
      "Ġleye": 1752,
      "Ġteam": 1753,
      "Ġglasses": 1754,
      "Ġmiddle": 1755,
      "Ġsunglasses": 1756,
      "Ġsmashing": 1757,
      "Ġleyendecker": 1758,
      "bul": 1759,
      "ip": 1760,
      "ja": 1761,
      "Ġter": 1762,
      "ead": 1763,
      "Ġfair": 1764,
      "Ġsurrealism": 1765,
      "Ġfluffy": 1766,
      "acy": 1767,
      "Ġvictorian": 1768,
      "pen": 1769,
      "Ġ_": 1770,
      "ary": 1771,
      "Ġink": 1772,
      "ese": 1773,
      "Ġshape": 1774,
      "Ġancient": 1775,
      "Ġconceptual": 1776,
      "Ġlightning": 1777,
      "Ġlarge": 1778,
      "Ġcastle": 1779,
      "herent": 1780,
      "rum": 1781,
      "uve": 1782,
      "Ġci": 1783,
      "Ġpan": 1784,
      "Ġdeep": 1785,
      "verti": 1786,
      "lesome": 1787,
      "Ġgodd": 1788,
      "Ġatmosphere": 1789,
      "Ġwholesome": 1790,
      "iverse": 1791,
      "Ġwayne": 1792,
      "Ġvilleneuve": 1793,
      "Ġtal": 1794,
      "Ġast": 1795,
      "oned": 1796,
      "Ġpink": 1797,
      "rough": 1798,
      "Ġkim": 1799,
      "Ġvis": 1800,
      "ider": 1801,
      "odd": 1802,
      "Ġalan": 1803,
      "Ġcoherent": 1804,
      "Ġsketch": 1805,
      "Ġbru": 1806,
      "Ġnatural": 1807,
      "mi": 1808,
      "Ġaut": 1809,
      "lig": 1810,
      "Ġgard": 1811,
      "Ġconte": 1812,
      "pture": 1813,
      "Ġuniverse": 1814,
      "Ġnebul": 1815,
      "Ġportal": 1816,
      "ppy": 1817,
      "craft": 1818,
      "Ġmaximalist": 1819,
      "Ġfortress": 1820,
      "con": 1821,
      "ling": 1822,
      "album": 1823,
      "sto": 1824,
      "Ġnov": 1825,
      "shar": 1826,
      "Ġbean": 1827,
      "Ġfocused": 1828,
      "key": 1829,
      "Ġstan": 1830,
      "Ġpetros": 1831,
      "Ġafshar": 1832,
      "highly": 1833,
      "Ġartistic": 1834,
      "Ġciberpunk": 1835,
      "cre": 1836,
      "Ġsato": 1837,
      "Ġfer": 1838,
      "Ġger": 1839,
      "full": 1840,
      "Ġround": 1841,
      "Ġtable": 1842,
      "Ġartworks": 1843,
      "Ġadverti": 1844,
      "small": 1845,
      "daily": 1846,
      "Ġlooking": 1847,
      "Ġfanbox": 1848,
      "Ġsplash": 1849,
      "Ġarchdaily": 1850,
      "men": 1851,
      "ture": 1852,
      "tue": 1853,
      "Ġlow": 1854,
      "Ġiv": 1855,
      "tio": 1856,
      "ola": 1857,
      "Ġscul": 1858,
      "Ġratio": 1859,
      "Ġbacklit": 1860,
      "Ġtan": 1861,
      "rent": 1862,
      "guy": 1863,
      "Ġsnow": 1864,
      "Ġsatoshi": 1865,
      "Ġadvertising": 1866,
      "ces": 1867,
      "du": 1868,
      "ford": 1869,
      "Ġsea": 1870,
      "Ġcor": 1871,
      "Ġden": 1872,
      "Ġdemon": 1873,
      "Ġjurg": 1874,
      "andoned": 1875,
      "Ġbarlowe": 1876,
      "Ġdragon": 1877,
      "Ġkawacy": 1878,
      "Ġplants": 1879,
      "Ġnovel": 1880,
      "Ġjurgens": 1881,
      "com": 1882,
      "gan": 1883,
      "ina": 1884,
      "Ġbor": 1885,
      "Ġcur": 1886,
      "rth": 1887,
      "Ġfeng": 1888,
      "Ġflying": 1889,
      "Ġgear": 1890,
      "Ġka": 1891,
      "Ġkren": 1892,
      "Ġknight": 1893,
      "Ġzhu": 1894,
      "risograph": 1895,
      "Ġmonster": 1896,
      "Ġoverw": 1897,
      "Ġelson": 1898,
      "Ġdire": 1899,
      "Ġgoddess": 1900,
      "Ġsculpture": 1901,
      "ex": 1902,
      "vy": 1903,
      "Ġbus": 1904,
      "Ġbio": 1905,
      "Ġwange": 1906,
      "Ġthrough": 1907,
      "etry": 1908,
      "Ġfog": 1909,
      "arpunk": 1910,
      "Ġline": 1911,
      "Ġloish": 1912,
      "lics": 1913,
      "word": 1914,
      "ushart": 1915,
      "Ġ),": 1916,
      "Ġcolored": 1917,
      "Ġsmall": 1918,
      "Ġprofile": 1919,
      "Ġtechnolog": 1920,
      "Ġwangechi": 1921,
      "ved": 1922,
      "Ġair": 1923,
      "Ġmic": 1924,
      "Ġelect": 1925,
      "Ġsymmetry": 1926,
      "way": 1927,
      "Ġmutu": 1928,
      "Ġoverwatch": 1929,
      "ffect": 1930,
      "hy": 1931,
      "Ġass": 1932,
      "Ġsna": 1933,
      "Ġplan": 1934,
      "Ġfig": 1935,
      "Ġmandy": 1936,
      "umn": 1937,
      "Ġbeard": 1938,
      "Ġyear": 1939,
      "!!!": 1940,
      "iara": 1941,
      "arth": 1942,
      "ubble": 1943,
      "Ġhero": 1944,
      "Ġsolarpunk": 1945,
      "Ġfraz": 1946,
      "Ġdustin": 1947,
      "Ġfion": 1948,
      "Ġgh": 1949,
      "Ġeffect": 1950,
      "Ġthirds": 1951,
      "etta": 1952,
      "etti": 1953,
      "Ġnin": 1954,
      "Ġnguy": 1955,
      "Ġlege": 1956,
      "Ġstatue": 1957,
      "Ġnext": 1958,
      "Ġtail": 1959,
      "Ġrule": 1960,
      "Ġwalking": 1961,
      "Ġautumn": 1962,
      "Ġfiona": 1963,
      "Ġnguyen": 1964,
      "oc": 1965,
      "we": 1966,
      "Ġare": 1967,
      "Ġbed": 1968,
      "Ġbur": 1969,
      "Ġdnd": 1970,
      "Ġfura": 1971,
      "imir": 1972,
      "Ġlevel": 1973,
      "Ġbiker": 1974,
      "Ġgrain": 1975,
      "ffinity": 1976,
      "Ġcloseup": 1977,
      "Ġmedium": 1978,
      "Ġclothes": 1979,
      "cular": 1980,
      "brand": 1981,
      "Ġinterior": 1982,
      "Ġtall": 1983,
      "Ġboris": 1984,
      "Ġfuraffinity": 1985,
      "face": 1986,
      "pla": 1987,
      "Ġbat": 1988,
      "nda": 1989,
      "Ġpu": 1990,
      "Ġmum": 1991,
      "Ġorange": 1992,
      "Ġowl": 1993,
      "Ġearth": 1994,
      "Ġvo": 1995,
      "Ġrich": 1996,
      "Ġmach": 1997,
      "lucent": 1998,
      "Ġtree": 1999,
      "Ġbackligh": 2000,
      "rounded": 2001,
      "inson": 2002,
      "Ġabandoned": 2003,
      "Ġflower": 2004,
      "Ġorc": 2005,
      "leton": 2006,
      "Ġweta": 2007,
      "Ġperson": 2008,
      "Ġsilver": 2009,
      "Ġgarden": 2010,
      "Ġstanley": 2011,
      "Ġlegends": 2012,
      "brandt": 2013,
      "Ġbacklighting": 2014,
      "Ġrt": 2015,
      "Ġcro": 2016,
      "Ġwat": 2017,
      "Ġgta": 2018,
      "ated": 2019,
      "stration": 2020,
      "ove": 2021,
      "Ġche": 2022,
      "Ġchar": 2023,
      "Ġmoody": 2024,
      "Ġeye": 2025,
      "Ġdog": 2026,
      "uveau": 2027,
      "inestill": 2028,
      "Ġmodern": 2029,
      "Ġprincess": 2030,
      "Ġspiral": 2031,
      "Ġwooden": 2032,
      "lor": 2033,
      "Ġ;": 2034,
      "Ġdiv": 2035,
      "Ġfish": 2036,
      "thy": 2037,
      "Ġandre": 2038,
      "Ġvalle": 2039,
      "Ġbau": 2040,
      "hip": 2041,
      "Ġlush": 2042,
      "Ġmuted": 2043,
      "Ġfilig": 2044,
      "cial": 2045,
      "Ġkeith": 2046,
      "Ġcentury": 2047,
      "Ġhorse": 2048,
      "Ġcamp": 2049,
      "Ġtextures": 2050,
      "Ġevil": 2051,
      "pired": 2052,
      "hyper": 2053,
      "Ġfrazetta": 2054,
      "Ġmumford": 2055,
      "Ġrtx": 2056,
      "Ġvallejo": 2057,
      "Ġfiligree": 2058,
      "ded": 2059,
      "pple": 2060,
      "Ġsing": 2061,
      "Ġsal": 2062,
      "Ġmor": 2063,
      "Ġchiara": 2064,
      "Ġmoti": 2065,
      "Ġspider": 2066,
      "Ġlas": 2067,
      "Ġabove": 2068,
      "apan": 2069,
      "Ġsteel": 2070,
      "photorealistic": 2071,
      "inese": 2072,
      "Ġtranslucent": 2073,
      "Ġexplo": 2074,
      "Ġkrenz": 2075,
      "Ġbautista": 2076,
      "aut": 2077,
      "cro": 2078,
      "cute": 2079,
      "die": 2080,
      "gy": 2081,
      "lusion": 2082,
      "ping": 2083,
      "vers": 2084,
      "Ġsch": 2085,
      "Ġcir": 2086,
      "Ġdef": 2087,
      "els": 2088,
      "Ġpainted": 2089,
      "Ġpow": 2090,
      "irk": 2091,
      "Ġarc": 2092,
      "parent": 2093,
      "Ġsub": 2094,
      "Ġedward": 2095,
      "Ġsurrounded": 2096,
      "Ġtim": 2097,
      "Ġleague": 2098,
      "Ġlucas": 2099,
      "Ġgucci": 2100,
      "Ġparkinson": 2101,
      "Ġmountains": 2102,
      "Ġlucasfilm": 2103,
      "Ġ/": 2104,
      "Ġsle": 2105,
      "Ġcris": 2106,
      "Ġcinestill": 2107,
      "ndo": 2108,
      "Ġhat": 2109,
      "enta": 2110,
      "Ġtodd": 2111,
      "ced": 2112,
      "Ġshe": 2113,
      "shed": 2114,
      "ents": 2115,
      "Ġlines": 2116,
      "rome": 2117,
      "Ġcara": 2118,
      "Ġskull": 2119,
      "Ġgray": 2120,
      "Ġinspired": 2121,
      "Ġdistan": 2122,
      "aces": 2123,
      "brush": 2124,
      "bric": 2125,
      "vin": 2126,
      "zimir": 2127,
      "Ġbro": 2128,
      "Ġcard": 2129,
      "Ġdirk": 2130,
      "Ġdzimir": 2131,
      "lid": 2132,
      "Ġtow": 2133,
      "usk": 2134,
      "uring": 2135,
      "pain": 2136,
      "Ġupper": 2137,
      "Ġnouveau": 2138,
      "Ġsynthwave": 2139,
      "retty": 2140,
      "Ġcrisp": 2141,
      "Ġdzimirsky": 2142,
      "ople": 2143,
      "sc": 2144,
      "Ġern": 2145,
      "Ġser": 2146,
      "Ġpar": 2147,
      "Ġpot": 2148,
      "Ġgala": 2149,
      "Ġking": 2150,
      "Ġpart": 2151,
      "Ġlisa": 2152,
      "Ġjapan": 2153,
      "Ġfabric": 2154,
      "Ġchinese": 2155,
      "Ġspaces": 2156,
      "Ġnew": 2157,
      "Ġdesigned": 2158,
      "smic": 2159,
      "Ġsplatter": 2160,
      "Ġcubism": 2161,
      "Ġtwo": 2162,
      "Ġhilde": 2163,
      "cu": 2164,
      "der": 2165,
      "pper": 2166,
      "rie": 2167,
      "yal": 2168,
      "Ġpin": 2169,
      "Ġpea": 2170,
      "Ġfigh": 2171,
      "Ġgla": 2172,
      "Ġdeco": 2173,
      "its": 2174,
      "atter": 2175,
      "utral": 2176,
      "Ġneutral": 2177,
      "ronaut": 2178,
      "Ġprodu": 2179,
      "Ġhumanoid": 2180,
      "Ġdenis": 2181,
      "Ġdivine": 2182,
      "Ġspaceship": 2183,
      "Ġfighting": 2184,
      "kan": 2185,
      "ni": 2186,
      "rit": 2187,
      "tto": 2188,
      "Ġsqu": 2189,
      "Ġcushart": 2190,
      "Ġfea": 2191,
      "ene": 2192,
      "ica": 2193,
      "illu": 2194,
      "Ġpaul": 2195,
      "ator": 2196,
      "Ġbear": 2197,
      "Ġstaples": 2198,
      "Ġlogo": 2199,
      "Ġextra": 2200,
      "ically": 2201,
      "ondz": 2202,
      "Ġdaniel": 2203,
      "Ġgather": 2204,
      "Ġflare": 2205,
      "Ġdofus": 2206,
      "Ġsolondz": 2207,
      "Ġmountain": 2208,
      "illiam": 2209,
      "Ġivory": 2210,
      "Ġplanet": 2211,
      "Ġninja": 2212,
      "versi": 2213,
      "Ġernst": 2214,
      "illustration": 2215,
      "don": 2216,
      "den": 2217,
      "em": 2218,
      "Ġqueen": 2219,
      "Ġsum": 2220,
      "rey": 2221,
      "Ġdown": 2222,
      "Ġhill": 2223,
      "Ġwilliam": 2224,
      "iction": 2225,
      "orwave": 2226,
      "Ġdean": 2227,
      "Ġvi": 2228,
      "Ġshiny": 2229,
      "Ġjaw": 2230,
      "Ġroyal": 2231,
      "Ġlot": 2232,
      "Ġtooth": 2233,
      "pace": 2234,
      "paga": 2235,
      "aporwave": 2236,
      "Ġpropaga": 2237,
      "Ġlonely": 2238,
      "Ġherpen": 2239,
      "Ġgem": 2240,
      "Ġlooks": 2241,
      "Ġjungle": 2242,
      "Ġshirt": 2243,
      "Ġfairy": 2244,
      "Ġastronaut": 2245,
      "Ġorcish": 2246,
      "Ġpropaganda": 2247,
      "cle": 2248,
      "dt": 2249,
      "jes": 2250,
      "ken": 2251,
      "ned": 2252,
      "¼Į": 2253,
      "ï¼Į": 2254,
      "Ġx": 2255,
      "Ġï¼Į": 2256,
      "ining": 2257,
      "ersta": 2258,
      "Ġhell": 2259,
      "Ġwit": 2260,
      "Ġet": 2261,
      "utop": 2262,
      "Ġscatter": 2263,
      "Ġstyli": 2264,
      "Ġhaeck": 2265,
      "keleton": 2266,
      "Ġalbert": 2267,
      "Ġbiersta": 2268,
      "Ġcgi": 2269,
      "Ġplaying": 2270,
      "Ġpeople": 2271,
      "Ġscreenshot": 2272,
      "Ġwonderful": 2273,
      "Ġnebula": 2274,
      "Ġwatson": 2275,
      "Ġproduct": 2276,
      "Ġhaeckel": 2277,
      "Ġbierstadt": 2278,
      "fish": 2279,
      "gs": 2280,
      "je": 2281,
      "lr": 2282,
      "Ġ|": 2283,
      "less": 2284,
      "Ġpretty": 2285,
      "Ġfri": 2286,
      "Ġfight": 2287,
      "Ġwu": 2288,
      "Ġground": 2289,
      "Ġrelics": 2290,
      "Ġvaporwave": 2291,
      "Ġlimi": 2292,
      "iden": 2293,
      "Ġgreat": 2294,
      "Ġsca": 2295,
      "awn": 2296,
      "Ġexpression": 2297,
      "Ġbox": 2298,
      "ckets": 2299,
      "Ġdragons": 2300,
      "Ġcolours": 2301,
      "Ġperspe": 2302,
      "Ġshapes": 2303,
      "Ġfigure": 2304,
      "Ġmachine": 2305,
      "Ġlimited": 2306,
      "..": 2307,
      "ab": 2308,
      "bre": 2309,
      "cola": 2310,
      "din": 2311,
      "ftian": 2312,
      "zing": 2313,
      "zard": 2314,
      "antic": 2315,
      "Ġwet": 2316,
      "Ġwild": 2317,
      "Ġkodak": 2318,
      "Ġtor": 2319,
      "Ġvilla": 2320,
      "istic": 2321,
      "Ġnvid": 2322,
      "Ġcou": 2323,
      "andro": 2324,
      "Ġgigantic": 2325,
      "Ġrocky": 2326,
      "Ġscenic": 2327,
      "Ġellis": 2328,
      "Ġsmile": 2329,
      "gged": 2330,
      "Ġcinemato": 2331,
      "craftian": 2332,
      "Ġdreamy": 2333,
      "Ġcube": 2334,
      "Ġstrands": 2335,
      "Ġice": 2336,
      "Ġpalace": 2337,
      "Ġriding": 2338,
      "utterf": 2339,
      "Ġwitcher": 2340,
      "Ġperspective": 2341,
      "Ġnvidia": 2342,
      "fa": 2343,
      "fall": 2344,
      "py": 2345,
      "tabli": 2346,
      "Ġfiction": 2347,
      "Ġgian": 2348,
      "Ġdead": 2349,
      "ston": 2350,
      "unt": 2351,
      "ott": 2352,
      "Ġmass": 2353,
      "Ġstone": 2354,
      "Ġport": 2355,
      "Ġphotosho": 2356,
      "Ġstation": 2357,
      "Ġcosmic": 2358,
      "Ġcomplex": 2359,
      "paint": 2360,
      "Ġdave": 2361,
      "Ġboy": 2362,
      "Ġrays": 2363,
      "Ġelf": 2364,
      "ials": 2365,
      "Ġreflection": 2366,
      "gen": 2367,
      "jandro": 2368,
      "ps": 2369,
      "Ġutop": 2370,
      "ering": 2371,
      "Ġbre": 2372,
      "Ġbli": 2373,
      "ony": 2374,
      "Ġce": 2375,
      "Ġfro": 2376,
      "Ġother": 2377,
      "Ġva": 2378,
      "ammer": 2379,
      "Ġanat": 2380,
      "Ġchri": 2381,
      "Ġspe": 2382,
      "berg": 2383,
      "Ġcoral": 2384,
      "Ġsteph": 2385,
      "Ġeddie": 2386,
      "Ġsoul": 2387,
      "rowa": 2388,
      "Ġalejandro": 2389,
      "Ġcreation": 2390,
      "Ġsimple": 2391,
      "Ġshort": 2392,
      "Ġjapanese": 2393,
      "Ġvillage": 2394,
      "Ġgiancola": 2395,
      "ring": 2396,
      "Ġav": 2397,
      "Ġara": 2398,
      "Ġdorman": 2399,
      "Ġpol": 2400,
      "Ġwings": 2401,
      "Ġgen": 2402,
      "Ġgun": 2403,
      "Ġoffic": 2404,
      "tes": 2405,
      "iling": 2406,
      "rich": 2407,
      "Ġgreek": 2408,
      "Ġrendering": 2409,
      "Ġlab": 2410,
      "Ġtar": 2411,
      "nab": 2412,
      "rono": 2413,
      "Ġmendo": 2414,
      "Ġsolid": 2415,
      "Ġsav": 2416,
      "Ġgrim": 2417,
      "Ġmiya": 2418,
      "urban": 2419,
      "Ġlittle": 2420,
      "Ġblur": 2421,
      "Ġgears": 2422,
      "tablishing": 2423,
      "Ġmendoza": 2424,
      "blin": 2425,
      "cil": 2426,
      "ji": 2427,
      "Ġbutterf": 2428,
      "Ġdrop": 2429,
      "Ġmen": 2430,
      "Ġwell": 2431,
      "Ġknab": 2432,
      "olph": 2433,
      "Ġrec": 2434,
      "Ġpast": 2435,
      "omorph": 2436,
      "Ġphotorealism": 2437,
      "pty": 2438,
      "Ġchris": 2439,
      "rial": 2440,
      "Ġfiber": 2441,
      "photograph": 2442,
      "Ġbrass": 2443,
      "ggio": 2444,
      "Ġiron": 2445,
      "Ġtransparent": 2446,
      "vaggio": 2447,
      "Ġdonato": 2448,
      "Ġsimonetti": 2449,
      "Ġlovecraftian": 2450,
      "Ġferdin": 2451,
      "Ġferdinand": 2452,
      "ding": 2453,
      "eth": 2454,
      "med": 2455,
      "sion": 2456,
      "Ġ+": 2457,
      "ergy": 2458,
      "Ġsword": 2459,
      "Ġclass": 2460,
      "Ġdelic": 2461,
      "allow": 2462,
      "Ġtu": 2463,
      "ustic": 2464,
      "star": 2465,
      "amorphic": 2466,
      "Ġanamorphic": 2467,
      "Ġfaces": 2468,
      "tractive": 2469,
      "Ġhaute": 2470,
      "Ġlaw": 2471,
      "Ġalva": 2472,
      "roman": 2473,
      "Ġcool": 2474,
      "Ġcouture": 2475,
      "Ġheart": 2476,
      "Ġmystic": 2477,
      "Ġblood": 2478,
      "Ġempty": 2479,
      "Ġmotives": 2480,
      "Ġphotoshoot": 2481,
      "bla": 2482,
      "can": 2483,
      "Ġsand": 2484,
      "Ġbud": 2485,
      "rez": 2486,
      "Ġcrow": 2487,
      "led": 2488,
      "Ġmet": 2489,
      "Ġgate": 2490,
      "sty": 2491,
      "Ġvar": 2492,
      "Ġsha": 2493,
      "Ġshow": 2494,
      "Ġrugged": 2495,
      "board": 2496,
      "cole": 2497,
      "Ġmagrit": 2498,
      "Ġform": 2499,
      "Ġgoblin": 2500,
      "Ġfanart": 2501,
      "Ġdaylight": 2502,
      "Ġunderwater": 2503,
      "Ġtemples": 2504,
      "Ġdimens": 2505,
      "Ġgathercole": 2506,
      "Ġreflections": 2507,
      "Ġalvarez": 2508,
      "Ġmagritte": 2509,
      "colo": 2510,
      "gon": 2511,
      "mpo": 2512,
      "tin": 2513,
      "Ġdunge": 2514,
      "Ġwatch": 2515,
      "unner": 2516,
      "Ġshallow": 2517,
      "Ġjones": 2518,
      "Ġstru": 2519,
      "Ġstory": 2520,
      "Ġenergy": 2521,
      "Ġmouse": 2522,
      "hiz": 2523,
      "rian": 2524,
      "Ġattractive": 2525,
      "Ġbiolum": 2526,
      "Ġprocess": 2527,
      "Ġdocci": 2528,
      "Ġdiff": 2529,
      "ustrial": 2530,
      "erative": 2531,
      "epy": 2532,
      "Ġguy": 2533,
      "Ġpencil": 2534,
      "Ġestablishing": 2535,
      "issance": 2536,
      "Ġgalaxy": 2537,
      "Ġhildebrandt": 2538,
      "Ġfeath": 2539,
      "Ġetsy": 2540,
      "Ġdocciu": 2541,
      "hd": 2542,
      "ril": 2543,
      "Ġ~": 2544,
      "rary": 2545,
      "Ġmix": 2546,
      "lie": 2547,
      "Ġhear": 2548,
      "Ġread": 2549,
      "Ġtub": 2550,
      "Ġver": 2551,
      "Ġpale": 2552,
      "elf": 2553,
      "Ġnik": 2554,
      "Ġwizard": 2555,
      "Ġroversi": 2556,
      "Ġchi": 2557,
      "Ġrand": 2558,
      "Ġlady": 2559,
      "Ġzh": 2560,
      "Ġtatto": 2561,
      "Ġdoing": 2562,
      "Ġyoshi": 2563,
      "core": 2564,
      "Ġwarcraft": 2565,
      "Ġrobes": 2566,
      "minous": 2567,
      "grafic": 2568,
      "Ġplate": 2569,
      "Ġadam": 2570,
      "Ġdressed": 2571,
      "ographic": 2572,
      "balls": 2573,
      "rump": 2574,
      "Ġassass": 2575,
      "Ġbattle": 2576,
      "Ġpuff": 2577,
      "Ġsalv": 2578,
      "Ġcaravaggio": 2579,
      "Ġcinematografic": 2580,
      "Ġanatom": 2581,
      "mporary": 2582,
      "Ġnikon": 2583,
      "croman": 2584,
      "fo": 2585,
      "tran": 2586,
      "wide": 2587,
      "Ġage": 2588,
      "Ġsar": 2589,
      "Ġsad": 2590,
      "Ġskeleton": 2591,
      "Ġban": 2592,
      "Ġball": 2593,
      "rad": 2594,
      "ration": 2595,
      "rama": 2596,
      "like": 2597,
      "Ġhr": 2598,
      "Ġend": 2599,
      "Ġpas": 2600,
      "Ġrunning": 2601,
      "ometric": 2602,
      "Ġmacro": 2603,
      "alist": 2604,
      "ador": 2605,
      "Ġfacial": 2606,
      "rix": 2607,
      "world": 2608,
      "ronic": 2609,
      "Ġwashed": 2610,
      "Ġbehind": 2611,
      "ditional": 2612,
      "Ġindustrial": 2613,
      "Ġears": 2614,
      "Ġclash": 2615,
      "ussian": 2616,
      "Ġcontemporary": 2617,
      "Ġtank": 2618,
      "painting": 2619,
      "Ġviking": 2620,
      "Ġutopia": 2621,
      "Ġsalvador": 2622,
      "house": 2623,
      "rim": 2624,
      "Ġus": 2625,
      "Ġraph": 2626,
      "Ġama": 2627,
      "Ġbow": 2628,
      "Ġbiden": 2629,
      "Ġpile": 2630,
      "Ġmush": 2631,
      "Ġop": 2632,
      "Ġgar": 2633,
      "olf": 2634,
      "Ġrena": 2635,
      "Ġtiny": 2636,
      "unny": 2637,
      "Ġpaolo": 2638,
      "Ġris": 2639,
      "Ġscary": 2640,
      "mour": 2641,
      "Ġcanon": 2642,
      "Ġimpa": 2643,
      "Ġwalls": 2644,
      "Ġemma": 2645,
      "Ġanderson": 2646,
      "order": 2647,
      "Ġtraditional": 2648,
      "Ġprint": 2649,
      "Ġminimalist": 2650,
      "Ġshaped": 2651,
      "Ġtemple": 2652,
      "crete": 2653,
      "Ġcorre": 2654,
      "Ġbiopunk": 2655,
      "Ġmorning": 2656,
      "Ġbutterfly": 2657,
      "Ġhearstone": 2658,
      "Ġpascal": 2659,
      "Ġrenaissance": 2660,
      "ged": 2661,
      "tt": 2662,
      "uth": 2663,
      "Ġaer": 2664,
      "Ġsor": 2665,
      "Ġbal": 2666,
      "Ġfall": 2667,
      "anime": 2668,
      "Ġoce": 2669,
      "Ġhip": 2670,
      "Ġtrump": 2671,
      "itz": 2672,
      "Ġthick": 2673,
      "Ġry": 2674,
      "Ġrhiz": 2675,
      "Ġnot": 2676,
      "urney": 2677,
      "Ġjen": 2678,
      "Ġjustin": 2679,
      "ado": 2680,
      "Ġconcrete": 2681,
      "Ġbeing": 2682,
      "undy": 2683,
      "undam": 2684,
      "Ġcave": 2685,
      "Ġcasp": 2686,
      "Ġfemin": 2687,
      "gai": 2688,
      "ðŁĮ": 2689,
      "Ġgrand": 2690,
      "Ġmeg": 2691,
      "Ġhosp": 2692,
      "urgundy": 2693,
      "Ġhandsome": 2694,
      "Ġbruta": 2695,
      "Ġcampion": 2696,
      "Ġfried": 2697,
      "Ġmushroom": 2698,
      "Ġocean": 2699,
      "Ġrhizomorph": 2700,
      "Ġcaspar": 2701,
      "Ġfeminine": 2702,
      "Ġhospital": 2703,
      "bon": 2704,
      "cted": 2705,
      "est": 2706,
      "girl": 2707,
      "head": 2708,
      "mod": 2709,
      "no": 2710,
      "ou": 2711,
      "pro": 2712,
      "uz": 2713,
      "war": 2714,
      "Ġstic": 2715,
      "Ġsome": 2716,
      "Ġcal": 2717,
      "Ġfre": 2718,
      "Ġfat": 2719,
      "Ġmead": 2720,
      "Ġwes": 2721,
      "Ġkar": 2722,
      "Ġret": 2723,
      "lands": 2724,
      "Ġlip": 2725,
      "Ġnic": 2726,
      "Ġjon": 2727,
      "ident": 2728,
      "Ġmajes": 2729,
      "Ġroyo": 2730,
      "Ġhighlydetailed": 2731,
      "Ġtoy": 2732,
      "Ġteeth": 2733,
      "Ġstudded": 2734,
      "Ġorgan": 2735,
      "ished": 2736,
      "Ġrobe": 2737,
      "Ġmona": 2738,
      "Ġbrackets": 2739,
      "Ġluis": 2740,
      "lent": 2741,
      "Ġcreature": 2742,
      "Ġits": 2743,
      "Ġcomics": 2744,
      "Ġcolourful": 2745,
      "complex": 2746,
      "Ġportra": 2747,
      "Ġbreath": 2748,
      "Ġsouls": 2749,
      "Ġdungeons": 2750,
      "Ġfeathers": 2751,
      "Ġtubes": 2752,
      "Ġpuffballs": 2753,
      "cromancer": 2754,
      "Ġraphael": 2755,
      "Ġfriedrich": 2756,
      "Ġmajestic": 2757,
      "Ġorganic": 2758,
      "ef": 2759,
      "he": 2760,
      "iz": 2761,
      "ite": 2762,
      "of": 2763,
      "olic": 2764,
      "under": 2765,
      "Ġsti": 2766,
      "Ġdali": 2767,
      "Ġmil": 2768,
      "Ġeth": 2769,
      "Ġhighlight": 2770,
      "Ġhappy": 2771,
      "quid": 2772,
      "Ġlace": 2773,
      "Ġlaco": 2774,
      "Ġwars": 2775,
      "siere": 2776,
      "Ġmarvel": 2777,
      "rence": 2778,
      "Ġscience": 2779,
      "Ġmonet": 2780,
      "Ġwest": 2781,
      "Ġgaston": 2782,
      "Ġsmiling": 2783,
      "Ġpicture": 2784,
      "pped": 2785,
      "Ġvicto": 2786,
      "Ġpattern": 2787,
      "Ġbussiere": 2788,
      "Ġelectronic": 2789,
      "ocado": 2790,
      "Ġlacoste": 2791,
      "bb": 2792,
      "blo": 2793,
      "ffe": 2794,
      "mes": 2795,
      "ness": 2796,
      "vis": 2797,
      "Ġay": 2798,
      "ero": 2799,
      "tary": 2800,
      "Ġtur": 2801,
      "ceful": 2802,
      "Ġvol": 2803,
      "elly": 2804,
      "Ġner": 2805,
      "Ġngai": 2806,
      "urbe": 2807,
      "owski": 2808,
      "sey": 2809,
      "Ġcost": 2810,
      "Ġlost": 2811,
      "Ġlots": 2812,
      "Ġcand": 2813,
      "Ġdoctor": 2814,
      "Ġgrass": 2815,
      "ffi": 2816,
      "Ġmarble": 2817,
      "Ġhood": 2818,
      "Ġjew": 2819,
      "Ġjeff": 2820,
      "Ġgorey": 2821,
      "ship": 2822,
      "Ġartspace": 2823,
      "Ġtextured": 2824,
      "concept": 2825,
      "Ġsnowy": 2826,
      "Ġsnakes": 2827,
      "Ġmassive": 2828,
      "Ġarab": 2829,
      "Ġofficial": 2830,
      "Ġdelicate": 2831,
      "Ġstructure": 2832,
      "Ġaerial": 2833,
      "Ġhighlights": 2834,
      "urbex": 2835,
      "are": 2836,
      "digital": 2837,
      "ging": 2838,
      "por": 2839,
      "uki": 2840,
      "wton": 2841,
      "zog": 2842,
      "Ġurban": 2843,
      "Ġborder": 2844,
      "Ġcup": 2845,
      "ray": 2846,
      "Ġdawn": 2847,
      "lism": 2848,
      "Ġhim": 2849,
      "ally": 2850,
      "stro": 2851,
      "Ġrene": 2852,
      "Ġriver": 2853,
      "Ġstubble": 2854,
      "Ġpop": 2855,
      "Ġposing": 2856,
      "amond": 2857,
      "kiyo": 2858,
      "Ġconf": 2859,
      "Ġintense": 2860,
      "imal": 2861,
      "Ġbas": 2862,
      "Ġlaugh": 2863,
      "!!,": 2864,
      "asley": 2865,
      "Ġsunny": 2866,
      "Ġcyber": 2867,
      "ereal": 2868,
      "Ġmagali": 2869,
      "Ġherzog": 2870,
      "Ġcenter": 2871,
      "Ġplay": 2872,
      "Ġbraz": 2873,
      "Ġukiyo": 2874,
      "Ġgeographic": 2875,
      "Ġprinting": 2876,
      "Ġhewton": 2877,
      "Ġgerard": 2878,
      "Ġsingle": 2879,
      "Ġmetro": 2880,
      "Ġrandolph": 2881,
      "Ġcorrect": 2882,
      "Ġjenny": 2883,
      "Ġcostum": 2884,
      "cles": 2885,
      "clusion": 2886,
      "fan": 2887,
      "gal": 2888,
      "ired": 2889,
      "ua": 2890,
      "Ġsph": 2891,
      "Ġbut": 2892,
      "rel": 2893,
      "realist": 2894,
      "taking": 2895,
      "Ġdust": 2896,
      "Ġpy": 2897,
      "Ġmul": 2898,
      "lies": 2899,
      "listic": 2900,
      "Ġkusk": 2901,
      "Ġemo": 2902,
      "Ġeating": 2903,
      "Ġwires": 2904,
      "irror": 2905,
      "ader": 2906,
      "Ġhaired": 2907,
      "Ġcloak": 2908,
      "Ġcozy": 2909,
      "Ġheaven": 2910,
      "boss": 2911,
      "Ġvolume": 2912,
      "Ġmario": 2913,
      "Ġforeground": 2914,
      "Ġangel": 2915,
      "Ġmichel": 2916,
      "Ġarms": 2917,
      "!!!!!!!!": 2918,
      "day": 2919,
      "Ġdirection": 2920,
      "Ġpowerful": 2921,
      "Ġdistance": 2922,
      "Ġpotrait": 2923,
      "Ġcorals": 2924,
      "Ġstephen": 2925,
      "rowave": 2926,
      "Ġavocado": 2927,
      "Ġbrutalist": 2928,
      "Ġretrowave": 2929,
      "Ġmetropo": 2930,
      "Ġkuskov": 2931,
      "bel": 2932,
      "eye": 2933,
      "fore": 2934,
      "hol": 2935,
      "kodak": 2936,
      "ses": 2937,
      "urant": 2938,
      "Ġaround": 2939,
      "Ġpup": 2940,
      "rty": 2941,
      "Ġmer": 2942,
      "Ġmirror": 2943,
      "ankan": 2944,
      "Ġwern": 2945,
      "Ġglor": 2946,
      "aros": 2947,
      "Ġinst": 2948,
      "Ġtv": 2949,
      "Ġthis": 2950,
      "Ġthree": 2951,
      "staurant": 2952,
      "Ġmaya": 2953,
      "amp": 2954,
      "Ġlegs": 2955,
      "Ġhas": 2956,
      "Ġultradetailed": 2957,
      "Ġsunlight": 2958,
      "ible": 2959,
      "Ġgradi": 2960,
      "Ġaccent": 2961,
      "lint": 2962,
      "Ġsuperman": 2963,
      "Ġdiamond": 2964,
      "Ġcreepy": 2965,
      "Ġfloor": 2966,
      "Ġsimp": 2967,
      "Ġjohan": 2968,
      "Ġmetallic": 2969,
      "athan": 2970,
      "Ġpano": 2971,
      "Ġdirected": 2972,
      "Ġbearded": 2973,
      "Ġsquare": 2974,
      "Ġstylized": 2975,
      "abstract": 2976,
      "generative": 2977,
      "Ġfrog": 2978,
      "Ġsaville": 2979,
      "Ġdropping": 2980,
      "Ġassassin": 2981,
      "Ġryden": 2982,
      "Ġbreathtaking": 2983,
      "Ġsnakeskin": 2984,
      "Ġwerner": 2985,
      "cut": 2986,
      "dis": 2987,
      "rings": 2988,
      "sen": 2989,
      "Ġurbex": 2990,
      "Ġapple": 2991,
      "Ġset": 2992,
      "Ġsold": 2993,
      "Ġbad": 2994,
      "ong": 2995,
      "Ġgro": 2996,
      "oru": 2997,
      "Ġoff": 2998,
      "Ġrestaurant": 2999,
      "isies": 3000,
      "Ġrim": 3001,
      "Ġocclusion": 3002,
      "Ġlemon": 3003,
      "Ġspot": 3004,
      "Ġartist": 3005,
      "terest": 3006,
      "Ġcomp": 3007,
      "Ġshading": 3008,
      "Ġdaisies": 3009,
      "Ġchaos": 3010,
      "Ġasian": 3011,
      "Ġwinner": 3012,
      "Ġstefan": 3013,
      "Ġmech": 3014,
      "Ġmecha": 3015,
      "Ġmechanical": 3016,
      "inking": 3017,
      "Ġbuzz": 3018,
      "isturb": 3019,
      "Ġadrian": 3020,
      "Ġdyson": 3021,
      "Ġgogh": 3022,
      "Ġflat": 3023,
      "tant": 3024,
      "field": 3025,
      "aturated": 3026,
      "Ġbuildings": 3027,
      "Ġtrippy": 3028,
      "rument": 3029,
      "Ġvisual": 3030,
      "Ġcontest": 3031,
      "Ġairbrush": 3032,
      "Ġmicro": 3033,
      "Ġdefini": 3034,
      "Ġhills": 3035,
      "Ġtorso": 3036,
      "Ġheartstone": 3037,
      "Ġmystical": 3038,
      "Ġzhang": 3039,
      "Ġcalm": 3040,
      "Ġfresh": 3041,
      "Ġjonathan": 3042,
      "Ġcostume": 3043,
      "Ġinstrument": 3044,
      "isturbing": 3045,
      "line": 3046,
      "ming": 3047,
      "rus": 3048,
      "sed": 3049,
      "sur": 3050,
      "ski": 3051,
      "sci": 3052,
      "erland": 3053,
      "Ġsera": 3054,
      "Ġsril": 3055,
      "onze": 3056,
      "Ġcod": 3057,
      "ram": 3058,
      "tisho": 3059,
      "Ġprono": 3060,
      "Ġmater": 3061,
      "Ġoli": 3062,
      "tions": 3063,
      "Ġrep": 3064,
      "Ġtown": 3065,
      "esel": 3066,
      "ulp": 3067,
      "unced": 3068,
      "Ġeg": 3069,
      "Ġemer": 3070,
      "iter": 3071,
      "Ġjing": 3072,
      "Ġchild": 3073,
      "Ġchrome": 3074,
      "sym": 3075,
      "sterious": 3076,
      "Ġmouth": 3077,
      "Ġyor": 3078,
      "Ġnecromancer": 3079,
      "Ġwaterfall": 3080,
      "Ġultrarealistic": 3081,
      "Ġheavy": 3082,
      "Ġbronze": 3083,
      "Ġshadow": 3084,
      "vern": 3085,
      "Ġbiz": 3086,
      "booru": 3087,
      "ousand": 3088,
      "ðŁĲ": 3089,
      "phones": 3090,
      "Ġedge": 3091,
      "Ġsatisho": 3092,
      "Ġbust": 3093,
      "Ġaction": 3094,
      "Ġcarved": 3095,
      "Ġdiesel": 3096,
      "itchen": 3097,
      "Ġworldboss": 3098,
      "Ġmuse": 3099,
      "Ġlifelike": 3100,
      "Ġmarcin": 3101,
      "Ġbruce": 3102,
      "Ġsplashes": 3103,
      "Ġdemonic": 3104,
      "Ġcross": 3105,
      "Ġfisheye": 3106,
      "Ġandreas": 3107,
      "Ġlaser": 3108,
      "Ġbliss": 3109,
      "Ġturt": 3110,
      "colour": 3111,
      "Ġimpasto": 3112,
      "Ġhipster": 3113,
      "Ġlipkin": 3114,
      "Ġnico": 3115,
      "Ġstipple": 3116,
      "Ġborderlands": 3117,
      "Ġmetropolis": 3118,
      "Ġspotlight": 3119,
      "Ġdefinition": 3120,
      "Ġseraph": 3121,
      "Ġsrilankan": 3122,
      "Ġpronounced": 3123,
      "bar": 3124,
      "bow": 3125,
      "jima": 3126,
      "otic": 3127,
      "uel": 3128,
      "Ġian": 3129,
      "Ġsi": 3130,
      "Ġbald": 3131,
      "tis": 3132,
      "Ġominous": 3133,
      "Ġhen": 3134,
      "enie": 3135,
      "icorn": 3136,
      "Ġkan": 3137,
      "Ġrebel": 3138,
      "ult": 3139,
      "mash": 3140,
      "Ġliquid": 3141,
      "Ġonly": 3142,
      "Ġju": 3143,
      "Ġjelly": 3144,
      "Ġmake": 3145,
      "Ġstorm": 3146,
      "umb": 3147,
      "Ġscand": 3148,
      "ries": 3149,
      "Ġya": 3150,
      "Ġsmoking": 3151,
      "Ġdavin": 3152,
      "Ġtavern": 3153,
      "Ġisland": 3154,
      "Ġsoph": 3155,
      "Ġnoise": 3156,
      "Ġive": 3157,
      "ornate": 3158,
      "Ġmysterious": 3159,
      "Ġdancing": 3160,
      "Ġsmith": 3161,
      "yptian": 3162,
      "Ġbeast": 3163,
      "Ġmounts": 3164,
      "brid": 3165,
      "Ġclothing": 3166,
      "closeup": 3167,
      "Ġdrinking": 3168,
      "ifying": 3169,
      "inav": 3170,
      "Ġghenie": 3171,
      "emma": 3172,
      "Ġgemstone": 3173,
      "Ġlawrence": 3174,
      "Ġamazing": 3175,
      "Ġgarmash": 3176,
      "Ġrisograph": 3177,
      "Ġsphere": 3178,
      "Ġaccents": 3179,
      "Ġsimpson": 3180,
      "Ġjingna": 3181,
      "Ġscandinav": 3182,
      "'t": 3183,
      "mov": 3184,
      "net": 3185,
      "yuki": 3186,
      "Ġsed": 3187,
      "Ġber": 3188,
      "onde": 3189,
      "retro": 3190,
      "tagon": 3191,
      "time": 3192,
      "anch": 3193,
      "lish": 3194,
      "Ġhammer": 3195,
      "Ġwolf": 3196,
      "Ġgundam": 3197,
      "enberg": 3198,
      "tel": 3199,
      "sting": 3200,
      "stop": 3201,
      "Ġince": 3202,
      "Ġky": 3203,
      "Ġkat": 3204,
      "Ġpath": 3205,
      "uty": 3206,
      "Ġjim": 3207,
      "ides": 3208,
      "Ġband": 3209,
      "Ġmany": 3210,
      "ason": 3211,
      "Ġcoming": 3212,
      "Ġheadphones": 3213,
      "Ġsymbo": 3214,
      "Ġvibes": 3215,
      "Ġadv": 3216,
      "pressive": 3217,
      "Ġrobots": 3218,
      "Ġcarbon": 3219,
      "Ġmusical": 3220,
      "Ġswirl": 3221,
      "Ġjohnson": 3222,
      "Ġspikes": 3223,
      "Ġspires": 3224,
      "angelo": 3225,
      "Ġfinials": 3226,
      "Ġicon": 3227,
      "Ġsnake": 3228,
      "Ġlasers": 3229,
      "donald": 3230,
      "Ġsummer": 3231,
      "isticated": 3232,
      "Ġotherworld": 3233,
      "trans": 3234,
      "Ġfalling": 3235,
      "Ġglorifying": 3236,
      "Ġyork": 3237,
      "Ġdavinci": 3238,
      "Ġsophisticated": 3239,
      "Ġsedu": 3240,
      "stopian": 3241,
      "!,": 3242,
      "age": 3243,
      "bat": 3244,
      "df": 3245,
      "fin": 3246,
      "form": 3247,
      "oen": 3248,
      "oor": 3249,
      "pulp": 3250,
      "sn": 3251,
      "zation": 3252,
      "iness": 3253,
      "Ġself": 3254,
      "Ġben": 3255,
      "Ġcow": 3256,
      "Ġpre": 3257,
      "Ġhorn": 3258,
      "entist": 3259,
      "rot": 3260,
      "ils": 3261,
      "Ġklint": 3262,
      "max": 3263,
      "mail": 3264,
      "Ġther": 3265,
      "ette": 3266,
      "Ġnu": 3267,
      "phone": 3268,
      "pers": 3269,
      "cts": 3270,
      "Ġphoen": 3271,
      "Ġillusion": 3272,
      "Ġunicorn": 3273,
      "mount": 3274,
      "Ġhazy": 3275,
      "Ġspark": 3276,
      "Ġlau": 3277,
      "Ġlate": 3278,
      "Ġblade": 3279,
      "Ġcap": 3280,
      "character": 3281,
      "Ġneo": 3282,
      "Ġbob": 3283,
      "Ġismail": 3284,
      "Ġdoor": 3285,
      "Ġsteve": 3286,
      "Ġgraffi": 3287,
      "Ġsurface": 3288,
      "Ġmatrix": 3289,
      "ube": 3290,
      "Ġsaul": 3291,
      "Ġdystopian": 3292,
      "Ġseuss": 3293,
      "Ġflag": 3294,
      "Ġevery": 3295,
      "oglu": 3296,
      "Ġframe": 3297,
      "Ġhilma": 3298,
      "Ġkata": 3299,
      "Ġelectric": 3300,
      "plate": 3301,
      "Ġserene": 3302,
      "black": 3303,
      "Ġsticker": 3304,
      "Ġethereal": 3305,
      "Ġvolley": 3306,
      "Ġconfident": 3307,
      "Ġlaughing": 3308,
      "Ġmichelangelo": 3309,
      "Ġbuzzcut": 3310,
      "Ġegyptian": 3311,
      "Ġinceoglu": 3312,
      "Ġotherworldly": 3313,
      "Ġphoenix": 3314,
      "Ġgraffiti": 3315,
      "cia": 3316,
      "get": 3317,
      "nit": 3318,
      "pet": 3319,
      "zine": 3320,
      "Ġau": 3321,
      "Ġaper": 3322,
      "Ġame": 3323,
      "Ġsla": 3324,
      "Ġspo": 3325,
      "Ġcron": 3326,
      "Ġdisturbing": 3327,
      "lion": 3328,
      "lity": 3329,
      "ental": 3330,
      "Ġdev": 3331,
      "Ġdeath": 3332,
      "Ġdestro": 3333,
      "Ġtin": 3334,
      "Ġtone": 3335,
      "Ġtumb": 3336,
      "ular": 3337,
      "Ġeld": 3338,
      "Ġeos": 3339,
      "Ġring": 3340,
      "Ġniel": 3341,
      "Ġmand": 3342,
      "Ġstri": 3343,
      "ading": 3344,
      "ummy": 3345,
      "Ġhybrid": 3346,
      "Ġscott": 3347,
      "other": 3348,
      "Ġland": 3349,
      "Ġalbum": 3350,
      "berry": 3351,
      "Ġtok": 3352,
      "award": 3353,
      "manuel": 3354,
      "gazine": 3355,
      "Ġyou": 3356,
      "rowing": 3357,
      "Ġpixels": 3358,
      "bles": 3359,
      "sona": 3360,
      "Ġmyth": 3361,
      "Ġblock": 3362,
      "Ġfursona": 3363,
      "ggy": 3364,
      "iller": 3365,
      "Ġpsych": 3366,
      "Ġmelanch": 3367,
      "Ġmusk": 3368,
      "Ġdriving": 3369,
      "Ġswe": 3370,
      "zaki": 3371,
      "Ġevange": 3372,
      "suit": 3373,
      "Ġmike": 3374,
      "Ġpatterns": 3375,
      "thyst": 3376,
      "Ġsche": 3377,
      "Ġdistant": 3378,
      "curo": 3379,
      "Ġpeaceful": 3380,
      "Ġscattered": 3381,
      "Ġwetplate": 3382,
      "Ġmiyazaki": 3383,
      "Ġdifferent": 3384,
      "Ġmixed": 3385,
      "Ġready": 3386,
      "Ġchiaros": 3387,
      "Ġjellyfish": 3388,
      "Ġmakeup": 3389,
      "Ġscandinavian": 3390,
      "Ġswirling": 3391,
      "dfold": 3392,
      "finished": 3393,
      "maximalist": 3394,
      "Ġaperture": 3395,
      "Ġamethyst": 3396,
      "Ġcronenberg": 3397,
      "Ġtumblr": 3398,
      "Ġchiaroscuro": 3399,
      "cat": 3400,
      "ela": 3401,
      "lar": 3402,
      "nown": 3403,
      "Ġsign": 3404,
      "Ġborn": 3405,
      "Ġblin": 3406,
      "Ġciv": 3407,
      "Ġdin": 3408,
      "Ġdusk": 3409,
      "tial": 3410,
      "inger": 3411,
      "Ġfunny": 3412,
      "Ġmili": 3413,
      "anthropomorphic": 3414,
      "Ġobs": 3415,
      "Ġhad": 3416,
      "orcy": 3417,
      "Ġkis": 3418,
      "Ġkitchen": 3419,
      "tical": 3420,
      "Ġrem": 3421,
      "Ġrey": 3422,
      "lay": 3423,
      "Ġpat": 3424,
      "Ġparad": 3425,
      "Ġliss": 3426,
      "Ġri": 3427,
      "Ġron": 3428,
      "Ġrunner": 3429,
      "Ġmas": 3430,
      "cked": 3431,
      "rican": 3432,
      "Ġwire": 3433,
      "Ġroof": 3434,
      "Ġfast": 3435,
      "Ġunif": 3436,
      "Ġunfinished": 3437,
      "Ġscan": 3438,
      "Ġscar": 3439,
      "stern": 3440,
      "Ġlam": 3441,
      "Ġfantastic": 3442,
      "Ġcaustic": 3443,
      "tern": 3444,
      "Ġneil": 3445,
      "Ġpropor": 3446,
      "Ġsymb": 3447,
      "Ġjosh": 3448,
      "vita": 3449,
      "Ġfluo": 3450,
      "Ġbrain": 3451,
      "Ġlux": 3452,
      "Ġoutside": 3453,
      "Ġworking": 3454,
      "Ġgood": 3455,
      "Ġdrawn": 3456,
      "Ġdrawings": 3457,
      "Ġkojima": 3458,
      "Ġemmanuel": 3459,
      "Ġtravel": 3460,
      "Ġbeauty": 3461,
      "Ġfractals": 3462,
      "Ġcrying": 3463,
      "Ġminted": 3464,
      "hag": 3465,
      "cyberpunk": 3466,
      "Ġweaving": 3467,
      "Ġterri": 3468,
      "hyperrealistic": 3469,
      "Ġcircu": 3470,
      "Ġchristo": 3471,
      "Ġopu": 3472,
      "itzky": 3473,
      "Ġayami": 3474,
      "Ġmuseum": 3475,
      "tagonist": 3476,
      "Ġseductive": 3477,
      "Ġvolleyball": 3478,
      "Ġtokyo": 3479,
      "Ġmelancholic": 3480,
      "Ġblindfold": 3481,
      "Ġcivili": 3482,
      "orcycle": 3483,
      "Ġparadise": 3484,
      "Ġlissitzky": 3485,
      "Ġuniform": 3486,
      "Ġcaustics": 3487,
      "big": 3488,
      "fine": 3489,
      "gers": 3490,
      "kini": 3491,
      "oil": 3492,
      "rup": 3493,
      "sical": 3494,
      "slr": 3495,
      "uck": 3496,
      "wh": 3497,
      "Ġq": 3498,
      "Ġå": 3499,
      "Ġrange": 3500,
      "Ġbird": 3501,
      "rate": 3502,
      "ties": 3503,
      "Ġpi": 3504,
      "Ġpris": 3505,
      "Ġfam": 3506,
      "Ġfoto": 3507,
      "Ġmot": 3508,
      "thing": 3509,
      "Ġglit": 3510,
      "Ġgurney": 3511,
      "arre": 3512,
      "Ġtru": 3513,
      "ulk": 3514,
      "Ġvr": 3515,
      "mag": 3516,
      "Ġpass": 3517,
      "Ġshining": 3518,
      "ching": 3519,
      "Ġnar": 3520,
      "Ġnes": 3521,
      "urse": 3522,
      "ssy": 3523,
      "ampi": 3524,
      "Ġanimal": 3525,
      "Ġroco": 3526,
      "imsical": 3527,
      "ump": 3528,
      "Ġbalen": 3529,
      "Ġbending": 3530,
      "Ġmoons": 3531,
      "Ġstalen": 3532,
      "Ġze": 3533,
      "Ġzbrush": 3534,
      "Ġsubs": 3535,
      "imalistic": 3536,
      "Ġbou": 3537,
      "Ġbikini": 3538,
      "book": 3539,
      "Ġornam": 3540,
      "Ġjoy": 3541,
      "Ġjoining": 3542,
      "Ġfranz": 3543,
      "rise": 3544,
      "adelic": 3545,
      "Ġoverg": 3546,
      "ĠðŁĲ": 3547,
      "osa": 3548,
      "Ġbrawl": 3549,
      "Ġglobe": 3550,
      "Ġafrican": 3551,
      "Ġmuscular": 3552,
      "Ġmidnight": 3553,
      "Ġrainbow": 3554,
      "Ġ],": 3555,
      "Ġdonald": 3556,
      "Ġblonde": 3557,
      "Ġwonderland": 3558,
      "mental": 3559,
      "Ġcurly": 3560,
      "Ġtechnologic": 3561,
      "Ġcharlie": 3562,
      "Ġexplosion": 3563,
      "Ġbroken": 3564,
      "Ġpinterest": 3565,
      "Ġscattering": 3566,
      "Ġcouch": 3567,
      "Ġchrist": 3568,
      "Ġdimension": 3569,
      "Ġprocessed": 3570,
      "Ġanatomically": 3571,
      "Ġnerdy": 3572,
      "Ġgradients": 3573,
      "Ġpanorama": 3574,
      "Ġcomput": 3575,
      "Ġturtle": 3576,
      "Ġhenry": 3577,
      "Ġselfie": 3578,
      "Ġlatex": 3579,
      "ciaga": 3580,
      "niture": 3581,
      "Ġmilitary": 3582,
      "Ġchristoph": 3583,
      "Ġcivilization": 3584,
      "Ġglitch": 3585,
      "Ġbalenciaga": 3586,
      "Ġstalenhag": 3587,
      "gar": 3588,
      "ized": 3589,
      "ku": 3590,
      "ket": 3591,
      "mal": 3592,
      "nold": 3593,
      "pan": 3594,
      "pus": 3595,
      "uchi": 3596,
      "very": 3597,
      "Ġaman": 3598,
      "Ġcli": 3599,
      "Ġpres": 3600,
      "ancient": 3601,
      "Ġopen": 3602,
      "lian": 3603,
      "Ġholo": 3604,
      "aring": 3605,
      "aroid": 3606,
      "ening": 3607,
      "enko": 3608,
      "Ġkod": 3609,
      "Ġkand": 3610,
      "ticles": 3611,
      "ested": 3612,
      "master": 3613,
      "Ġnor": 3614,
      "Ġnat": 3615,
      "Ġnear": 3616,
      "urface": 3617,
      "Ġjan": 3618,
      "Ġjak": 3619,
      "Ġpoor": 3620,
      "Ġfoggy": 3621,
      "Ġhypermaximalist": 3622,
      "ants": 3623,
      "antern": 3624,
      "Ġlee": 3625,
      "Ġlantern": 3626,
      "ryce": 3627,
      "Ġcopic": 3628,
      "Ġmutant": 3629,
      "Ġcandy": 3630,
      "Ġexpressive": 3631,
      "Ġneck": 3632,
      "Ġcommod": 3633,
      "Ġbrid": 3634,
      "Ġphotographic": 3635,
      "Ġwears": 3636,
      "Ġboot": 3637,
      "Ġsurrealist": 3638,
      "Ġwha": 3639,
      "Ġwhimsical": 3640,
      "Ġnoir": 3641,
      "Ġfranco": 3642,
      "merged": 3643,
      "adem": 3644,
      "guer": 3645,
      "Ġperfectly": 3646,
      "lence": 3647,
      "Ġfurniture": 3648,
      "rescent": 3649,
      "Ġapoc": 3650,
      "bee": 3651,
      "bright": 3652,
      "zeta": 3653,
      "Ġvinci": 3654,
      "Ġmisty": 3655,
      "Ġinfested": 3656,
      "Ġescher": 3657,
      "cake": 3658,
      "Ġcrystals": 3659,
      "Ġearrings": 3660,
      "Ġweap": 3661,
      "Ġnebulas": 3662,
      "Ġarcs": 3663,
      "Ġsubmerged": 3664,
      "Ġpotter": 3665,
      "Ġparty": 3666,
      "Ġfighter": 3667,
      "Ġcrowd": 3668,
      "Ġtattoos": 3669,
      "Ġadamus": 3670,
      "uzzy": 3671,
      "bbit": 3672,
      "Ġevangelion": 3673,
      "Ġscheme": 3674,
      "Ġkissing": 3675,
      "Ġjoshua": 3676,
      "Ġopulence": 3677,
      "Ġrococo": 3678,
      "Ġsubsurface": 3679,
      "osaur": 3680,
      "Ġcomputer": 3681,
      "Ġamano": 3682,
      "Ġjakub": 3683,
      "Ġcommodore": 3684,
      "ban": 3685,
      "cis": 3686,
      "city": 3687,
      "cco": 3688,
      "fla": 3689,
      "fying": 3690,
      "mich": 3691,
      "ptic": 3692,
      "tris": 3693,
      "wo": 3694,
      "wond": 3695,
      "Ġaz": 3696,
      "Ġaga": 3697,
      "Ġsli": 3698,
      "Ġbran": 3699,
      "Ġburgundy": 3700,
      "Ġbryce": 3701,
      "taka": 3702,
      "Ġclan": 3703,
      "Ġdj": 3704,
      "Ġdslr": 3705,
      "Ġpil": 3706,
      "Ġhi": 3707,
      "Ġhow": 3708,
      "Ġwas": 3709,
      "Ġgel": 3710,
      "ghes": 3711,
      "alf": 3712,
      "Ġten": 3713,
      "Ġtenta": 3714,
      "cel": 3715,
      "landscape": 3716,
      "Ġliving": 3717,
      "Ġthere": 3718,
      "Ġshy": 3719,
      "Ġjason": 3720,
      "Ġmasc": 3721,
      "Ġpoin": 3722,
      "Ġanother": 3723,
      "Ġgren": 3724,
      "kies": 3725,
      "ova": 3726,
      "Ġhyperornate": 3727,
      "Ġunk": 3728,
      "Ġleft": 3729,
      "Ġral": 3730,
      "quo": 3731,
      "Ġlord": 3732,
      "Ġsyd": 3733,
      "Ġultrafine": 3734,
      "Ġabout": 3735,
      "Ġwinter": 3736,
      "Ġissey": 3737,
      "meer": 3738,
      "Ġmong": 3739,
      "Ġmonkey": 3740,
      "Ġacid": 3741,
      "Ġcreed": 3742,
      "Ġhughes": 3743,
      "Ġfrontal": 3744,
      "Ġtransce": 3745,
      "pping": 3746,
      "cloud": 3747,
      "Ġwoods": 3748,
      "Ġdrone": 3749,
      "ology": 3750,
      "Ġstraw": 3751,
      "Ġtribal": 3752,
      "ubbles": 3753,
      "play": 3754,
      "Ġparticles": 3755,
      "Ġglamour": 3756,
      "Ġmiyake": 3757,
      "Ġshowing": 3758,
      "Ġyoshitaka": 3759,
      "Ġcandle": 3760,
      "Ġemotional": 3761,
      "Ġsoldier": 3762,
      "Ġmaterials": 3763,
      "movie": 3764,
      "Ġfluorescent": 3765,
      "Ġchristophe": 3766,
      "Ġkodach": 3767,
      "Ġtentacles": 3768,
      "Ġmascot": 3769,
      "cious": 3770,
      "fra": 3771,
      "flow": 3772,
      "gle": 3773,
      "goth": 3774,
      "ju": 3775,
      "kura": 3776,
      "large": 3777,
      "mar": 3778,
      "nstar": 3779,
      "psy": 3780,
      "tte": 3781,
      "Ġã": 3782,
      "inning": 3783,
      "inian": 3784,
      "Ġawe": 3785,
      "Ġslight": 3786,
      "Ġbil": 3787,
      "Ġbet": 3788,
      "Ġbott": 3789,
      "Ġcut": 3790,
      "Ġpra": 3791,
      "Ġpants": 3792,
      "Ġfuzzy": 3793,
      "Ġhot": 3794,
      "Ġgal": 3795,
      "Ġgad": 3796,
      "Ġgummy": 3797,
      "Ġginger": 3798,
      "Ġdeca": 3799,
      "romatic": 3800,
      "althy": 3801,
      "stunning": 3802,
      "Ġken": 3803,
      "Ġkne": 3804,
      "ols": 3805,
      "oly": 3806,
      "Ġtones": 3807,
      "Ġeu": 3808,
      "Ġegg": 3809,
      "Ġeven": 3810,
      "ito": 3811,
      "Ġthin": 3812,
      "Ġshutter": 3813,
      "Ġrustic": 3814,
      "idian": 3815,
      "aliptic": 3816,
      "tals": 3817,
      "Ġrough": 3818,
      "oda": 3819,
      "Ġcontro": 3820,
      "umble": 3821,
      "ovsky": 3822,
      "Ġbase": 3823,
      "Ġbaby": 3824,
      "Ġuni": 3825,
      "Ġleon": 3826,
      "lown": 3827,
      "Ġhaze": 3828,
      "Ġraw": 3829,
      "Ġstage": 3830,
      "ionate": 3831,
      "Ġmansion": 3832,
      "Ġarnold": 3833,
      "Ġcosp": 3834,
      "Ġcables": 3835,
      "terior": 3836,
      "awa": 3837,
      "Ġtetris": 3838,
      "Ġtak": 3839,
      "Ġchair": 3840,
      "Ġmeta": 3841,
      "Ġdisrup": 3842,
      "Ġacc": 3843,
      "Ġbraun": 3844,
      "Ġmcb": 3845,
      "Ġweird": 3846,
      "reaming": 3847,
      "anced": 3848,
      "Ġcrepus": 3849,
      "Ġjack": 3850,
      "Ġglossy": 3851,
      "Ġswamp": 3852,
      "Ġpetals": 3853,
      "Ġfinnstar": 3854,
      "Ġshoul": 3855,
      "Ġradial": 3856,
      "Ġrealm": 3857,
      "Ġvision": 3858,
      "Ġburning": 3859,
      "Ġplanets": 3860,
      "Ġstylish": 3861,
      "Ġvast": 3862,
      "Ġgener": 3863,
      "Ġshaven": 3864,
      "Ġvermeer": 3865,
      "Ġcontemporaryart": 3866,
      "Ġdoctors": 3867,
      "Ġrebelka": 3868,
      "Ġadvanced": 3869,
      "snow": 3870,
      "Ġnielly": 3871,
      "Ġobsidian": 3872,
      "Ġrembrandt": 3873,
      "Ġrife": 3874,
      "Ġmotorcycle": 3875,
      "Ġpassionate": 3876,
      "ampire": 3877,
      "Ġcliff": 3878,
      "Ġfrancoise": 3879,
      "Ġapocaliptic": 3880,
      "Ġagain": 3881,
      "Ġgrenier": 3882,
      "Ġunknown": 3883,
      "Ġevening": 3884,
      "Ġcosplay": 3885,
      "Ġdisruptive": 3886,
      "Ġcrepuscular": 3887,
      "Ġfinnstark": 3888,
      "able": 3889,
      "broid": 3890,
      "cur": 3891,
      "fer": 3892,
      "gent": 3893,
      "ho": 3894,
      "hammer": 3895,
      "hero": 3896,
      "mel": 3897,
      "ost": 3898,
      "prin": 3899,
      "rig": 3900,
      "xi": 3901,
      "Ġâ": 3902,
      "Ġide": 3903,
      "erie": 3904,
      "Ġbul": 3905,
      "Ġbard": 3906,
      "Ġbill": 3907,
      "Ġcalle": 3908,
      "Ġdie": 3909,
      "Ġdense": 3910,
      "Ġdwar": 3911,
      "ndence": 3912,
      "Ġpig": 3913,
      "Ġhq": 3914,
      "Ġgille": 3915,
      "Ġgrowing": 3916,
      "ilt": 3917,
      "Ġreef": 3918,
      "Ġvene": 3919,
      "itt": 3920,
      "itor": 3921,
      "lace": 3922,
      "mate": 3923,
      "elry": 3924,
      "che": 3925,
      "Ġstrange": 3926,
      "Ġpool": 3927,
      "ssel": 3928,
      "rick": 3929,
      "amoto": 3930,
      "Ġrocha": 3931,
      "Ġenchan": 3932,
      "Ġbak": 3933,
      "Ġchas": 3934,
      "Ġbeer": 3935,
      "Ġleica": 3936,
      "Ġmosa": 3937,
      "quar": 3938,
      "Ġarstation": 3939,
      "rying": 3940,
      "Ġabsur": 3941,
      "apix": 3942,
      "Ġsue": 3943,
      "Ġboss": 3944,
      "Ġdoom": 3945,
      "Ġgrace": 3946,
      "oker": 3947,
      "Ġgirls": 3948,
      "Ġlondon": 3949,
      "sive": 3950,
      "Ġnoble": 3951,
      "Ġjoe": 3952,
      "letta": 3953,
      "Ġbuilt": 3954,
      "ĠðŁĳ": 3955,
      "Ġforce": 3956,
      "Ġplaza": 3957,
      "actic": 3958,
      "Ġlumen": 3959,
      "Ġmaker": 3960,
      "Ġembroid": 3961,
      "eping": 3962,
      "Ġwindows": 3963,
      "Ġguita": 3964,
      "Ġtransform": 3965,
      "joe": 3966,
      "Ġfinely": 3967,
      "Ġinfinity": 3968,
      "Ġstraight": 3969,
      "Ġindoor": 3970,
      "Ġtrip": 3971,
      "Ġpattered": 3972,
      "Ġalluring": 3973,
      "Ġreflective": 3974,
      "Ġmickey": 3975,
      "!!!,": 3976,
      "Ġbedroom": 3977,
      "Ġexploded": 3978,
      "...": 3979,
      "Ġcecco": 3980,
      "Ġrectan": 3981,
      "Ġbudget": 3982,
      "Ġdimensional": 3983,
      "Ġtattoo": 3984,
      "Ġsorcer": 3985,
      "Ġmushrooms": 3986,
      "Ġlostfish": 3987,
      "Ġjewelry": 3988,
      "Ġbrazier": 3989,
      "Ġpyram": 3990,
      "Ġbizarre": 3991,
      "colourful": 3992,
      "Ġnicoletta": 3993,
      "Ġkatsu": 3994,
      "elart": 3995,
      "Ġterrifying": 3996,
      "masterpiece": 3997,
      "Ġbridge": 3998,
      "cellent": 3999,
      "Ġralph": 4000,
      "Ġmongrel": 4001,
      "Ġagainst": 4002,
      "Ġideelart": 4003,
      "Ġgilleard": 4004,
      "Ġvenetian": 4005,
      "Ġmosaic": 4006,
      "Ġabsurd": 4007,
      "Ġceccoli": 4008,
      "Ġpyramid": 4009,
      "dog": 4010,
      "epic": 4011,
      "flu": 4012,
      "giant": 4013,
      "jol": 4014,
      "kovsky": 4015,
      "ool": 4016,
      "opa": 4017,
      "smos": 4018,
      "uched": 4019,
      "ulics": 4020,
      "uffe": 4021,
      "zon": 4022,
      "Ġaar": 4023,
      "rean": 4024,
      "tation": 4025,
      "Ġcad": 4026,
      "rax": 4027,
      "timate": 4028,
      "Ġpine": 4029,
      "Ġmiss": 4030,
      "Ġmiller": 4031,
      "Ġom": 4032,
      "lip": 4033,
      "Ġhulk": 4034,
      "thul": 4035,
      "Ġartma": 4036,
      "aro": 4037,
      "ars": 4038,
      "ice": 4039,
      "Ġkind": 4040,
      "Ġeach": 4041,
      "los": 4042,
      "Ġthousand": 4043,
      "ches": 4044,
      "chhol": 4045,
      "Ġright": 4046,
      "Ġnurse": 4047,
      "urie": 4048,
      "Ġmagazine": 4049,
      "Ġstern": 4050,
      "perfect": 4051,
      "Ġpoint": 4052,
      "aman": 4053,
      "Ġann": 4054,
      "Ġanato": 4055,
      "Ġgreasley": 4056,
      "kimich": 4057,
      "Ġrom": 4058,
      "Ġfood": 4059,
      "ptop": 4060,
      "Ġhydra": 4061,
      "Ġmotion": 4062,
      "Ġraven": 4063,
      "Ġrapper": 4064,
      "Ġstare": 4065,
      "Ġlus": 4066,
      "Ġlay": 4067,
      "Ġlaurie": 4068,
      "Ġarmour": 4069,
      "Ġzen": 4070,
      "etrical": 4071,
      "Ġcoo": 4072,
      "Ġcosmos": 4073,
      "Ġcath": 4074,
      "nington": 4075,
      "Ġexterior": 4076,
      "Ġexcellent": 4077,
      "insky": 4078,
      "female": 4079,
      "Ġtaka": 4080,
      "Ġstudy": 4081,
      "Ġsunrise": 4082,
      "ðŁį": 4083,
      "Ġwarhammer": 4084,
      "oka": 4085,
      "Ġmagni": 4086,
      "Ġwhile": 4087,
      "Ġmaria": 4088,
      "Ġtiger": 4089,
      "Ġsakimich": 4090,
      "Ġbuchhol": 4091,
      "Ġsuperhero": 4092,
      "Ġado": 4093,
      "Ġellen": 4094,
      "Ġquint": 4095,
      "Ġkeyshot": 4096,
      "Ġcarl": 4097,
      "Ġhoriz": 4098,
      "Ġsexy": 4099,
      "Ġflora": 4100,
      "Ġflash": 4101,
      "Ġmusic": 4102,
      "Ġminimalistic": 4103,
      "Ġnaga": 4104,
      "super": 4105,
      "Ġpennington": 4106,
      "Ġshiu": 4107,
      "rosco": 4108,
      "Ġinfusion": 4109,
      "Ġhorrors": 4110,
      "Ġseas": 4111,
      "Ġbusiness": 4112,
      "Ġtechnologies": 4113,
      "Ġmicrosco": 4114,
      "Ġbatman": 4115,
      "Ġsleek": 4116,
      "Ġtower": 4117,
      "Ġpinup": 4118,
      "Ġsumm": 4119,
      "jeur": 4120,
      "Ġblizz": 4121,
      "Ġpolaroid": 4122,
      "Ġtarkovsky": 4123,
      "Ġvarga": 4124,
      "Ġforms": 4125,
      "Ġwatching": 4126,
      "Ġwatches": 4127,
      "Ġprocessing": 4128,
      "Ġyoshiyuki": 4129,
      "Ġsadamoto": 4130,
      "Ġbowater": 4131,
      "ðŁĮ¿": 4132,
      "Ġmegapix": 4133,
      "Ġhoodie": 4134,
      "forest": 4135,
      "Ġpuppet": 4136,
      "Ġyama": 4137,
      "Ġbandana": 4138,
      "Ġthermal": 4139,
      "Ġkandinsky": 4140,
      "quoise": 4141,
      "gothic": 4142,
      "Ġgadot": 4143,
      "Ġdecaying": 4144,
      "Ġmcbess": 4145,
      "Ġgeneral": 4146,
      "Ġdwarf": 4147,
      "Ġguitar": 4148,
      "Ġtransformers": 4149,
      "Ġrectangle": 4150,
      "thulhu": 4151,
      "Ġartmajeur": 4152,
      "Ġhydraulics": 4153,
      "Ġtakashi": 4154,
      "Ġmagnific": 4155,
      "Ġsakimichan": 4156,
      "Ġbuchholz": 4157,
      "burgundy": 4158,
      "cov": 4159,
      "cant": 4160,
      "do": 4161,
      "dam": 4162,
      "eu": 4163,
      "fs": 4164,
      "fit": 4165,
      "gr": 4166,
      "knight": 4167,
      "nir": 4168,
      "nick": 4169,
      "och": 4170,
      "tom": 4171,
      "yss": 4172,
      "Ġ#": 4173,
      "Ġape": 4174,
      "Ġslim": 4175,
      "Ġbd": 4176,
      "Ġcot": 4177,
      "Ġdom": 4178,
      "Ġpony": 4179,
      "Ġfal": 4180,
      "Ġful": 4181,
      "Ġfrie": 4182,
      "Ġmjol": 4183,
      "anna": 4184,
      "Ġwill": 4185,
      "Ġges": 4186,
      "Ġinse": 4187,
      "Ġintimate": 4188,
      "ilh": 4189,
      "Ġtun": 4190,
      "ulation": 4191,
      "Ġea": 4192,
      "Ġvfx": 4193,
      "law": 4194,
      "eds": 4195,
      "Ġshop": 4196,
      "Ġrussian": 4197,
      "urer": 4198,
      "Ġjr": 4199,
      "Ġpoli": 4200,
      "Ġanth": 4201,
      "neck": 4202,
      "Ġrobo": 4203,
      "Ġroses": 4204,
      "gem": 4205,
      "iman": 4206,
      "Ġphotoreal": 4207,
      "Ġrutowski": 4208,
      "posed": 4209,
      "poket": 4210,
      "Ġsco": 4211,
      "Ġled": 4212,
      "Ġlevita": 4213,
      "Ġmoore": 4214,
      "Ġhaya": 4215,
      "Ġrat": 4216,
      "Ġlin": 4217,
      "Ġlaying": 4218,
      "Ġalone": 4219,
      "Ġzana": 4220,
      "Ġcopper": 4221,
      "Ġatta": 4222,
      "Ġtake": 4223,
      "Ġeytan": 4224,
      "boy": 4225,
      "olored": 4226,
      "Ġblueberry": 4227,
      "Ġfrancis": 4228,
      "bility": 4229,
      "Ġscientist": 4230,
      "Ġsatan": 4231,
      "ĠðŁĮ": 4232,
      "Ġcrazy": 4233,
      "Ġlud": 4234,
      "aker": 4235,
      "Ġmcg": 4236,
      "Ġhors": 4237,
      "Ġgaussian": 4238,
      "Ġseven": 4239,
      "Ġempress": 4240,
      "Ġflames": 4241,
      "Ġveins": 4242,
      "Ġgeometric": 4243,
      "Ġstreets": 4244,
      "Ġpastell": 4245,
      "Ġship": 4246,
      "castic": 4247,
      "Ġweather": 4248,
      "creature": 4249,
      "rthern": 4250,
      "Ġeffects": 4251,
      "Ġdefense": 4252,
      "Ġscared": 4253,
      "Ġscales": 4254,
      "Ġcomplexity": 4255,
      "photography": 4256,
      "canny": 4257,
      "Ġanatomy": 4258,
      "Ġsarcastic": 4259,
      "prof": 4260,
      "Ġkarl": 4261,
      "Ġturquoise": 4262,
      "Ġplayer": 4263,
      "Ġcodex": 4264,
      "Ġchildren": 4265,
      "symm": 4266,
      "Ġseraphinian": 4267,
      "Ġberries": 4268,
      "Ġelectricity": 4269,
      "Ġscanned": 4270,
      "Ġbouguer": 4271,
      "Ġfranzzeta": 4272,
      "Ġnecklace": 4273,
      "Ġpilot": 4274,
      "frame": 4275,
      "Ġembroidered": 4276,
      "Ġaaron": 4277,
      "perfectly": 4278,
      "Ġhorizon": 4279,
      "Ġblizzard": 4280,
      "grunge": 4281,
      "Ġmjolnir": 4282,
      "Ġgesell": 4283,
      "Ġlevitating": 4284,
      "Ġhayao": 4285,
      "Ġseraphinianus": 4286,
      "Ġbouguereau": 4287,
      "ative": 4288,
      "bie": 4289,
      "cence": 4290,
      "drop": 4291,
      "gn": 4292,
      "human": 4293,
      "jun": 4294,
      "mus": 4295,
      "moto": 4296,
      "mons": 4297,
      "von": 4298,
      "vray": 4299,
      "ino": 4300,
      "Ġap": 4301,
      "Ġaly": 4302,
      "Ġaway": 4303,
      "Ġsense": 4304,
      "Ġbion": 4305,
      "Ġbones": 4306,
      "Ġbirds": 4307,
      "Ġbumble": 4308,
      "read": 4309,
      "tax": 4310,
      "tain": 4311,
      "tail": 4312,
      "Ġcrono": 4313,
      "Ġclown": 4314,
      "Ġdio": 4315,
      "Ġple": 4316,
      "Ġpear": 4317,
      "rtex": 4318,
      "Ġfu": 4319,
      "Ġfru": 4320,
      "litter": 4321,
      "Ġhome": 4322,
      "Ġgas": 4323,
      "Ġglitter": 4324,
      "Ġartgem": 4325,
      "arm": 4326,
      "oric": 4327,
      "tem": 4328,
      "ross": 4329,
      "Ġinc": 4330,
      "ticolored": 4331,
      "Ġreto": 4332,
      "Ġtro": 4333,
      "Ġtron": 4334,
      "esome": 4335,
      "une": 4336,
      "Ġeasley": 4337,
      "Ġvampire": 4338,
      "Ġliam": 4339,
      "Ġthr": 4340,
      "Ġshuse": 4341,
      "eling": 4342,
      "atron": 4343,
      "Ġrud": 4344,
      "Ġrise": 4345,
      "Ġnix": 4346,
      "Ġtheir": 4347,
      "Ġjord": 4348,
      "Ġsto": 4349,
      "Ġstor": 4350,
      "Ġposs": 4351,
      "irly": 4352,
      "she": 4353,
      "Ġrose": 4354,
      "geo": 4355,
      "gest": 4356,
      "Ġconqu": 4357,
      "Ġintern": 4358,
      "imming": 4359,
      "Ġbath": 4360,
      "Ġfacing": 4361,
      "Ġchev": 4362,
      "Ġchick": 4363,
      "Ġscreaming": 4364,
      "Ġleiter": 4365,
      "Ġlexi": 4366,
      "Ġspir": 4367,
      "Ġsplit": 4368,
      "Ġsprig": 4369,
      "ude": 4370,
      "Ġyvon": 4371,
      "Ġlan": 4372,
      "Ġbackpa": 4373,
      "graphic": 4374,
      "Ġzo": 4375,
      "Ġzip": 4376,
      "Ġcook": 4377,
      "Ġlorax": 4378,
      "Ġcapy": 4379,
      "Ġatlan": 4380,
      "Ġexotic": 4381,
      "part": 4382,
      "Ġabyss": 4383,
      "Ġfeet": 4384,
      "Ġdab": 4385,
      "Ġtarot": 4386,
      "coat": 4387,
      "ðŁļ": 4388,
      "Ġwaves": 4389,
      "Ġbarbar": 4390,
      "Ġnorthern": 4391,
      "elding": 4392,
      "Ġhopper": 4393,
      "Ġdisplay": 4394,
      "Ġacross": 4395,
      "Ġkeyframe": 4396,
      "Ġangry": 4397,
      "Ġmedita": 4398,
      "Ġmcdonald": 4399,
      "Ġswirly": 4400,
      "Ġaesthetically": 4401,
      "Ġprofessionally": 4402,
      "hua": 4403,
      "Ġkaws": 4404,
      "watercolor": 4405,
      "Ġcollos": 4406,
      "Ġfutures": 4407,
      "Ġfuturepunk": 4408,
      "Ġclay": 4409,
      "illivray": 4410,
      "Ġmutt": 4411,
      "ache": 4412,
      "Ġlightnings": 4413,
      "Ġbiolight": 4414,
      "Ġvortex": 4415,
      "entability": 4416,
      "painted": 4417,
      "Ġgroundwater": 4418,
      "breaker": 4419,
      "Ġpoly": 4420,
      "Ġgrimmer": 4421,
      "Ġshaved": 4422,
      "Ġbiolumin": 4423,
      "Ġusing": 4424,
      "Ġmegatron": 4425,
      "Ġmulti": 4426,
      "Ġmulticolored": 4427,
      "Ġdieselpunk": 4428,
      "Ġbeasts": 4429,
      "retrofuturistic": 4430,
      "Ġsymbolism": 4431,
      "Ġsigns": 4432,
      "ademia": 4433,
      "wonderful": 4434,
      "Ġtranscendence": 4435,
      "Ġkenku": 4436,
      "Ġtakato": 4437,
      "Ġshoulder": 4438,
      "itorial": 4439,
      "Ġenchanted": 4440,
      "Ġtripod": 4441,
      "Ġromita": 4442,
      "Ġluscious": 4443,
      "Ġnagaoka": 4444,
      "Ġyamamoto": 4445,
      "Ġmagnificent": 4446,
      "Ġfully": 4447,
      "Ġattack": 4448,
      "Ġmcgillivray": 4449,
      "symmetrical": 4450,
      "Ġbionic": 4451,
      "Ġbumblebee": 4452,
      "Ġcronobreaker": 4453,
      "Ġdiorama": 4454,
      "Ġretouched": 4455,
      "Ġshusei": 4456,
      "Ġrudnick": 4457,
      "Ġnixeu": 4458,
      "Ġjordan": 4459,
      "Ġyvonne": 4460,
      "Ġbackpack": 4461,
      "Ġzippers": 4462,
      "Ġcapyba": 4463,
      "Ġbarbarian": 4464,
      "Ġcollosus": 4465,
      "blu": 4466,
      "car": 4467,
      "dream": 4468,
      "fil": 4469,
      "fanta": 4470,
      "gel": 4471,
      "gate": 4472,
      "hai": 4473,
      "mp": 4474,
      "mond": 4475,
      "nowski": 4476,
      "plant": 4477,
      "two": 4478,
      "uache": 4479,
      "vig": 4480,
      "wear": 4481,
      "ym": 4482,
      "yed": 4483,
      "ydy": 4484,
      "zka": 4485,
      "Ġsin": 4486,
      "Ġson": 4487,
      "Ġsig": 4488,
      "Ġsir": 4489,
      "Ġbot": 4490,
      "Ġbod": 4491,
      "Ġbrom": 4492,
      "Ġcig": 4493,
      "rays": 4494,
      "Ġpul": 4495,
      "Ġput": 4496,
      "Ġpond": 4497,
      "Ġfle": 4498,
      "Ġfung": 4499,
      "Ġfred": 4500,
      "Ġoh": 4501,
      "Ġhid": 4502,
      "Ġham": 4503,
      "Ġwen": 4504,
      "Ġgor": 4505,
      "Ġgri": 4506,
      "Ġarth": 4507,
      "Ġartur": 4508,
      "orve": 4509,
      "alt": 4510,
      "alor": 4511,
      "alak": 4512,
      "stru": 4513,
      "stentability": 4514,
      "Ġkai": 4515,
      "Ġkushart": 4516,
      "Ġtorn": 4517,
      "Ġetern": 4518,
      "Ġeerie": 4519,
      "lotte": 4520,
      "Ġvers": 4521,
      "Ġvita": 4522,
      "Ġpablo": 4523,
      "Ġshin": 4524,
      "Ġshark": 4525,
      "elon": 4526,
      "atzka": 4527,
      "Ġrif": 4528,
      "eak": 4529,
      "urch": 4530,
      "Ġonsen": 4531,
      "Ġjun": 4532,
      "Ġjet": 4533,
      "Ġjoker": 4534,
      "idl": 4535,
      "Ġwielding": 4536,
      "Ġant": 4537,
      "Ġroaring": 4538,
      "sexy": 4539,
      "Ġhyperreal": 4540,
      "Ġuncanny": 4541,
      "Ġleydy": 4542,
      "Ġmost": 4543,
      "Ġmood": 4544,
      "Ġspra": 4545,
      "hiro": 4546,
      "quis": 4547,
      "Ġalbin": 4548,
      "Ġalphone": 4549,
      "Ġbackdrop": 4550,
      "Ġzuz": 4551,
      "Ġzatzka": 4552,
      "ideo": 4553,
      "Ġcoins": 4554,
      "Ġmug": 4555,
      "Ġexper": 4556,
      "Ġnend": 4557,
      "Ġultrahd": 4558,
      "Ġsustentability": 4559,
      "Ġtaken": 4560,
      "Ġbibin": 4561,
      "Ġcharact": 4562,
      "oney": 4563,
      "Ġiso": 4564,
      "Ġheadset": 4565,
      "Ġstepi": 4566,
      "ural": 4567,
      "Ġeditorial": 4568,
      "Ġorig": 4569,
      "Ġwhe": 4570,
      "Ġwhat": 4571,
      "Ġmars": 4572,
      "Ġmarta": 4573,
      "Ġbarn": 4574,
      "Ġitem": 4575,
      "Ġiorve": 4576,
      "apest": 4577,
      "Ġtomalak": 4578,
      "Ġtief": 4579,
      "Ġsakura": 4580,
      "Ġcentral": 4581,
      "ropical": 4582,
      "Ġcarrying": 4583,
      "Ġwork": 4584,
      "Ġmcquar": 4585,
      "Ġdanbooru": 4586,
      "Ġgoat": 4587,
      "Ġweb": 4588,
      "Ġufo": 4589,
      "Ġartsation": 4590,
      "Ġartspan": 4591,
      "Ġsection": 4592,
      "Ġkoidl": 4593,
      "onsai": 4594,
      "Ġtraced": 4595,
      "Ġtrapped": 4596,
      "illed": 4597,
      "Ġgloom": 4598,
      "Ġdragan": 4599,
      "Ġfancy": 4600,
      "Ġmuscan": 4601,
      "Ġzaha": 4602,
      "Ġmidday": 4603,
      "Ġthoma": 4604,
      "Ġnavig": 4605,
      "Ġraining": 4606,
      "Ġfinal": 4607,
      "Ġpentax": 4608,
      "Ġmihai": 4609,
      "Ġrefrac": 4610,
      "Ġgira": 4611,
      "Ġexplor": 4612,
      "Ġcolla": 4613,
      "Ġcollar": 4614,
      "Ġindian": 4615,
      "Ġpalm": 4616,
      "Ġsilk": 4617,
      "illac": 4618,
      "Ġharry": 4619,
      "Ġvisor": 4620,
      "Ġghost": 4621,
      "ween": 4622,
      "Ġvogue": 4623,
      "Ġcroptop": 4624,
      "Ġcharlotte": 4625,
      "Ġschool": 4626,
      "Ġcaramel": 4627,
      "Ġskulls": 4628,
      "Ġtowering": 4629,
      "derunner": 4630,
      "Ġgems": 4631,
      "Ġtarnowski": 4632,
      "Ġbudapest": 4633,
      "Ġgates": 4634,
      "Ġbiolumine": 4635,
      "Ġdiffusion": 4636,
      "Ġbanana": 4637,
      "Ġmeadow": 4638,
      "Ġkarol": 4639,
      "vision": 4640,
      "Ġbasti": 4641,
      "Ġbrazilian": 4642,
      "Ġheavenly": 4643,
      "Ġfreshly": 4644,
      "idescent": 4645,
      "Ġdevil": 4646,
      "Ġpsychadelic": 4647,
      "Ġdinosaur": 4648,
      "Ġhadid": 4649,
      "Ġluxury": 4650,
      "Ġgoodman": 4651,
      "Ġblindfolded": 4652,
      "Ġprismatic": 4653,
      "magic": 4654,
      "Ġturtleneck": 4655,
      "Ġnatgeo": 4656,
      "Ġlanterns": 4657,
      "Ġgelbooru": 4658,
      "Ġbetween": 4659,
      "Ġgalactic": 4660,
      "Ġcontrol": 4661,
      "Ġabsurdly": 4662,
      "Ġcadillac": 4663,
      "Ġseventies": 4664,
      "creatures": 4665,
      "Ġstormy": 4666,
      "Ġpossess": 4667,
      "Ġdabrowa": 4668,
      "Ġcapybara": 4669,
      "fantasy": 4670,
      "Ġrifle": 4671,
      "Ġalbino": 4672,
      "Ġzuzanna": 4673,
      "Ġcharacters": 4674,
      "Ġstepien": 4675,
      "Ġiorveth": 4676,
      "Ġtiefling": 4677,
      "Ġmcquarrie": 4678,
      "ah": 4679,
      "aer": 4680,
      "bot": 4681,
      "brant": 4682,
      "cio": 4683,
      "cert": 4684,
      "dz": 4685,
      "dark": 4686,
      "ele": 4687,
      "eve": 4688,
      "flies": 4689,
      "gb": 4690,
      "gly": 4691,
      "gas": 4692,
      "gined": 4693,
      "ham": 4694,
      "lon": 4695,
      "nt": 4696,
      "pg": 4697,
      "rze": 4698,
      "sol": 4699,
      "scra": 4700,
      "wal": 4701,
      "white": 4702,
      "wood": 4703,
      "xies": 4704,
      "yer": 4705,
      "Ġæ": 4706,
      "inal": 4707,
      "Ġaura": 4708,
      "Ġapart": 4709,
      "Ġsaturated": 4710,
      "Ġbon": 4711,
      "Ġbel": 4712,
      "Ġboth": 4713,
      "Ġbull": 4714,
      "Ġbonsai": 4715,
      "render": 4716,
      "Ġcarp": 4717,
      "Ġdru": 4718,
      "lemon": 4719,
      "Ġplo": 4720,
      "Ġfilled": 4721,
      "Ġmature": 4722,
      "ano": 4723,
      "thered": 4724,
      "Ġget": 4725,
      "Ġartsy": 4726,
      "Ġartstar": 4727,
      "Ġartube": 4728,
      "ena": 4729,
      "ened": 4730,
      "ensive": 4731,
      "Ġandrze": 4732,
      "rophotography": 4733,
      "Ġinn": 4734,
      "Ġtrim": 4735,
      "ultiful": 4736,
      "ulaw": 4737,
      "unter": 4738,
      "lover": 4739,
      "Ġven": 4740,
      "iscence": 4741,
      "mad": 4742,
      "otoman": 4743,
      "edding": 4744,
      "chenko": 4745,
      "Ġrick": 4746,
      "Ġjump": 4747,
      "Ġmac": 4748,
      "Ġmart": 4749,
      "Ġmaid": 4750,
      "cks": 4751,
      "Ġpoke": 4752,
      "owl": 4753,
      "Ġange": 4754,
      "Ġantagonist": 4755,
      "netic": 4756,
      "Ġroad": 4757,
      "Ġconcert": 4758,
      "imed": 4759,
      "umber": 4760,
      "Ġcolorized": 4761,
      "Ġchurch": 4762,
      "vela": 4763,
      "Ġlehr": 4764,
      "Ġleader": 4765,
      "sterdam": 4766,
      "Ġrabbit": 4767,
      "hist": 4768,
      "udio": 4769,
      "ivers": 4770,
      "ateral": 4771,
      "Ġlast": 4772,
      "Ġzdz": 4773,
      "Ġzulaw": 4774,
      "Ġbladerunner": 4775,
      "Ġcafe": 4776,
      "Ġboat": 4777,
      "Ġbored": 4778,
      "Ġelemental": 4779,
      "Ġruins": 4780,
      "Ġheadpiece": 4781,
      "ibi": 4782,
      "ffic": 4783,
      "oky": 4784,
      "rows": 4785,
      "Ġwhich": 4786,
      "Ġnose": 4787,
      "Ġif": 4788,
      "Ġii": 4789,
      "Ġita": 4790,
      "minator": 4791,
      "Ġskyscra": 4792,
      "Ġcars": 4793,
      "Ġoutfit": 4794,
      "Ġdanny": 4795,
      "Ġwealthy": 4796,
      "Ġuhd": 4797,
      "Ġsec": 4798,
      "Ġcreative": 4799,
      "Ġflood": 4800,
      "Ġfloral": 4801,
      "Ġiridescent": 4802,
      "Ġbeaultiful": 4803,
      "Ġstreetwear": 4804,
      "Ġswimming": 4805,
      "Ġfashionable": 4806,
      "Ġhelen": 4807,
      "Ġinsanity": 4808,
      "Ġmagician": 4809,
      "Ġmasks": 4810,
      "Ġpepe": 4811,
      "Ġrainforest": 4812,
      "Ġhaunted": 4813,
      "Ġhalo": 4814,
      "Ġwalter": 4815,
      "Ġartifa": 4816,
      "Ġexpensive": 4817,
      "culine": 4818,
      "cast": 4819,
      "Ġpalmer": 4820,
      "Ġ[...": 4821,
      "ipulation": 4822,
      "Ġpancake": 4823,
      "Ġastrophotography": 4824,
      "Ġgerald": 4825,
      "Ġrounded": 4826,
      "Ġburger": 4827,
      "Ġchef": 4828,
      "Ġandrea": 4829,
      "Ġmotifs": 4830,
      "Ġexploding": 4831,
      "vintage": 4832,
      "Ġgalaxies": 4833,
      "Ġhildebrant": 4834,
      "Ġgladi": 4835,
      "Ġstephan": 4836,
      "Ġchristian": 4837,
      "Ġclassical": 4838,
      "Ġstoryboard": 4839,
      "Ġsargent": 4840,
      "Ġcybernetic": 4841,
      "Ġemerald": 4842,
      "Ġsimpsons": 4843,
      "Ġkatana": 4844,
      "Ġdestroying": 4845,
      "Ġmythology": 4846,
      "Ġmasculine": 4847,
      "Ġcircuits": 4848,
      "Ġqi": 4849,
      "Ġfamily": 4850,
      "Ġexplosions": 4851,
      "Ġtenth": 4852,
      "Ġãĥ": 4853,
      "Ġmetaph": 4854,
      "Ġdiego": 4855,
      "Ġsorcerer": 4856,
      "Ġmicroscope": 4857,
      "Ġsummits": 4858,
      "Ġponytail": 4859,
      "Ġrobotic": 4860,
      "Ġhorser": 4861,
      "Ġglittering": 4862,
      "Ġthrone": 4863,
      "Ġatlantis": 4864,
      "Ġbioluminiscence": 4865,
      "Ġpullover": 4866,
      "Ġwenjun": 4867,
      "Ġarthur": 4868,
      "Ġkaiju": 4869,
      "Ġeternal": 4870,
      "quisite": 4871,
      "Ġnavigator": 4872,
      "Ġbioluminecant": 4873,
      "Ġandrzej": 4874,
      "otomanipulation": 4875,
      "Ġzulawski": 4876,
      "agh": 4877,
      "ast": 4878,
      "ault": 4879,
      "bu": 4880,
      "for": 4881,
      "hen": 4882,
      "ms": 4883,
      "oting": 4884,
      "otage": 4885,
      "san": 4886,
      "sch": 4887,
      "sum": 4888,
      "sword": 4889,
      "space": 4890,
      "vf": 4891,
      "woman": 4892,
      "zu": 4893,
      "Ã¸": 4894,
      "Ð¾": 4895,
      "Ġer": 4896,
      "Ġid": 4897,
      "Ġlying": 4898,
      "inn": 4899,
      "erted": 4900,
      "Ġsan": 4901,
      "rared": 4902,
      "Ġdar": 4903,
      "Ġdvf": 4904,
      "Ġmes": 4905,
      "Ġmusta": 4906,
      "aning": 4907,
      "Ġoversi": 4908,
      "Ġhp": 4909,
      "Ġhier": 4910,
      "Ġhind": 4911,
      "Ġwre": 4912,
      "Ġwow": 4913,
      "Ġward": 4914,
      "Ġgran": 4915,
      "Ġgym": 4916,
      "Ġdel": 4917,
      "Ġdeter": 4918,
      "Ġandy": 4919,
      "tely": 4920,
      "Ġkime": 4921,
      "Ġkill": 4922,
      "olas": 4923,
      "Ġton": 4924,
      "Ġturb": 4925,
      "unette": 4926,
      "Ġely": 4927,
      "Ġval": 4928,
      "Ġvel": 4929,
      "Ġvik": 4930,
      "Ġvideo": 4931,
      "lander": 4932,
      "laimed": 4933,
      "ushi": 4934,
      "Ġlion": 4935,
      "eda": 4936,
      "edron": 4937,
      "Ġsheng": 4938,
      "chid": 4939,
      "utch": 4940,
      "Ġriv": 4941,
      "Ġnet": 4942,
      "Ġnich": 4943,
      "eating": 4944,
      "Ġthey": 4945,
      "Ġthemed": 4946,
      "Ġmad": 4947,
      "Ġmage": 4948,
      "Ġstron": 4949,
      "Ġposes": 4950,
      "sson": 4951,
      "nders": 4952,
      "irby": 4953,
      "Ġrod": 4954,
      "Ġentran": 4955,
      "Ġfootage": 4956,
      "Ġphone": 4957,
      "stral": 4958,
      "umm": 4959,
      "ovic": 4960,
      "Ġtrejo": 4961,
      "Ġfavela": 4962,
      "Ġchess": 4963,
      "Ġscumm": 4964,
      "ardo": 4965,
      "ards": 4966,
      "kem": 4967,
      "Ġspri": 4968,
      "Ġspagh": 4969,
      "qui": 4970,
      "ioration": 4971,
      "Ġyu": 4972,
      "Ġarcher": 4973,
      "awk": 4974,
      "Ġexquisite": 4975,
      "allery": 4976,
      "Ġbrunette": 4977,
      "Ġdata": 4978,
      "Ġbooth": 4979,
      "Ġtae": 4980,
      "eller": 4981,
      "Ġchains": 4982,
      "Ġbodysuit": 4983,
      "Ġdore": 4984,
      "colorful": 4985,
      "Ġsound": 4986,
      "Ġorban": 4987,
      "Ġwhere": 4988,
      "rens": 4989,
      "Ġherbert": 4990,
      "Ġdisco": 4991,
      "Ġnightma": 4992,
      "Ġnightsky": 4993,
      "lined": 4994,
      "Ġstargate": 4995,
      "Ġplatin": 4996,
      "Ġspacetime": 4997,
      "Ġquinn": 4998,
      "Ġluminous": 4999,
      "Ġgaiman": 5000,
      "bama": 5001,
      "Ġimmer": 5002,
      "Ġcats": 5003,
      "Ġcloudy": 5004,
      "Ġjesus": 5005,
      "Ġhuang": 5006,
      "Ġkorean": 5007,
      "illar": 5008,
      "Ġsynthetic": 5009,
      "Ġjazz": 5010,
      "Ġnaturel": 5011,
      "Ġvincent": 5012,
      "Ġfinish": 5013,
      "hands": 5014,
      "Ġartific": 5015,
      "Ġinfrared": 5016,
      "shock": 5017,
      "Ġbooks": 5018,
      "Ġearring": 5019,
      "ysical": 5020,
      "Ġlovecraft": 5021,
      "Ġharris": 5022,
      "Ġterra": 5023,
      "Ġpanfil": 5024,
      "Ġivan": 5025,
      "Ġtanned": 5026,
      "Ġcurvy": 5027,
      "Ġbioshock": 5028,
      "Ġlinework": 5029,
      "Ġassault": 5030,
      "Ġsinger": 5031,
      "Ġsleeve": 5032,
      "Ġtowers": 5033,
      "kanye": 5034,
      "jesus": 5035,
      "Ġgreatsword": 5036,
      "Ġcouple": 5037,
      "Ġspecial": 5038,
      "Ġsavchenko": 5039,
      "Ġreading": 5040,
      "Ġmilk": 5041,
      "Ġmilky": 5042,
      "ffee": 5043,
      "Ġoliver": 5044,
      "Ġseraphim": 5045,
      "Ġkanye": 5046,
      "Ġjulian": 5047,
      "Ġpathway": 5048,
      "transparent": 5049,
      "Ġbench": 5050,
      "Ġnukem": 5051,
      "Ġsparkling": 5052,
      "Ġeverything": 5053,
      "Ġelden": 5054,
      "Ġnarrow": 5055,
      "Ġzeus": 5056,
      "Ġornamental": 5057,
      "Ġjoyful": 5058,
      "Ġovergrown": 5059,
      "Ġboots": 5060,
      "Ġpointy": 5061,
      "Ġkodachrome": 5062,
      "Ġunique": 5063,
      "Ġvisionary": 5064,
      "Ġadobe": 5065,
      "Ġflashlight": 5066,
      "ochrome": 5067,
      "Ġsatanic": 5068,
      "Ġludovic": 5069,
      "professional": 5070,
      "Ġpleas": 5071,
      "Ġpearl": 5072,
      "Ġspirit": 5073,
      "Ġsprigger": 5074,
      "blue": 5075,
      "plants": 5076,
      "eakers": 5077,
      "Ġgiraud": 5078,
      "elect": 5079,
      "Ġapartment": 5080,
      "Ġdruid": 5081,
      "Ġplouffe": 5082,
      "Ġpokemon": 5083,
      "historic": 5084,
      "Ġzdzis": 5085,
      "Ġartifacts": 5086,
      "Ġãĥ»": 5087,
      "Ġoversized": 5088,
      "Ġdeterioration": 5089,
      "Ġviktor": 5090,
      "Ġnicholas": 5091,
      "Ġspaghetti": 5092,
      "Ġpanfilova": 5093,
      "bov": 5094,
      "bubbles": 5095,
      "cti": 5096,
      "cri": 5097,
      "far": 5098,
      "ftis": 5099,
      "gi": 5100,
      "hs": 5101,
      "har": 5102,
      "hedron": 5103,
      "iyo": 5104,
      "oi": 5105,
      "plan": 5106,
      "pillar": 5107,
      "still": 5108,
      "saturated": 5109,
      "todd": 5110,
      "tlander": 5111,
      "uous": 5112,
      "vous": 5113,
      "wi": 5114,
      "yon": 5115,
      "ype": 5116,
      "zan": 5117,
      "zilla": 5118,
      "ÅĤ": 5119,
      "Ġai": 5120,
      "Ġate": 5121,
      "Ġasy": 5122,
      "Ġastral": 5123,
      "Ġsanta": 5124,
      "Ġsens": 5125,
      "Ġbush": 5126,
      "tar": 5127,
      "tait": 5128,
      "Ġcory": 5129,
      "Ġcthulhu": 5130,
      "ras": 5131,
      "rapped": 5132,
      "Ġdutch": 5133,
      "Ġpr": 5134,
      "Ġpiece": 5135,
      "Ġfun": 5136,
      "Ġoct": 5137,
      "Ġotom": 5138,
      "lized": 5139,
      "Ġhol": 5140,
      "Ġhide": 5141,
      "thousand": 5142,
      "Ġwedding": 5143,
      "Ġwrapped": 5144,
      "Ġgond": 5145,
      "Ġgown": 5146,
      "Ġgha": 5147,
      "enne": 5148,
      "ght": 5149,
      "Ġdec": 5150,
      "tell": 5151,
      "texture": 5152,
      "ilan": 5153,
      "Ġku": 5154,
      "Ġkid": 5155,
      "Ġtropical": 5156,
      "Ġvs": 5157,
      "Ġvines": 5158,
      "latin": 5159,
      "maid": 5160,
      "otta": 5161,
      "otype": 5162,
      "Ġlime": 5163,
      "Ġthor": 5164,
      "Ġthunder": 5165,
      "Ġshell": 5166,
      "Ġrings": 5167,
      "Ġnine": 5168,
      "Ġtheme": 5169,
      "igtlander": 5170,
      "Ġjup": 5171,
      "Ġmap": 5172,
      "Ġpockets": 5173,
      "Ġwithout": 5174,
      "Ġanti": 5175,
      "sher": 5176,
      "Ġenlarge": 5177,
      "Ġfour": 5178,
      "gether": 5179,
      "george": 5180,
      "getation": 5181,
      "ieg": 5182,
      "ievous": 5183,
      "stran": 5184,
      "Ġhyung": 5185,
      "Ġenglish": 5186,
      "port": 5187,
      "mous": 5188,
      "Ġbeat": 5189,
      "Ġbefore": 5190,
      "Ġleib": 5191,
      "Ġmoh": 5192,
      "Ġhassel": 5193,
      "Ġllo": 5194,
      "upe": 5195,
      "Ġarmy": 5196,
      "Ġcount": 5197,
      "Ġloftis": 5198,
      "Ġtotal": 5199,
      "Ġtomas": 5200,
      "Ġmuch": 5201,
      "Ġfilip": 5202,
      "awesome": 5203,
      "Ġnether": 5204,
      "Ġteal": 5205,
      "Ġcomple": 5206,
      "Ġdeserted": 5207,
      "apple": 5208,
      "Ġdarth": 5209,
      "odynamic": 5210,
      "Ġbosch": 5211,
      "verse": 5212,
      "Ġdarkac": 5213,
      "Ġrub": 5214,
      "Ġrusty": 5215,
      "Ġgravy": 5216,
      "racotta": 5217,
      "urate": 5218,
      "oks": 5219,
      "Ġorchid": 5220,
      "isha": 5221,
      "Ġnoah": 5222,
      "Ġtiki": 5223,
      "Ġrocks": 5224,
      "Ġrocket": 5225,
      "minal": 5226,
      "Ġskyrim": 5227,
      "Ġgrievous": 5228,
      "Ġmoving": 5229,
      "Ġsupersaturated": 5230,
      "Ġplated": 5231,
      "guin": 5232,
      "Ġmyst": 5233,
      "osai": 5234,
      "Ġdirty": 5235,
      "Ġoutlined": 5236,
      "Ġworm": 5237,
      "Ġimpo": 5238,
      "ording": 5239,
      "Ġhanga": 5240,
      "Ġgustave": 5241,
      "Ġcovering": 5242,
      "!!!!!": 5243,
      "Ġvegetation": 5244,
      "Ġgelatin": 5245,
      "Ġsuits": 5246,
      "Ġimaging": 5247,
      "Ġgloves": 5248,
      "Ġcinemaic": 5249,
      "Ġito": 5250,
      "Ġhourglass": 5251,
      "metry": 5252,
      "Ġswan": 5253,
      "aldor": 5254,
      "Ġamber": 5255,
      "Ġamsterdam": 5256,
      "Ġshooting": 5257,
      "Ġkawana": 5258,
      "uez": 5259,
      "Ġcolle": 5260,
      "Ġtwi": 5261,
      "Ġridley": 5262,
      "Ġdimly": 5263,
      "Ġharley": 5264,
      "Ġterminator": 5265,
      "Ġterracotta": 5266,
      "Ġkaur": 5267,
      "Ġtechnologically": 5268,
      "Ġyears": 5269,
      "Ġvoigtlander": 5270,
      "Ġchest": 5271,
      "Ġcirrus": 5272,
      "Ġpower": 5273,
      "Ġpowered": 5274,
      "Ġsleeping": 5275,
      "Ġpeaks": 5276,
      "Ġdecoration": 5277,
      "Ġfeather": 5278,
      "onymus": 5279,
      "Ġspecular": 5280,
      "medium": 5281,
      "blad": 5282,
      "Ġvaria": 5283,
      "tino": 5284,
      "Ġbiolumines": 5285,
      "Ġcreatures": 5286,
      "Ġpuppy": 5287,
      "Ġmermaid": 5288,
      "Ġcoding": 5289,
      "Ġrepeating": 5290,
      "symmetry": 5291,
      "Ġkyosai": 5292,
      "Ġprehistoric": 5293,
      "Ġhorns": 5294,
      "Ġsweater": 5295,
      "Ġproportion": 5296,
      "garov": 5297,
      "Ġwhalen": 5298,
      "Ġweapon": 5299,
      "Ġbranches": 5300,
      "Ġhowe": 5301,
      "Ġleonardo": 5302,
      "print": 5303,
      "Ġbulgarov": 5304,
      "fluid": 5305,
      "Ġannie": 5306,
      "Ġeastern": 5307,
      "Ġscoia": 5308,
      "Ġconquer": 5309,
      "Ġinternal": 5310,
      "Ġchicken": 5311,
      "Ġmeditating": 5312,
      "Ġbottle": 5313,
      "Ġfungi": 5314,
      "Ġgriff": 5315,
      "Ġvitaly": 5316,
      "Ġexperim": 5317,
      "Ġoriginal": 5318,
      "Ġrefracted": 5319,
      "Ġexplorer": 5320,
      "walter": 5321,
      "Ġmartin": 5322,
      "Ġmetaphysical": 5323,
      "Ġentrance": 5324,
      "Ġsprites": 5325,
      "Ġsoundcloud": 5326,
      "Ġnightmare": 5327,
      "Ġimmerse": 5328,
      "electron": 5329,
      "ÅĤaw": 5330,
      "Ġatey": 5331,
      "Ġotomo": 5332,
      "Ġghailan": 5333,
      "Ġjupiter": 5334,
      "Ġenlargement": 5335,
      "Ġhasselblad": 5336,
      "Ġdarkacademia": 5337,
      "Ġkawanabe": 5338,
      "''": 5339,
      "bad": 5340,
      "cine": 5341,
      "cid": 5342,
      "cub": 5343,
      "gundam": 5344,
      "iers": 5345,
      "kade": 5346,
      "lus": 5347,
      "mic": 5348,
      "nel": 5349,
      "sd": 5350,
      "var": 5351,
      "wing": 5352,
      "¤ĸ": 5353,
      "Ģ°": 5354,
      "Ġax": 5355,
      "Ġaqu": 5356,
      "Ġsat": 5357,
      "Ġske": 5358,
      "Ġskies": 5359,
      "Ġbunny": 5360,
      "Ġclu": 5361,
      "Ġcater": 5362,
      "Ġcold": 5363,
      "Ġcall": 5364,
      "Ġclim": 5365,
      "Ġcrus": 5366,
      "rat": 5367,
      "rata": 5368,
      "Ġdol": 5369,
      "Ġdia": 5370,
      "Ġduring": 5371,
      "Ġdurer": 5372,
      "tim": 5373,
      "Ġpbr": 5374,
      "Ġfutur": 5375,
      "Ġfell": 5376,
      "Ġmun": 5377,
      "Ġow": 5378,
      "Ġhall": 5379,
      "thon": 5380,
      "Ġwine": 5381,
      "Ġwise": 5382,
      "eni": 5383,
      "enti": 5384,
      "icz": 5385,
      "oroid": 5386,
      "orhe": 5387,
      "Ġkni": 5388,
      "Ġkirby": 5389,
      "Ġkaldor": 5390,
      "Ġrema": 5391,
      "Ġrese": 5392,
      "Ġtund": 5393,
      "Ġtris": 5394,
      "escent": 5395,
      "ulti": 5396,
      "una": 5397,
      "unes": 5398,
      "Ġvor": 5399,
      "Ġvhs": 5400,
      "ison": 5401,
      "mation": 5402,
      "made": 5403,
      "macul": 5404,
      "macro": 5405,
      "Ġthai": 5406,
      "Ġshish": 5407,
      "elle": 5408,
      "cht": 5409,
      "chu": 5410,
      "eter": 5411,
      "Ġria": 5412,
      "Ġrpg": 5413,
      "Ġnai": 5414,
      "Ġnano": 5415,
      "eaking": 5416,
      "urs": 5417,
      "Ġjar": 5418,
      "Ġjust": 5419,
      "Ġstones": 5420,
      "cklin": 5421,
      "Ġposition": 5422,
      "luo": 5423,
      "shÃ¸": 5424,
      "Ġroset": 5425,
      "Ġconsum": 5426,
      "Ġphili": 5427,
      "ief": 5428,
      "immer": 5429,
      "Ġunivers": 5430,
      "rank": 5431,
      "mored": 5432,
      "Ġmoth": 5433,
      "Ġram": 5434,
      "Ġdraper": 5435,
      "udi": 5436,
      "udly": 5437,
      "Ġstacked": 5438,
      "ions": 5439,
      "Ġyenne": 5440,
      "Ġlgb": 5441,
      "Ġalma": 5442,
      "Ġalbre": 5443,
      "Ġbacklight": 5444,
      "Ġcob": 5445,
      "Ġcoffee": 5446,
      "Ġcoupe": 5447,
      "Ġtoys": 5448,
      "Ġtogether": 5449,
      "Ġmurata": 5450,
      "Ġexhi": 5451,
      "Ġnega": 5452,
      "Ġtea": 5453,
      "Ġtetra": 5454,
      "Ġwaterhouse": 5455,
      "Ġhearth": 5456,
      "Ġbritt": 5457,
      "Ġdaeni": 5458,
      "Ġbocklin": 5459,
      "Ġtale": 5460,
      "Ġdarkness": 5461,
      "elling": 5462,
      "Ġupon": 5463,
      "rones": 5464,
      "Ġprote": 5465,
      "Ġprotagonist": 5466,
      "Ġyour": 5467,
      "ðŁı": 5468,
      "Ġwarhol": 5469,
      "artz": 5470,
      "Ġalphons": 5471,
      "Ġalen": 5472,
      "Ġmarling": 5473,
      "Ġnope": 5474,
      "Ġtight": 5475,
      "Ġoverear": 5476,
      "ĠðŁ¦": 5477,
      "ĠðŁį": 5478,
      "ĠðŁı": 5479,
      "erness": 5480,
      "Ġcraft": 5481,
      "ware": 5482,
      "Ġplace": 5483,
      "Ġelon": 5484,
      "Ġouter": 5485,
      "Ġoutline": 5486,
      "Ġgouache": 5487,
      "Ġwestern": 5488,
      "Ġgaugh": 5489,
      "adsword": 5490,
      "Ġimmacul": 5491,
      "Ġgodward": 5492,
      "ensen": 5493,
      "Ġsee": 5494,
      "Ġseen": 5495,
      "Ġemile": 5496,
      "Ġtraffic": 5497,
      "Ġveiled": 5498,
      "itchev": 5499,
      "Ġgeorge": 5500,
      "Ġgeisha": 5501,
      "Ġimages": 5502,
      "Ġprince": 5503,
      "Ġfireflies": 5504,
      "bec": 5505,
      "Ġjeans": 5506,
      "Ġarchitect": 5507,
      "bru": 5508,
      "Ġjohnny": 5509,
      "Ġapocalypse": 5510,
      "Ġwoodblo": 5511,
      "Ġnata": 5512,
      "Ġnagel": 5513,
      "Ġsmokey": 5514,
      "spider": 5515,
      "Ġdrum": 5516,
      "Ġunderground": 5517,
      "Ġcrowned": 5518,
      "Ġpatterned": 5519,
      "Ġportals": 5520,
      "stock": 5521,
      "Ġferna": 5522,
      "Ġgeralt": 5523,
      "Ġdenning": 5524,
      "Ġvoorhe": 5525,
      "Ġandrei": 5526,
      "Ġtimes": 5527,
      "Ġbrooks": 5528,
      "Ġbroadsword": 5529,
      "Ġpino": 5530,
      "jeff": 5531,
      "Ġwilderness": 5532,
      "Ġspeed": 5533,
      "Ġgenerative": 5534,
      "foot": 5535,
      "Ġendless": 5536,
      "Ġrhizomorphs": 5537,
      "Ġcupping": 5538,
      "Ġolive": 5539,
      "Ġemerges": 5540,
      "Ġnicole": 5541,
      "Ġkanji": 5542,
      "ĠhammershÃ¸": 5543,
      "Ġspooky": 5544,
      "Ġstrip": 5545,
      "Ġronald": 5546,
      "Ġproportional": 5547,
      "Ġtraveler": 5548,
      "Ġcircuit": 5549,
      "Ġholographic": 5550,
      "Ġnorris": 5551,
      "Ġwhale": 5552,
      "Ġweapons": 5553,
      "Ġbottom": 5554,
      "Ġshutterstock": 5555,
      "Ġaccurate": 5556,
      "ĠâĢ°": 5557,
      "Ġkatsuhiro": 5558,
      "Ġomens": 5559,
      "Ġkindkade": 5560,
      "Ġcatholic": 5561,
      "Ġmegapixels": 5562,
      "Ġfriends": 5563,
      "Ġanthro": 5564,
      "Ġcigar": 5565,
      "Ġhidden": 5566,
      "struction": 5567,
      "Ġjunji": 5568,
      "Ġwheat": 5569,
      "Ġpossession": 5570,
      "aerodynamic": 5571,
      "Ġflooded": 5572,
      "build": 5573,
      "Ġhieronymus": 5574,
      "Ġshengluo": 5575,
      "Ġplatinum": 5576,
      "Ġspiritual": 5577,
      "bovitchev": 5578,
      "Ġmohawk": 5579,
      "Ġtomasz": 5580,
      "Ġtwilight": 5581,
      "Ġvariations": 5582,
      "Ġbioluminescent": 5583,
      "Ġexperiments": 5584,
      "cinematic": 5585,
      "Ġcaterpillar": 5586,
      "Ġknife": 5587,
      "Ġremains": 5588,
      "Ġtundra": 5589,
      "Ġshishkin": 5590,
      "Ġriabovitchev": 5591,
      "Ġnaive": 5592,
      "Ġyennefer": 5593,
      "Ġlgbt": 5594,
      "Ġalbrecht": 5595,
      "Ġnegative": 5596,
      "Ġhearthstone": 5597,
      "Ġgaughan": 5598,
      "Ġimmaculate": 5599,
      "Ġwoodblock": 5600,
      "Ġvoorhees": 5601,
      "ĠhammershÃ¸i": 5602,
      "ara": 5603,
      "bit": 5604,
      "bur": 5605,
      "bold": 5606,
      "body": 5607,
      "cch": 5608,
      "dan": 5609,
      "des": 5610,
      "ew": 5611,
      "future": 5612,
      "gia": 5613,
      "gorgeous": 5614,
      "hou": 5615,
      "kh": 5616,
      "kana": 5617,
      "lers": 5618,
      "mist": 5619,
      "mless": 5620,
      "oper": 5621,
      "oke": 5622,
      "ppa": 5623,
      "sun": 5624,
      "sia": 5625,
      "scape": 5626,
      "self": 5627,
      "ten": 5628,
      "uka": 5629,
      "zo": 5630,
      "zs": 5631,
      "zen": 5632,
      "Ġuv": 5633,
      "Ġera": 5634,
      "inf": 5635,
      "Ġaven": 5636,
      "Ġago": 5637,
      "Ġswa": 5638,
      "Ġbes": 5639,
      "Ġbone": 5640,
      "Ġbros": 5641,
      "Ġbroom": 5642,
      "Ġbala": 5643,
      "Ġbubbles": 5644,
      "rek": 5645,
      "tato": 5646,
      "tails": 5647,
      "Ġcult": 5648,
      "rai": 5649,
      "Ġdu": 5650,
      "Ġdro": 5651,
      "ndalf": 5652,
      "leg": 5653,
      "letal": 5654,
      "Ġped": 5655,
      "Ġpel": 5656,
      "Ġpri": 5657,
      "Ġpill": 5658,
      "inguez": 5659,
      "Ġfil": 5660,
      "Ġfir": 5661,
      "Ġmur": 5662,
      "Ġmoney": 5663,
      "Ġob": 5664,
      "lix": 5665,
      "Ġhit": 5666,
      "Ġhides": 5667,
      "Ġhsia": 5668,
      "Ġwr": 5669,
      "Ġwere": 5670,
      "Ġgia": 5671,
      "Ġgang": 5672,
      "Ġgina": 5673,
      "Ġgallery": 5674,
      "encio": 5675,
      "icular": 5676,
      "oria": 5677,
      "ghini": 5678,
      "Ġdete": 5679,
      "Ġdepic": 5680,
      "rogant": 5681,
      "robot": 5682,
      "sture": 5683,
      "studio": 5684,
      "ilop": 5685,
      "Ġkik": 5686,
      "olation": 5687,
      "Ġregal": 5688,
      "Ġresting": 5689,
      "ulov": 5690,
      "Ġec": 5691,
      "Ġep": 5692,
      "Ġever": 5693,
      "Ġeilh": 5694,
      "Ġvoid": 5695,
      "lax": 5696,
      "map": 5697,
      "mat": 5698,
      "usa": 5699,
      "Ġlimon": 5700,
      "Ġthings": 5701,
      "Ġshaman": 5702,
      "aturing": 5703,
      "standing": 5704,
      "Ġrj": 5705,
      "inecraft": 5706,
      "urn": 5707,
      "urious": 5708,
      "igter": 5709,
      "omi": 5710,
      "omin": 5711,
      "phy": 5712,
      "Ġjad": 5713,
      "Ġmaple": 5714,
      "Ġstream": 5715,
      "amed": 5716,
      "ada": 5717,
      "Ġroger": 5718,
      "Ġenki": 5719,
      "ateboard": 5720,
      "ovitz": 5721,
      "Ġhyster": 5722,
      "Ġfather": 5723,
      "Ġchic": 5724,
      "Ġcheng": 5725,
      "Ġchilop": 5726,
      "ured": 5727,
      "Ġlightening": 5728,
      "Ġlebr": 5729,
      "Ġleading": 5730,
      "Ġmorty": 5731,
      "Ġrace": 5732,
      "Ġspawn": 5733,
      "Ġspring": 5734,
      "Ġspeaking": 5735,
      "udy": 5736,
      "plets": 5737,
      "rier": 5738,
      "Ġarsen": 5739,
      "graphy": 5740,
      "dema": 5741,
      "Ġclock": 5742,
      "Ġcock": 5743,
      "Ġtoast": 5744,
      "Ġtocch": 5745,
      "Ġmurak": 5746,
      "ressive": 5747,
      "Ġexposed": 5748,
      "Ġnever": 5749,
      "Ġteen": 5750,
      "Ġtears": 5751,
      "asa": 5752,
      "para": 5753,
      "Ġskateboard": 5754,
      "Ġfeaturing": 5755,
      "Ġdavis": 5756,
      "Ġbog": 5757,
      "Ġtaco": 5758,
      "Ġtadema": 5759,
      "gandalf": 5760,
      "Ġchaotic": 5761,
      "nasty": 5762,
      "iano": 5763,
      "Ġasencio": 5764,
      "Ġheadshot": 5765,
      "Ġprop": 5766,
      "Ġproje": 5767,
      "Ġsteal": 5768,
      "Ġyoga": 5769,
      "ðŁĩ": 5770,
      "Ġgraceful": 5771,
      "Ġwarner": 5772,
      "ereum": 5773,
      "Ġpixel": 5774,
      "Ġrobby": 5775,
      "Ġbarnet": 5776,
      "Ġ).": 5777,
      "Ġnotes": 5778,
      "yama": 5779,
      "Ġhogan": 5780,
      "Ġhotel": 5781,
      "Ġnightfall": 5782,
      "Ġsaber": 5783,
      "Ġmonum": 5784,
      "Ġmonochrome": 5785,
      "Ġforests": 5786,
      "Ġacicular": 5787,
      "isting": 5788,
      "Ġovercast": 5789,
      "ĠðŁĩ": 5790,
      "Ġmovies": 5791,
      "Ġscenery": 5792,
      "Ġforcus": 5793,
      "Ġstarry": 5794,
      "Ġdynasty": 5795,
      "Ġflux": 5796,
      "Ġquiet": 5797,
      "Ġlumin": 5798,
      "Ġlucid": 5799,
      "stick": 5800,
      "toner": 5801,
      "Ġgaudy": 5802,
      "Ġimplants": 5803,
      "dramatic": 5804,
      "Ġseeds": 5805,
      "Ġdepp": 5806,
      "Ġflorent": 5807,
      "Ġtrader": 5808,
      "ggressive": 5809,
      "Ġguard": 5810,
      "Ġgesture": 5811,
      "fire": 5812,
      "Ġimagined": 5813,
      "Ġmounted": 5814,
      "young": 5815,
      "Ġafter": 5816,
      "Ġswiss": 5817,
      "lane": 5818,
      "Ġhex": 5819,
      "Ġcryeng": 5820,
      "Ġminimal": 5821,
      "ruck": 5822,
      "borghini": 5823,
      "cessing": 5824,
      "Ġraincoat": 5825,
      "Ġwhole": 5826,
      "haven": 5827,
      "suits": 5828,
      "Ġdrigter": 5829,
      "cyborg": 5830,
      "Ġinflu": 5831,
      "Ġdaytoner": 5832,
      "Ġcola": 5833,
      "Ġtriang": 5834,
      "Ġtwisting": 5835,
      "Ġmarker": 5836,
      "Ġblond": 5837,
      "loween": 5838,
      "Ġgarde": 5839,
      "creepy": 5840,
      "duke": 5841,
      "Ġcurved": 5842,
      "Ġmonstera": 5843,
      "Ġasset": 5844,
      "Ġspiderman": 5845,
      "Ġslender": 5846,
      "Ġcards": 5847,
      "Ġparts": 5848,
      "nite": 5849,
      "nister": 5850,
      "Ġlotus": 5851,
      "Ġjunglepunk": 5852,
      "clear": 5853,
      "Ġceiling": 5854,
      "Ġvacher": 5855,
      "Ġavant": 5856,
      "Ġvertical": 5857,
      "Ġadams": 5858,
      "Ġassassins": 5859,
      "Ġimpact": 5860,
      "model": 5861,
      "processing": 5862,
      "Ġpython": 5863,
      "Ġsoldiers": 5864,
      "scientist": 5865,
      "Ġbizley": 5866,
      "battle": 5867,
      "Ġcowboy": 5868,
      "Ġnuclear": 5869,
      "Ġkatakana": 5870,
      "Ġauro": 5871,
      "Ġslasher": 5872,
      "Ġdestroyed": 5873,
      "Ġlamps": 5874,
      "Ġlamborghini": 5875,
      "Ġsymbols": 5876,
      "Ġluxurious": 5877,
      "Ġanimals": 5878,
      "Ġchristmas": 5879,
      "Ġhologram": 5880,
      "Ġnoriyo": 5881,
      "Ġslice": 5882,
      "Ġtheremin": 5883,
      "flowers": 5884,
      "psych": 5885,
      "Ġbilal": 5886,
      "Ġbilateral": 5887,
      "Ġbottles": 5888,
      "Ġeggleton": 5889,
      "Ġchairs": 5890,
      "hole": 5891,
      "Ġpigtails": 5892,
      "opath": 5893,
      "zona": 5894,
      "Ġlayered": 5895,
      "ðŁįİ": 5896,
      "Ġcottage": 5897,
      "Ġdominguez": 5898,
      "Ġinsects": 5899,
      "Ġtakeuchi": 5900,
      "Ġfruit": 5901,
      "Ġstock": 5902,
      "Ġchevrier": 5903,
      "Ġlannister": 5904,
      "Ġsigma": 5905,
      "Ġputin": 5906,
      "Ġohrai": 5907,
      "Ġantlers": 5908,
      "Ġgloomhaven": 5909,
      "Ġbastien": 5910,
      "Ġjumpsuits": 5911,
      "Ġmustache": 5912,
      "Ġstrong": 5913,
      "ĠzdzisÅĤaw": 5914,
      "farlane": 5915,
      "Ġasyrank": 5916,
      "Ġsensual": 5917,
      "Ġoctopath": 5918,
      "Ġhideyuki": 5919,
      "Ġgondor": 5920,
      "Ġleibovitz": 5921,
      "Ġcountry": 5922,
      "Ġrubber": 5923,
      "mickey": 5924,
      "Ġcrusader": 5925,
      "Ġfuturist": 5926,
      "Ġtriss": 5927,
      "Ġfernand": 5928,
      "Ġlgbtq": 5929,
      "Ġagoston": 5930,
      "Ġbalazs": 5931,
      "Ġdroplets": 5932,
      "Ġhsiao": 5933,
      "Ġdetective": 5934,
      "Ġkikuchi": 5935,
      "Ġeilhart": 5936,
      "Ġlimonick": 5937,
      "Ġhysterically": 5938,
      "Ġchilopoda": 5939,
      "Ġlebrun": 5940,
      "Ġtocchini": 5941,
      "Ġmurakami": 5942,
      "Ġprojection": 5943,
      "Ġcryengine": 5944,
      "Ġnoriyoshi": 5945,
      "Ġasyrankulov": 5946,
      "aa": 5947,
      "aver": 5948,
      "bster": 5949,
      "bell": 5950,
      "ctic": 5951,
      "cting": 5952,
      "cart": 5953,
      "cube": 5954,
      "dnd": 5955,
      "ey": 5956,
      "eon": 5957,
      "evi": 5958,
      "fat": 5959,
      "fron": 5960,
      "game": 5961,
      "ginning": 5962,
      "hea": 5963,
      "hap": 5964,
      "hito": 5965,
      "iper": 5966,
      "kushi": 5967,
      "mor": 5968,
      "mum": 5969,
      "miss": 5970,
      "nic": 5971,
      "orange": 5972,
      "pix": 5973,
      "sw": 5974,
      "sea": 5975,
      "sure": 5976,
      "some": 5977,
      "ustration": 5978,
      "vib": 5979,
      "xions": 5980,
      "ythe": 5981,
      "Â©": 5982,
      "Ġ*": 5983,
      "ĠÐ": 5984,
      "ĠÂ©": 5985,
      "Ġari": 5986,
      "Ġaya": 5987,
      "Ġaggressive": 5988,
      "eres": 5989,
      "eroth": 5990,
      "erina": 5991,
      "Ġsen": 5992,
      "Ġbubble": 5993,
      "rew": 5994,
      "tale": 5995,
      "table": 5996,
      "Ġcr": 5997,
      "Ġcorn": 5998,
      "Ġcream": 5999,
      "Ġdull": 6000,
      "Ġdroid": 6001,
      "tig": 6002,
      "tire": 6003,
      "Ġpiz": 6004,
      "Ġpiano": 6005,
      "Ġfunk": 6006,
      "Ġmol": 6007,
      "Ġmom": 6008,
      "ane": 6009,
      "Ġoo": 6010,
      "Ġoas": 6011,
      "lier": 6012,
      "lita": 6013,
      "Ġhon": 6014,
      "Ġhere": 6015,
      "tho": 6016,
      "Ġwo": 6017,
      "Ġwing": 6018,
      "Ġwye": 6019,
      "Ġgon": 6020,
      "Ġgam": 6021,
      "Ġartem": 6022,
      "archi": 6023,
      "enki": 6024,
      "Ġdeal": 6025,
      "Ġdegen": 6026,
      "tec": 6027,
      "teble": 6028,
      "alopa": 6029,
      "street": 6030,
      "storm": 6031,
      "ilma": 6032,
      "ilustration": 6033,
      "Ġki": 6034,
      "Ġtup": 6035,
      "Ġtsu": 6036,
      "esha": 6037,
      "logo": 6038,
      "Ġvent": 6039,
      "lateble": 6040,
      "used": 6041,
      "usep": 6042,
      "Ġpage": 6043,
      "Ġlist": 6044,
      "edral": 6045,
      "Ġthrones": 6046,
      "Ġni": 6047,
      "Ġnun": 6048,
      "phoria": 6049,
      "Ġjod": 6050,
      "Ġjum": 6051,
      "iders": 6052,
      "Ġmati": 6053,
      "alien": 6054,
      "lum": 6055,
      "Ġanna": 6056,
      "irrel": 6057,
      "Ġroll": 6058,
      "Ġrosa": 6059,
      "Ġrobert": 6060,
      "Ġrott": 6061,
      "Ġconrad": 6062,
      "Ġphotomanipulation": 6063,
      "Ġintere": 6064,
      "imbold": 6065,
      "oven": 6066,
      "Ġtreas": 6067,
      "ptuous": 6068,
      "Ġcher": 6069,
      "Ġchim": 6070,
      "Ġchry": 6071,
      "Ġchibi": 6072,
      "pocalyp": 6073,
      "Ġdigitally": 6074,
      "Ġscythe": 6075,
      "Ġbeginning": 6076,
      "Ġhave": 6077,
      "Ġhaving": 6078,
      "Ġspan": 6079,
      "Ġspar": 6080,
      "Ġsprings": 6081,
      "Ġspread": 6082,
      "Ġstates": 6083,
      "Ġlone": 6084,
      "Ġlava": 6085,
      "Ġalps": 6086,
      "Ġark": 6087,
      "Ġarmored": 6088,
      "Ġarrogant": 6089,
      "berto": 6090,
      "Ġzero": 6091,
      "Ġzdis": 6092,
      "romeda": 6093,
      "gery": 6094,
      "Ġlos": 6095,
      "Ġloading": 6096,
      "Ġlolita": 6097,
      "Ġcapa": 6098,
      "Ġexci": 6099,
      "Ġexist": 6100,
      "Ġneoc": 6101,
      "Ġtext": 6102,
      "essica": 6103,
      "Ġultrarealism": 6104,
      "paren": 6105,
      "Ġdesolation": 6106,
      "Ġbrit": 6107,
      "fection": 6108,
      "Ġshades": 6109,
      "Ġbirth": 6110,
      "Ġeyed": 6111,
      "themum": 6112,
      "Ġisometric": 6113,
      "Ġprot": 6114,
      "Ġstudios": 6115,
      "colia": 6116,
      "Ġmem": 6117,
      "Ġmegan": 6118,
      "melen": 6119,
      "Ġwaist": 6120,
      "works": 6121,
      "Ġbluth": 6122,
      "blestone": 6123,
      "Ġsurf": 6124,
      "Ġjourney": 6125,
      "Ġkeffi": 6126,
      "soft": 6127,
      "bies": 6128,
      "aii": 6129,
      "Ġleaf": 6130,
      "Ġcann": 6131,
      "Ġnightcore": 6132,
      "Ġsaint": 6133,
      "Ġmonks": 6134,
      "Ġbucket": 6135,
      "Ġacoly": 6136,
      "grainy": 6137,
      "Ġoverhead": 6138,
      "Ġforward": 6139,
      "ways": 6140,
      "Ġstarship": 6141,
      "Ġplastic": 6142,
      "Ġadi": 6143,
      "Ġadolph": 6144,
      "Ġkeys": 6145,
      "acing": 6146,
      "Ġcoloss": 6147,
      "Ġbrad": 6148,
      "Ġbrains": 6149,
      "Ġmedia": 6150,
      "aka": 6151,
      "Ġmcfarlane": 6152,
      "Ġgogg": 6153,
      "Ġgaze": 6154,
      "centered": 6155,
      "Ġsequ": 6156,
      "Ġfursuit": 6157,
      "Ġtrav": 6158,
      "Ġtrading": 6159,
      "Ġhann": 6160,
      "Ġhumans": 6161,
      "Ġtransparen": 6162,
      "yeh": 6163,
      "Ġdrif": 6164,
      "Ġdripping": 6165,
      "Ġami": 6166,
      "Ġheilma": 6167,
      "Ġmini": 6168,
      "Ġpostcyberpunk": 6169,
      "kachu": 6170,
      "Ġinsane": 6171,
      "Ġmasked": 6172,
      "Ġwoodring": 6173,
      "Ġnau": 6174,
      "Ġnaples": 6175,
      "Ġhalloween": 6176,
      "Ġpenguin": 6177,
      "Ġkawaii": 6178,
      "Ġantonino": 6179,
      "Ġsits": 6180,
      "Ġsitted": 6181,
      "Ġmoonlight": 6182,
      "Ġsniper": 6183,
      "Ġgiusep": 6184,
      "Ġinflateble": 6185,
      "itas": 6186,
      "Ġearly": 6187,
      "Ġsilhou": 6188,
      "illie": 6189,
      "Ġridd": 6190,
      "Ġreally": 6191,
      "Ġfortnite": 6192,
      "Ġhalfling": 6193,
      "Ġvilleneuv": 6194,
      "ikomi": 6195,
      "Ġhandmade": 6196,
      "Ġreflexions": 6197,
      "Ġvisible": 6198,
      "Ġtechnological": 6199,
      "Ġghillie": 6200,
      "Ġbeds": 6201,
      "Ġhorsey": 6202,
      "Ġcampbell": 6203,
      "Ġsingular": 6204,
      "Ġsally": 6205,
      "Ġarcimbold": 6206,
      "Ġsuburban": 6207,
      "Ġparis": 6208,
      "Ġnewman": 6209,
      "Ġextrater": 6210,
      "Ġscale": 6211,
      "Ġwildflowers": 6212,
      "Ġaraki": 6213,
      "Ġoffice": 6214,
      "Ġmenacing": 6215,
      "Ġreclaimed": 6216,
      "Ġrecording": 6217,
      "Ġchihua": 6218,
      "Ġbattlefield": 6219,
      "Ġbane": 6220,
      "Ġamazon": 6221,
      "Ġriso": 6222,
      "tters": 6223,
      "Ġsorrows": 6224,
      "warrior": 6225,
      "hei": 6226,
      "underwater": 6227,
      "Ġnerikomi": 6228,
      "!!!!!!!!!": 6229,
      "Ġgradient": 6230,
      "Ġpanoram": 6231,
      "Ġgroot": 6232,
      "Ġvisually": 6233,
      "linear": 6234,
      "scienti": 6235,
      "Ġmaterial": 6236,
      "baroque": 6237,
      "Ġsize": 6238,
      "Ġsienki": 6239,
      "Ġsparks": 6240,
      "Ġelder": 6241,
      "Ġmandalor": 6242,
      "Ġpatch": 6243,
      "Ġfantastically": 6244,
      "Ġprison": 6245,
      "Ġtruis": 6246,
      "Ġchristensen": 6247,
      "Ġcandyland": 6248,
      "flat": 6249,
      "Ġazeroth": 6250,
      "Ġaztec": 6251,
      "Ġslime": 6252,
      "Ġcandlelight": 6253,
      "Ġkodachromatic": 6254,
      "psychedelic": 6255,
      "Ġpraying": 6256,
      "Ġkneeling": 6257,
      "Ġeuphoria": 6258,
      "Ġcookies": 6259,
      "Ġfalcon": 6260,
      "Ġtuned": 6261,
      "Ġfuj": 6262,
      "Ġbodies": 6263,
      "Ġspratt": 6264,
      "Ġnendoroid": 6265,
      "Ġbulldog": 6266,
      "Ġcarpet": 6267,
      "Ġangelic": 6268,
      "Ġgladiola": 6269,
      "santhemum": 6270,
      "Ġidol": 6271,
      "quiat": 6272,
      "cript": 6273,
      "Ġantique": 6274,
      "Ġbeatrix": 6275,
      "Ġclub": 6276,
      "Ġdoll": 6277,
      "Ġphilippa": 6278,
      "Ġcobblestone": 6279,
      "brutal": 6280,
      "ewicz": 6281,
      "Ġswag": 6282,
      "Ġbeside": 6283,
      "Ġfirst": 6284,
      "Ġluminescent": 6285,
      "Ġinfluen": 6286,
      "psychadelic": 6287,
      "mission": 6288,
      "vibrant": 6289,
      "Ġpizza": 6290,
      "Ġwyeth": 6291,
      "Ġdegeneres": 6292,
      "alopathy": 6293,
      "Ġtupac": 6294,
      "Ġtsukushi": 6295,
      "Ġtreasure": 6296,
      "Ġchrysanthemum": 6297,
      "pocalyptic": 6298,
      "Ġzdislaw": 6299,
      "Ġcapable": 6300,
      "Ġneoclass": 6301,
      "melencolia": 6302,
      "Ġkeffiyeh": 6303,
      "Ġacolyte": 6304,
      "Ġgoggles": 6305,
      "Ġtransparency": 6306,
      "Ġheilmayer": 6307,
      "Ġgiuseppe": 6308,
      "Ġsilhouette": 6309,
      "Ġarcimboldo": 6310,
      "Ġpanoramic": 6311,
      "Ġsienkiewicz": 6312,
      "Ġmandalorian": 6313,
      "!.": 6314,
      "aya": 6315,
      "aking": 6316,
      "bro": 6317,
      "bus": 6318,
      "bea": 6319,
      "bers": 6320,
      "bris": 6321,
      "cd": 6322,
      "cers": 6323,
      "cup": 6324,
      "cord": 6325,
      "dimir": 6326,
      "door": 6327,
      "ean": 6328,
      "fro": 6329,
      "frie": 6330,
      "gin": 6331,
      "glo": 6332,
      "gull": 6333,
      "gically": 6334,
      "hp": 6335,
      "hit": 6336,
      "ire": 6337,
      "ition": 6338,
      "ibo": 6339,
      "jian": 6340,
      "nce": 6341,
      "oli": 6342,
      "ose": 6343,
      "ohiko": 6344,
      "obama": 6345,
      "pit": 6346,
      "ped": 6347,
      "pawn": 6348,
      "rid": 6349,
      "sil": 6350,
      "sma": 6351,
      "sman": 6352,
      "sian": 6353,
      "sura": 6354,
      "tub": 6355,
      "truck": 6356,
      "van": 6357,
      "vins": 6358,
      "vity": 6359,
      "yond": 6360,
      "yellow": 6361,
      "ylor": 6362,
      "zos": 6363,
      "Ġé": 6364,
      "Ľ,": 6365,
      "Ġaw": 6366,
      "Ġapp": 6367,
      "erk": 6368,
      "erce": 6369,
      "erbre": 6370,
      "erberg": 6371,
      "Ġsid": 6372,
      "Ġsunk": 6373,
      "Ġsick": 6374,
      "Ġbam": 6375,
      "Ġcu": 6376,
      "Ġcru": 6377,
      "rabbit": 6378,
      "rayama": 6379,
      "Ġdm": 6380,
      "Ġduck": 6381,
      "Ġdrew": 6382,
      "tie": 6383,
      "tilus": 6384,
      "lez": 6385,
      "Ġpie": 6386,
      "Ġpier": 6387,
      "ingers": 6388,
      "rton": 6389,
      "Ġfate": 6390,
      "Ġfarm": 6391,
      "Ġfused": 6392,
      "Ġmr": 6393,
      "Ġmud": 6394,
      "Ġoss": 6395,
      "Ġorth": 6396,
      "Ġoleg": 6397,
      "Ġhun": 6398,
      "Ġhom": 6399,
      "Ġhous": 6400,
      "Ġhung": 6401,
      "Ġhuss": 6402,
      "Ġwan": 6403,
      "Ġwil": 6404,
      "Ġwom": 6405,
      "Ġgent": 6406,
      "Ġartprint": 6407,
      "enomorph": 6408,
      "ori": 6409,
      "Ġdemons": 6410,
      "Ġdebris": 6411,
      "Ġandro": 6412,
      "Ġandromeda": 6413,
      "tech": 6414,
      "tendo": 6415,
      "alo": 6416,
      "str": 6417,
      "Ġinvas": 6418,
      "Ġkold": 6419,
      "tices": 6420,
      "olin": 6421,
      "olle": 6422,
      "Ġrelig": 6423,
      "Ġrebec": 6424,
      "uld": 6425,
      "Ġela": 6426,
      "Ġeat": 6427,
      "Ġeva": 6428,
      "lod": 6429,
      "Ġvia": 6430,
      "ladimir": 6431,
      "iser": 6432,
      "ischer": 6433,
      "mand": 6434,
      "matt": 6435,
      "magazine": 6436,
      "usica": 6437,
      "Ġpanda": 6438,
      "Ġliber": 6439,
      "Ġlibra": 6440,
      "Ġliminal": 6441,
      "edo": 6442,
      "edy": 6443,
      "Ġshimmer": 6444,
      "chel": 6445,
      "etto": 6446,
      "Ġruss": 6447,
      "Ġrunes": 6448,
      "urne": 6449,
      "igan": 6450,
      "omed": 6451,
      "Ġoni": 6452,
      "Ġonto": 6453,
      "Ġjs": 6454,
      "Ġjed": 6455,
      "Ġjessica": 6456,
      "Ġmain": 6457,
      "peror": 6458,
      "Ġpoker": 6459,
      "Ġpoppy": 6460,
      "ssa": 6461,
      "lywood": 6462,
      "Ġgreedy": 6463,
      "Ġhighway": 6464,
      "necromancer": 6465,
      "Ġrow": 6466,
      "Ġphalopathy": 6467,
      "Ġbabs": 6468,
      "Ġtrend": 6469,
      "Ġoctan": 6470,
      "Ġchen": 6471,
      "Ġchad": 6472,
      "Ġchromatic": 6473,
      "pop": 6474,
      "Ġlightpaint": 6475,
      "Ġbezos": 6476,
      "Ġrachel": 6477,
      "Ġspray": 6478,
      "hija": 6479,
      "Ġstable": 6480,
      "erstell": 6481,
      "quin": 6482,
      "ios": 6483,
      "Ġyan": 6484,
      "Ġyang": 6485,
      "Ġlatino": 6486,
      "Ġalcov": 6487,
      "Ġaltar": 6488,
      "Ġzom": 6489,
      "Ġsmog": 6490,
      "Ġlobster": 6491,
      "Ġcake": 6492,
      "Ġexit": 6493,
      "chand": 6494,
      "Ġtessel": 6495,
      "Ġsyste": 6496,
      "Ġcome": 6497,
      "pasta": 6498,
      "parate": 6499,
      "Ġsuff": 6500,
      "Ġtac": 6501,
      "Ġtape": 6502,
      "Ġtatter": 6503,
      "Ġtakan": 6504,
      "Ġrural": 6505,
      "Ġruys": 6506,
      "bob": 6507,
      "borate": 6508,
      "Ġish": 6509,
      "Ġdesigns": 6510,
      "coal": 6511,
      "cosmic": 6512,
      "ðŁĴ": 6513,
      "Ġgravity": 6514,
      "Ġwarcore": 6515,
      "Ġraymond": 6516,
      "urative": 6517,
      "oku": 6518,
      "Ġwashing": 6519,
      "Ġwavy": 6520,
      "Ġedou": 6521,
      "elyn": 6522,
      "Ġsociety": 6523,
      "Ġsorayama": 6524,
      "Ġlongest": 6525,
      "Ġmary": 6526,
      "Ġmarchand": 6527,
      "biome": 6528,
      "Ġdissol": 6529,
      "tree": 6530,
      "Ġsara": 6531,
      "Ġcityscape": 6532,
      "grave": 6533,
      "skaya": 6534,
      "Ġstaring": 6535,
      "vironement": 6536,
      "Ġplains": 6537,
      "Ġplague": 6538,
      "Ġspacecraft": 6539,
      "oskeleton": 6540,
      "Ġmedevi": 6541,
      "Ġdirt": 6542,
      "Ġmccur": 6543,
      "Ġhorley": 6544,
      "Ġhorohiko": 6545,
      "Ġwebs": 6546,
      "Ġgaga": 6547,
      "Ġgaulti": 6548,
      "caline": 6549,
      "pepe": 6550,
      "back": 6551,
      "Ġugly": 6552,
      "Ġgodrays": 6553,
      "Ġgodzilla": 6554,
      "Ġcatgirl": 6555,
      "vascript": 6556,
      "Ġporcup": 6557,
      "Ġsega": 6558,
      "Ġsewing": 6559,
      "Ġseparate": 6560,
      "Ġcamou": 6561,
      "Ġkoi": 6562,
      "Ġtrain": 6563,
      "Ġtrash": 6564,
      "Ġtrashed": 6565,
      "Ġtragically": 6566,
      "Ġflaming": 6567,
      "!!!!!!!": 6568,
      "Ġguang": 6569,
      "Ġvest": 6570,
      "restial": 6571,
      "Ġfiretruck": 6572,
      "Ġjaco": 6573,
      "Ġjavascript": 6574,
      "Ġcartoony": 6575,
      "Ġblevins": 6576,
      "Ġresgenerative": 6577,
      "Ġrespawn": 6578,
      "Ġhellish": 6579,
      "Ġdreamworks": 6580,
      "Ġpostprocessing": 6581,
      "Ġnails": 6582,
      "Ġnausica": 6583,
      "Ġevelyn": 6584,
      "Ġshore": 6585,
      "Ġshock": 6586,
      "Ġretropunk": 6587,
      "Ġretrofuturistic": 6588,
      "Ġhardy": 6589,
      "Ġframes": 6590,
      "Ġsneakers": 6591,
      "Ġsnoke": 6592,
      "futurism": 6593,
      "Ġindig": 6594,
      "Ġtribe": 6595,
      "Ġicy": 6596,
      "Ġclaw": 6597,
      "Ġclaus": 6598,
      "Ġrider": 6599,
      "Ġcoats": 6600,
      "Ġmarkers": 6601,
      "zzi": 6602,
      "Ġnaturalism": 6603,
      "Ġharve": 6604,
      "Ġharibo": 6605,
      "Ġweathered": 6606,
      "Ġterror": 6607,
      "Ġtalking": 6608,
      "Ġsketches": 6609,
      "Ġbrutal": 6610,
      "Ġseagull": 6611,
      "Ġseagrave": 6612,
      "Ġcorset": 6613,
      "comic": 6614,
      "Ġcurled": 6615,
      "Ġmonsters": 6616,
      "Ġbusy": 6617,
      "Ġtechnology": 6618,
      "Ġairy": 6619,
      "Ġghetto": 6620,
      "Ġnintendo": 6621,
      "Ġwatched": 6622,
      "Ġcheering": 6623,
      "Ġcharcoal": 6624,
      "Ġcircle": 6625,
      "Ġdefiant": 6626,
      "Ġsheet": 6627,
      "Ġfairytale": 6628,
      "Ġxenomorph": 6629,
      "ject": 6630,
      "lessness": 6631,
      "Ġgrounddramatic": 6632,
      "abandoned": 6633,
      "Ġcourt": 6634,
      "fashion": 6635,
      "Ġutopian": 6636,
      "Ġtarr": 6637,
      "Ġvarious": 6638,
      "colored": 6639,
      "Ġstruzan": 6640,
      "Ġballerina": 6641,
      "Ġbowler": 6642,
      "Ġoptim": 6643,
      "Ġhips": 6644,
      "heur": 6645,
      "Ġethereum": 6646,
      "Ġcandles": 6647,
      "Ġjewish": 6648,
      "Ġjeffree": 6649,
      "strous": 6650,
      "Ġbasquiat": 6651,
      "Ġdiamonds": 6652,
      "Ġgroup": 6653,
      "Ġairbrushed": 6654,
      "ðŁĲĽ,": 6655,
      "Ġkyoto": 6656,
      "Ġkatsura": 6657,
      "Ġsymbolist": 6658,
      "Ġadvent": 6659,
      "Ġhorned": 6660,
      "Ġsport": 6661,
      "Ġstriking": 6662,
      "Ġmasaka": 6663,
      "Ġsymbol": 6664,
      "Ġtravels": 6665,
      "what": 6666,
      "Ġpirate": 6667,
      "Ġfamous": 6668,
      "Ġornaments": 6669,
      "Ġnatur": 6670,
      "flage": 6671,
      "Ġhiro": 6672,
      "flower": 6673,
      "Ġeurop": 6674,
      "Ġchasm": 6675,
      "ĠðŁĳ©": 6676,
      "Ġtattooed": 6677,
      "Ġcathedral": 6678,
      "Ġseascape": 6679,
      "Ġmegapixel": 6680,
      "Ġcotton": 6681,
      "Ġpolice": 6682,
      "humanoid": 6683,
      "Ġapron": 6684,
      "Ġalyssa": 6685,
      "Ġincred": 6686,
      "Ġtrophy": 6687,
      "Ġbathtub": 6688,
      "ðŁļĹ": 6689,
      "Ġmultiple": 6690,
      "Ġattacking": 6691,
      "Ġfleischer": 6692,
      "Ġgorilla": 6693,
      "Ġcollage": 6694,
      "magician": 6695,
      "Ġbonheur": 6696,
      "Ġtrimmed": 6697,
      "Ġitalian": 6698,
      "Ġskyscrapers": 6699,
      "Ġsecond": 6700,
      "Ð¾Ð": 6701,
      "Ġhindu": 6702,
      "Ġwrecked": 6703,
      "Ġgranov": 6704,
      "Ġelysian": 6705,
      "Ġvalley": 6706,
      "Ġrivia": 6707,
      "Ġsleeveles": 6708,
      "Ġpleasing": 6709,
      "Ġhollywood": 6710,
      "Ġnineties": 6711,
      "Ġwormhole": 6712,
      "Ġswanland": 6713,
      "Ġgriffin": 6714,
      "Ġaqua": 6715,
      "Ġresear": 6716,
      "Ġvortices": 6717,
      "Ġconsumed": 6718,
      "Ġtetrahedron": 6719,
      "Ġarchitectural": 6720,
      "Ġdrums": 6721,
      "building": 6722,
      "zoomed": 6723,
      "parazzi": 6724,
      "Ġmonumental": 6725,
      "Ġtriangle": 6726,
      "cartoon": 6727,
      "happy": 6728,
      "Ġarizona": 6729,
      "Ġooze": 6730,
      "Ġoasis": 6731,
      "Ġdealer": 6732,
      "Ġjodhp": 6733,
      "Ġjumping": 6734,
      "Ġinteresting": 6735,
      "Ġcherry": 6736,
      "Ġchimera": 6737,
      "Ġprototype": 6738,
      "Ġadolphe": 6739,
      "Ġbradley": 6740,
      "Ġtraveller": 6741,
      "Ġhannigan": 6742,
      "Ġnautilus": 6743,
      "Ġriddell": 6744,
      "Ġextraterrestial": 6745,
      "Ġchihuahua": 6746,
      "Ġtruisi": 6747,
      "Ġneoclassical": 6748,
      "erbread": 6749,
      "Ġbambo": 6750,
      "Ġorthographic": 6751,
      "Ġhussar": 6752,
      "Ġwomen": 6753,
      "Ġandrogy": 6754,
      "Ġkoldi": 6755,
      "Ġreligious": 6756,
      "Ġrebecca": 6757,
      "Ġelaborate": 6758,
      "Ġliberty": 6759,
      "Ġlibrary": 6760,
      "Ġshimmering": 6761,
      "hijab": 6762,
      "erstellar": 6763,
      "Ġalcoves": 6764,
      "Ġaltars": 6765,
      "Ġtessella": 6766,
      "Ġsystem": 6767,
      "Ġtattered": 6768,
      "Ġtakano": 6769,
      "Ġwashington": 6770,
      "Ġedouard": 6771,
      "Ġmedevial": 6772,
      "Ġmccurry": 6773,
      "Ġgaultier": 6774,
      "Ġporcupine": 6775,
      "Ġcamouflage": 6776,
      "Ġguangjian": 6777,
      "Ġnausicaa": 6778,
      "Ġmasakazu": 6779,
      "Ġjodhpurs": 6780,
      "'d": 6781,
      "'m": 6782,
      ".,": 6783,
      "af": 6784,
      "au": 6785,
      "aki": 6786,
      "aesthetic": 6787,
      "bing": 6788,
      "band": 6789,
      "bald": 6790,
      "bstr": 6791,
      "cot": 6792,
      "cred": 6793,
      "cson": 6794,
      "cass": 6795,
      "ciara": 6796,
      "cated": 6797,
      "cthulhu": 6798,
      "dim": 6799,
      "ez": 6800,
      "eting": 6801,
      "flo": 6802,
      "fur": 6803,
      "fig": 6804,
      "fined": 6805,
      "gre": 6806,
      "glow": 6807,
      "gold": 6808,
      "gana": 6809,
      "godd": 6810,
      "hor": 6811,
      "half": 6812,
      "jime": 6813,
      "just": 6814,
      "kar": 6815,
      "kel": 6816,
      "kow": 6817,
      "ksi": 6818,
      "kawa": 6819,
      "lva": 6820,
      "llite": 6821,
      "muse": 6822,
      "minecraft": 6823,
      "nch": 6824,
      "nous": 6825,
      "ota": 6826,
      "ole": 6827,
      "orak": 6828,
      "ption": 6829,
      "plo": 6830,
      "pretty": 6831,
      "sle": 6832,
      "sim": 6833,
      "sov": 6834,
      "sican": 6835,
      "tu": 6836,
      "tur": 6837,
      "tling": 6838,
      "ulent": 6839,
      "vol": 6840,
      "view": 6841,
      "ville": 6842,
      "wkes": 6843,
      "wined": 6844,
      "witch": 6845,
      "yd": 6846,
      "Ġ<": 6847,
      "Ġig": 6848,
      "Ġly": 6849,
      "Ġess": 6850,
      "Ġque": 6851,
      "inet": 6852,
      "inery": 6853,
      "erka": 6854,
      "Ġsus": 6855,
      "Ġsom": 6856,
      "Ġsate": 6857,
      "Ġbun": 6858,
      "Ġbit": 6859,
      "Ġbri": 6860,
      "Ġbell": 6861,
      "Ġblan": 6862,
      "onge": 6863,
      "rest": 6864,
      "refined": 6865,
      "tatto": 6866,
      "Ġcali": 6867,
      "Ġclar": 6868,
      "rage": 6869,
      "rative": 6870,
      "raven": 6871,
      "railh": 6872,
      "Ġdry": 6873,
      "Ġdread": 6874,
      "tish": 6875,
      "tilinear": 6876,
      "ndom": 6877,
      "ndly": 6878,
      "levision": 6879,
      "Ġpun": 6880,
      "Ġpist": 6881,
      "Ġfol": 6882,
      "Ġfit": 6883,
      "Ġfear": 6884,
      "Ġflight": 6885,
      "Ġfring": 6886,
      "Ġfingers": 6887,
      "Ġmal": 6888,
      "Ġmign": 6889,
      "angh": 6890,
      "anos": 6891,
      "anami": 6892,
      "Ġox": 6893,
      "Ġoch": 6894,
      "Ġopal": 6895,
      "Ġotto": 6896,
      "liam": 6897,
      "lious": 6898,
      "lize": 6899,
      "Ġhate": 6900,
      "Ġhod": 6901,
      "Ġholy": 6902,
      "Ġgis": 6903,
      "Ġglim": 6904,
      "Ġgoku": 6905,
      "ici": 6906,
      "icolor": 6907,
      "Ġdeci": 6908,
      "Ġdehar": 6909,
      "alski": 6910,
      "Ġintel": 6911,
      "iler": 6912,
      "Ġkel": 6913,
      "Ġkine": 6914,
      "Ġkass": 6915,
      "Ġkha": 6916,
      "Ġkenta": 6917,
      "ticing": 6918,
      "olla": 6919,
      "olate": 6920,
      "Ġren": 6921,
      "Ġrex": 6922,
      "Ġreed": 6923,
      "Ġreso": 6924,
      "Ġreach": 6925,
      "Ġrealist": 6926,
      "Ġregenerative": 6927,
      "Ġreason": 6928,
      "Ġrent": 6929,
      "Ġtrait": 6930,
      "Ġtshi": 6931,
      "esis": 6932,
      "lout": 6933,
      "Ġvio": 6934,
      "Ġvess": 6935,
      "Ġvas": 6936,
      "Ġvader": 6937,
      "itting": 6938,
      "itty": 6939,
      "isson": 6940,
      "iskey": 6941,
      "isometric": 6942,
      "mated": 6943,
      "mato": 6944,
      "Ġparal": 6945,
      "ots": 6946,
      "Ġlizard": 6947,
      "Ġlips": 6948,
      "Ġthre": 6949,
      "chen": 6950,
      "chem": 6951,
      "statue": 6952,
      "stance": 6953,
      "ett": 6954,
      "Ġrum": 6955,
      "eath": 6956,
      "urce": 6957,
      "urine": 6958,
      "phander": 6959,
      "Ġjura": 6960,
      "Ġjace": 6961,
      "Ġjac": 6962,
      "Ġmast": 6963,
      "Ġartstationz": 6964,
      "Ġpotato": 6965,
      "ssible": 6966,
      "lund": 6967,
      "amic": 6968,
      "Ġwithin": 6969,
      "Ġanony": 6970,
      "Ġanno": 6971,
      "Ġanorak": 6972,
      "shaman": 6973,
      "Ġros": 6974,
      "Ġenter": 6975,
      "Ġenlight": 6976,
      "Ġenjo": 6977,
      "Ġfoam": 6978,
      "Ġconne": 6979,
      "Ġconstruction": 6980,
      "Ġphanta": 6981,
      "Ġphant": 6982,
      "iej": 6983,
      "Ġinterstellar": 6984,
      "seus": 6985,
      "seph": 6986,
      "strad": 6987,
      "overing": 6988,
      "ovskaya": 6989,
      "Ġbacon": 6990,
      "Ġrutkow": 6991,
      "kowski": 6992,
      "Ġilford": 6993,
      "Ġbeautifully": 6994,
      "Ġfake": 6995,
      "Ġfactor": 6996,
      "Ġfawkes": 6997,
      "Ġchin": 6998,
      "Ġunc": 6999,
      "Ġunte": 7000,
      "Ġunset": 7001,
      "Ġdigitaltrans": 7002,
      "ranium": 7003,
      "Ġscarp": 7004,
      "Ġbelow": 7005,
      "Ġbeyond": 7006,
      "Ġleop": 7007,
      "Ġleesha": 7008,
      "Ġmother": 7009,
      "Ġhapp": 7010,
      "Ġhajime": 7011,
      "Ġrainy": 7012,
      "Ġragn": 7013,
      "Ġsponge": 7014,
      "hikawa": 7015,
      "Ġstair": 7016,
      "ione": 7017,
      "Ġmantel": 7018,
      "riage": 7019,
      "Ġyoda": 7020,
      "Ġyerka": 7021,
      "Ġlar": 7022,
      "Ġlang": 7023,
      "Ġlsd": 7024,
      "Ġlagers": 7025,
      "Ġalf": 7026,
      "Ġalchem": 7027,
      "ideog": 7028,
      "Ġclosed": 7029,
      "Ġcoach": 7030,
      "Ġloudly": 7031,
      "Ġtomato": 7032,
      "Ġdetailled": 7033,
      "Ġcass": 7034,
      "Ġcape": 7035,
      "Ġfiery": 7036,
      "Ġnews": 7037,
      "Ġtelevision": 7038,
      "Ġsylva": 7039,
      "ased": 7040,
      "Ġcompression": 7041,
      "paces": 7042,
      "paparazzi": 7043,
      "Ġdesce": 7044,
      "Ġfromsoft": 7045,
      "tedt": 7046,
      "Ġoilpaint": 7047,
      "Ġsui": 7048,
      "Ġshaders": 7049,
      "Ġboard": 7050,
      "vert": 7051,
      "Ġtaylor": 7052,
      "Ġelement": 7053,
      "bok": 7054,
      "Ġasuka": 7055,
      "Ġheads": 7056,
      "Ġheadband": 7057,
      "oushit": 7058,
      "ushing": 7059,
      "Ġcharacterart": 7060,
      "cozy": 7061,
      "Ġgravita": 7062,
      "Ġsymphon": 7063,
      "Ġmeaning": 7064,
      "Ġmelod": 7065,
      "Ġmeeting": 7066,
      "Ġelegantly": 7067,
      "racle": 7068,
      "Ġflowy": 7069,
      "oking": 7070,
      "Ġware": 7071,
      "Ġedmist": 7072,
      "Ġsoap": 7073,
      "Ġmatter": 7074,
      "redhead": 7075,
      "Ġmarseus": 7076,
      "Ġmarriage": 7077,
      "Ġbarometric": 7078,
      "Ġbarbie": 7079,
      "Ġnood": 7080,
      "Ġnostal": 7081,
      "Ġjoseph": 7082,
      "bition": 7083,
      "Ġtile": 7084,
      "Ġtitan": 7085,
      "Ġtiara": 7086,
      "Ġdisda": 7087,
      "Ġnightvision": 7088,
      "Ġrossier": 7089,
      "Ġsava": 7090,
      "Ġsanders": 7091,
      "Ġsaudi": 7092,
      "lestial": 7093,
      "Ġmonk": 7094,
      "Ġbug": 7095,
      "ĠðŁ¤ĸ": 7096,
      "Ġcrack": 7097,
      "Ġscenes": 7098,
      "Ġcompound": 7099,
      "Ġforza": 7100,
      "Ġsuperia": 7101,
      "Ġplays": 7102,
      "Ġplasma": 7103,
      "Ġadolf": 7104,
      "Ġelmo": 7105,
      "Ġquill": 7106,
      "Ġquartz": 7107,
      "Ġkeyboard": 7108,
      "Ġangles": 7109,
      "Ġcarcass": 7110,
      "Ġbraid": 7111,
      "Ġluo": 7112,
      "Ġmichal": 7113,
      "Ġdiadem": 7114,
      "Ġgoog": 7115,
      "ships": 7116,
      "Ġweeds": 7117,
      "Ġgay": 7118,
      "Ġgazing": 7119,
      "lenn": 7120,
      "Ġgods": 7121,
      "Ġgodlessness": 7122,
      "ensional": 7123,
      "Ġbloody": 7124,
      "Ġblouse": 7125,
      "Ġemperor": 7126,
      "Ġolder": 7127,
      "Ġhanna": 7128,
      "vention": 7129,
      "illem": 7130,
      "fierce": 7131,
      "Ġprinterest": 7132,
      "ught": 7133,
      "Ġmount": 7134,
      "you": 7135,
      "Ġblending": 7136,
      "Ġswat": 7137,
      "Ġspike": 7138,
      "Ġspiky": 7139,
      "Ġparker": 7140,
      "Ġparking": 7141,
      "intricate": 7142,
      "Ġpersian": 7143,
      "Ġshoot": 7144,
      "Ġcloths": 7145,
      "huge": 7146,
      "Ġenvironmental": 7147,
      "Ġmik": 7148,
      "Ġmiura": 7149,
      "Ġwalk": 7150,
      "Ġwalker": 7151,
      "Ġgiu": 7152,
      "Ġexpan": 7153,
      "lismo": 7154,
      "Ġcolon": 7155,
      "Ġindieg": 7156,
      "Ġclaude": 7157,
      "Ġsimonson": 7158,
      "achad": 7159,
      "Ġharsh": 7160,
      "Ġterada": 7161,
      "Ġgoddes": 7162,
      "Ġaston": 7163,
      "miracle": 7164,
      "Ġbeans": 7165,
      "Ġferri": 7166,
      "Ġseaside": 7167,
      "Ġcorsican": 7168,
      "Ġkay": 7169,
      "wayne": 7170,
      "Ġplane": 7171,
      "Ġfigurine": 7172,
      "Ġheroic": 7173,
      "ocolate": 7174,
      "Ġburly": 7175,
      "Ġpui": 7176,
      "Ġpuking": 7177,
      "Ġpuffy": 7178,
      "Ġcheerful": 7179,
      "Ġcharlize": 7180,
      "hyperrealism": 7181,
      "Ġschrie": 7182,
      "Ġsubstance": 7183,
      "screen": 7184,
      "Ġseries": 7185,
      "Ġserved": 7186,
      "Ġparfa": 7187,
      "Ġsqualor": 7188,
      "Ġsquirrel": 7189,
      "Ġbears": 7190,
      "Ġsumptuous": 7191,
      "Ġviolin": 7192,
      "clectic": 7193,
      "Ġetkar": 7194,
      "Ġfriant": 7195,
      "Ġscaphander": 7196,
      "Ġportman": 7197,
      "Ġcelestial": 7198,
      "Ġfrozen": 7199,
      "Ġvalent": 7200,
      "Ġanatsu": 7201,
      "Ġspeci": 7202,
      "Ġgenshin": 7203,
      "Ġguns": 7204,
      "Ġblurry": 7205,
      "jiit": 7206,
      "jifilm": 7207,
      "Ġbutterflies": 7208,
      "Ġdroping": 7209,
      "Ġrectilinear": 7210,
      "medieval": 7211,
      "Ġdelicacy": 7212,
      "Ġtucson": 7213,
      "Ġmysticism": 7214,
      "Ġmetroid": 7215,
      "Ġstorybook": 7216,
      "Ġrandom": 7217,
      "Ġsarrailh": 7218,
      "Ġbalth": 7219,
      "Ġballo": 7220,
      "proud": 7221,
      "Ġmeadows": 7222,
      "Ġayanami": 7223,
      "Ġjewett": 7224,
      "gingerbread": 7225,
      "portait": 7226,
      "Ġplayful": 7227,
      "Ġdusty": 7228,
      "Ġemotion": 7229,
      "!!!!!!!!!!!!!!!!": 7230,
      "Ġmirrors": 7231,
      "Ġjohansson": 7232,
      "distant": 7233,
      "Ġsetting": 7234,
      "Ġrepin": 7235,
      "Ġrepres": 7236,
      "Ġcrossing": 7237,
      "Ġcrossed": 7238,
      "Ġrebellious": 7239,
      "nett": 7240,
      "netsov": 7241,
      "Ġkyoushit": 7242,
      "Ġtheron": 7243,
      "Ġeveryone": 7244,
      "Ġmandible": 7245,
      "Ġmythical": 7246,
      "Ġsweat": 7247,
      "Ġpatrick": 7248,
      "where": 7249,
      "Ġpikachu": 7250,
      "Ġtrue": 7251,
      "Ġtruck": 7252,
      "Ġpresident": 7253,
      "marvel": 7254,
      "Ġslightly": 7255,
      "Ġprada": 7256,
      "Ġknee": 7257,
      "Ġunited": 7258,
      "Ġreefs": 7259,
      "Ġchasing": 7260,
      "Ġkatsuya": 7261,
      "Ġfriendly": 7262,
      "Ġinsect": 7263,
      "Ġtunnel": 7264,
      "Ġfujifilm": 7265,
      "armor": 7266,
      "Ġzoom": 7267,
      "dreamy": 7268,
      "Ġbodhi": 7269,
      "Ġversace": 7270,
      "Ġnendroid": 7271,
      "Ġbelt": 7272,
      "Ġmaciej": 7273,
      "Ġskyscraper": 7274,
      "Ġsecret": 7275,
      "formation": 7276,
      "Ġerased": 7277,
      "Ġmescaline": 7278,
      "Ġturbulent": 7279,
      "Ġvelv": 7280,
      "ctible": 7281,
      "Ġprime": 7282,
      "Ġfunction": 7283,
      "Ġdecor": 7284,
      "Ġkuciara": 7285,
      "Ġllorens": 7286,
      "Ġimpossible": 7287,
      "Ġcollectible": 7288,
      "Ġaxe": 7289,
      "Ġskeletal": 7290,
      "Ġclimbs": 7291,
      "eteran": 7292,
      "Ġexhibition": 7293,
      "Ġcraftsman": 7294,
      "Ġnatalie": 7295,
      "Ġstripes": 7296,
      "Ġcircuitry": 7297,
      "infini": 7298,
      "Ġavengers": 7299,
      "Ġobject": 7300,
      "Ġgiacom": 7301,
      "Ġdepiction": 7302,
      "Ġepcot": 7303,
      "amedev": 7304,
      "Ġteenage": 7305,
      "Ġskateboarding": 7306,
      "Ġhexa": 7307,
      "Ġaurora": 7308,
      "ðŁįİðŁĲĽ,": 7309,
      "Ġcountryside": 7310,
      "archist": 7311,
      "Ġkiwi": 7312,
      "Ġexistence": 7313,
      "Ġbrittle": 7314,
      "Ġbirthday": 7315,
      "Ġinfluencer": 7316,
      "Ġcruise": 7317,
      "Ġdmt": 7318,
      "Ġhouses": 7319,
      "Ġgentle": 7320,
      "Ġinvasion": 7321,
      "Ġyanovskaya": 7322,
      "Ġsuffering": 7323,
      "Ġtactical": 7324,
      "Ġruysch": 7325,
      "Ġishida": 7326,
      "biomechanical": 7327,
      "Ġdissolving": 7328,
      "Ġsarah": 7329,
      "Ġplagueis": 7330,
      "Ġclawfoot": 7331,
      "Ġharvest": 7332,
      "Ġeuropean": 7333,
      "Ġincredible": 7334,
      "Ġandrogynous": 7335,
      "bstrfluid": 7336,
      "dimensional": 7337,
      "goddess": 7338,
      "otaur": 7339,
      "Ġessence": 7340,
      "Ġsatellite": 7341,
      "tattoo": 7342,
      "Ġclarinet": 7343,
      "Ġfringe": 7344,
      "Ġmallismo": 7345,
      "Ġmignola": 7346,
      "anghai": 7347,
      "Ġochre": 7348,
      "Ġhodas": 7349,
      "Ġgisbert": 7350,
      "Ġglimmer": 7351,
      "Ġdecimated": 7352,
      "Ġdeharme": 7353,
      "Ġkinetic": 7354,
      "Ġkassan": 7355,
      "Ġkhajiit": 7356,
      "Ġkentaro": 7357,
      "Ġtshirt": 7358,
      "Ġvasnetsov": 7359,
      "Ġparallax": 7360,
      "Ġrumsey": 7361,
      "Ġjacek": 7362,
      "Ġanonymous": 7363,
      "shamanistic": 7364,
      "Ġphantom": 7365,
      "Ġrutkowksi": 7366,
      "Ġfactory": 7367,
      "Ġunsettling": 7368,
      "Ġdigitaltransformation": 7369,
      "Ġleopard": 7370,
      "Ġlangley": 7371,
      "Ġlagerstedt": 7372,
      "Ġalchemist": 7373,
      "ideogame": 7374,
      "Ġsylvain": 7375,
      "paceship": 7376,
      "Ġfromsoftware": 7377,
      "Ġgravitational": 7378,
      "Ġsymphony": 7379,
      "Ġmelodica": 7380,
      "Ġedmiston": 7381,
      "Ġdisdain": 7382,
      "Ġquills": 7383,
      "Ġcarcasses": 7384,
      "Ġindiegamedev": 7385,
      "Ġparfait": 7386,
      "Ġkyoushitsu": 7387,
      "Ġcraftsmanship": 7388,
      "ae": 7389,
      "ay": 7390,
      "ase": 7391,
      "aster": 7392,
      "aquin": 7393,
      "bri": 7394,
      "bred": 7395,
      "batch": 7396,
      "burg": 7397,
      "bened": 7398,
      "cz": 7399,
      "cream": 7400,
      "cury": 7401,
      "colle": 7402,
      "dar": 7403,
      "dia": 7404,
      "disturbing": 7405,
      "ech": 7406,
      "ending": 7407,
      "eves": 7408,
      "even": 7409,
      "estrad": 7410,
      "fu": 7411,
      "fam": 7412,
      "forn": 7413,
      "gw": 7414,
      "god": 7415,
      "gger": 7416,
      "gins": 7417,
      "her": 7418,
      "kai": 7419,
      "kitchen": 7420,
      "kcd": 7421,
      "lush": 7422,
      "lord": 7423,
      "lings": 7424,
      "mc": 7425,
      "mid": 7426,
      "mboy": 7427,
      "non": 7428,
      "nen": 7429,
      "nut": 7430,
      "osh": 7431,
      "pel": 7432,
      "pat": 7433,
      "pir": 7434,
      "pink": 7435,
      "pinski": 7436,
      "sad": 7437,
      "sant": 7438,
      "tri": 7439,
      "uko": 7440,
      "vo": 7441,
      "vate": 7442,
      "vind": 7443,
      "videogame": 7444,
      "wolf": 7445,
      "winning": 7446,
      "xel": 7447,
      "xican": 7448,
      "xedo": 7449,
      "zant": 7450,
      "zuki": 7451,
      "§ļ": 7452,
      "³,": 7453,
      "¸ðŁĮ": 7454,
      "ÑĢ": 7455,
      "Ġ>": 7456,
      "Ġing": 7457,
      "Ġum": 7458,
      "Ġiden": 7459,
      "Ģ,": 7460,
      "inty": 7461,
      "inato": 7462,
      "Ġath": 7463,
      "Ġaber": 7464,
      "Ġagn": 7465,
      "erman": 7466,
      "erich": 7467,
      "erves": 7468,
      "erence": 7469,
      "eramic": 7470,
      "Ġsent": 7471,
      "Ġsup": 7472,
      "Ġbers": 7473,
      "Ġbren": 7474,
      "Ġbang": 7475,
      "rec": 7476,
      "rei": 7477,
      "realis": 7478,
      "Ġcri": 7479,
      "Ġcrim": 7480,
      "Ġcumber": 7481,
      "Ġcranium": 7482,
      "Ġceramic": 7483,
      "rable": 7484,
      "ralized": 7485,
      "random": 7486,
      "Ġder": 7487,
      "Ġdal": 7488,
      "Ġdig": 7489,
      "Ġdant": 7490,
      "Ġdua": 7491,
      "Ġdune": 7492,
      "ndril": 7493,
      "leon": 7494,
      "leaning": 7495,
      "Ġpiet": 7496,
      "Ġpep": 7497,
      "Ġpione": 7498,
      "ingy": 7499,
      "rtle": 7500,
      "Ġmime": 7501,
      "anu": 7502,
      "any": 7503,
      "anski": 7504,
      "Ġod": 7505,
      "Ġobli": 7506,
      "Ġozz": 7507,
      "Ġobama": 7508,
      "Ġosim": 7509,
      "lick": 7510,
      "Ġhum": 7511,
      "Ġhovering": 7512,
      "thor": 7513,
      "Ġgt": 7514,
      "Ġgib": 7515,
      "Ġartno": 7516,
      "arn": 7517,
      "arok": 7518,
      "ict": 7519,
      "icon": 7520,
      "ication": 7521,
      "orr": 7522,
      "ors": 7523,
      "ories": 7524,
      "ormous": 7525,
      "ghrad": 7526,
      "Ġdelo": 7527,
      "Ġando": 7528,
      "tegra": 7529,
      "road": 7530,
      "roach": 7531,
      "Ġinbred": 7532,
      "iln": 7533,
      "Ġkard": 7534,
      "Ġkno": 7535,
      "Ġkusa": 7536,
      "Ġkiln": 7537,
      "ollu": 7538,
      "Ġrede": 7539,
      "Ġreeves": 7540,
      "Ġtyp": 7541,
      "esley": 7542,
      "ulated": 7543,
      "Ġearle": 7544,
      "ilet": 7545,
      "Ġvil": 7546,
      "itter": 7547,
      "lart": 7548,
      "Ġpasta": 7549,
      "Ġpatern": 7550,
      "Ġparas": 7551,
      "oteric": 7552,
      "Ġlipa": 7553,
      "Ġlimes": 7554,
      "Ġthum": 7555,
      "Ġshrek": 7556,
      "elli": 7557,
      "ellen": 7558,
      "atchi": 7559,
      "chin": 7560,
      "chrom": 7561,
      "chick": 7562,
      "uto": 7563,
      "ets": 7564,
      "etball": 7565,
      "Ġnow": 7566,
      "Ġnud": 7567,
      "earth": 7568,
      "ealistic": 7569,
      "uron": 7570,
      "Ġtheory": 7571,
      "igold": 7572,
      "photomanipulation": 7573,
      "Ġjol": 7574,
      "Ġmaca": 7575,
      "Ġmaghrad": 7576,
      "Ġstu": 7577,
      "Ġstore": 7578,
      "perant": 7579,
      "person": 7580,
      "stations": 7581,
      "Ġpov": 7582,
      "Ġpores": 7583,
      "sse": 7584,
      "Ġanici": 7585,
      "Ġanarchist": 7586,
      "Ġpaintings": 7587,
      "kirt": 7588,
      "shian": 7589,
      "shop": 7590,
      "new": 7591,
      "neise": 7592,
      "Ġrogue": 7593,
      "Ġroerich": 7594,
      "Ġfoss": 7595,
      "Ġfolia": 7596,
      "odka": 7597,
      "Ġconvention": 7598,
      "owsky": 7599,
      "imo": 7600,
      "Ġphotos": 7601,
      "over": 7602,
      "Ġbask": 7603,
      "Ġbaza": 7604,
      "Ġbavar": 7605,
      "ptor": 7606,
      "Ġhyp": 7607,
      "Ġenglund": 7608,
      "enter": 7609,
      "entwarrior": 7610,
      "Ġbeautifull": 7611,
      "Ġchill": 7612,
      "Ġchang": 7613,
      "posure": 7614,
      "rance": 7615,
      "ranch": 7616,
      "most": 7617,
      "Ġlen": 7618,
      "Ġleco": 7619,
      "stery": 7620,
      "Ġmort": 7621,
      "Ġraz": 7622,
      "Ġrave": 7623,
      "Ġracing": 7624,
      "keanu": 7625,
      "Ġspear": 7626,
      "udini": 7627,
      "quet": 7628,
      "iving": 7629,
      "Ġye": 7630,
      "Ġlut": 7631,
      "Ġllan": 7632,
      "Ġlaura": 7633,
      "Ġalley": 7634,
      "Ġalmost": 7635,
      "Ġzep": 7636,
      "Ġzuck": 7637,
      "Ġzingy": 7638,
      "Ġcop": 7639,
      "Ġcore": 7640,
      "Ġcoca": 7641,
      "Ġloos": 7642,
      "Ġloose": 7643,
      "Ġtous": 7644,
      "Ġtoilet": 7645,
      "Ġblazing": 7646,
      "Ġblades": 7647,
      "Ġcas": 7648,
      "Ġcaval": 7649,
      "Ġcaestrad": 7650,
      "Ġattire": 7651,
      "cifer": 7652,
      "Ġblacksm": 7653,
      "Ġexoskeleton": 7654,
      "chair": 7655,
      "Ġnest": 7656,
      "Ġted": 7657,
      "Ġtendril": 7658,
      "Ġwatercolour": 7659,
      "inside": 7660,
      "Ġcomes": 7661,
      "page": 7662,
      "Ġdesaturated": 7663,
      "Ġabomin": 7664,
      "appa": 7665,
      "Ġsukh": 7666,
      "Ġfew": 7667,
      "Ġfeeling": 7668,
      "Ġfelix": 7669,
      "Ġdaz": 7670,
      "Ġdainty": 7671,
      "Ġtada": 7672,
      "Ġeyvind": 7673,
      "Ġcycles": 7674,
      "Ġask": 7675,
      "Ġprov": 7676,
      "Ġproced": 7677,
      "iba": 7678,
      "ibranch": 7679,
      "ðŁĽ": 7680,
      "Ġredshi": 7681,
      "Ġmeat": 7682,
      "Ġmexican": 7683,
      "ungle": 7684,
      "ller": 7685,
      "Ġsoma": 7686,
      "Ġsocks": 7687,
      "rowth": 7688,
      "Ġmagg": 7689,
      "ishing": 7690,
      "Ġsurrender": 7691,
      "Ġinspir": 7692,
      "Ġwhen": 7693,
      "Ġwhal": 7694,
      "site": 7695,
      "sium": 7696,
      "sirens": 7697,
      "Ġrobbie": 7698,
      "Ġmarsh": 7699,
      "Ġmarching": 7700,
      "ubis": 7701,
      "ubel": 7702,
      "Ġnoel": 7703,
      "ismuth": 7704,
      "Ġiwa": 7705,
      "Ġjoaquin": 7706,
      "Ġforehead": 7707,
      "vira": 7708,
      "ments": 7709,
      "Ġholes": 7710,
      "Ġhoudini": 7711,
      "Ġtiles": 7712,
      "Ġtires": 7713,
      "Ġtitle": 7714,
      "Ġcanyon": 7715,
      "Ġdisgu": 7716,
      "Ġdiscov": 7717,
      "Ġdisollu": 7718,
      "trees": 7719,
      "Ġsage": 7720,
      "Ġsays": 7721,
      "Ġsagan": 7722,
      "Ġsacred": 7723,
      "Ġsaatchi": 7724,
      "Ġmonoli": 7725,
      "minimalistic": 7726,
      "Ġbuhl": 7727,
      "Ġaccess": 7728,
      "Ġoverly": 7729,
      "ĠðŁ¥": 7730,
      "ĠðŁĺ": 7731,
      "ĠðŁļ": 7732,
      "Ġgritty": 7733,
      "Ġcrab": 7734,
      "Ġcrashing": 7735,
      "Ġcrayon": 7736,
      "Ġsupermodel": 7737,
      "Ġstarships": 7738,
      "Ġplat": 7739,
      "too": 7740,
      "Ġadult": 7741,
      "Ġdynam": 7742,
      "Ġelvira": 7743,
      "Ġgametexture": 7744,
      "pressed": 7745,
      "Ġcargo": 7746,
      "Ġbaggins": 7747,
      "Ġbrand": 7748,
      "step": 7749,
      "Ġlucifer": 7750,
      "Ġoutdoor": 7751,
      "akh": 7752,
      "Ġdance": 7753,
      "Ġdancer": 7754,
      "Ġdangers": 7755,
      "stica": 7756,
      "Ġgoing": 7757,
      "Ġwebb": 7758,
      "Ġgau": 7759,
      "Ġgarage": 7760,
      "peg": 7761,
      "Ġportait": 7762,
      "dragon": 7763,
      "Ġbigger": 7764,
      "Ġsemi": 7765,
      "Ġfurious": 7766,
      "bina": 7767,
      "Ġcamel": 7768,
      "Ġcamaro": 7769,
      "Ġhuys": 7770,
      "Ġkopinski": 7771,
      "Ġmodelling": 7772,
      "Ġanimated": 7773,
      "gging": 7774,
      "Ġflamboy": 7775,
      "!!!!!!": 7776,
      "!!!!!!,": 7777,
      "Ġaliena": 7778,
      "Ġguid": 7779,
      "Ġvegas": 7780,
      "fied": 7781,
      "mona": 7782,
      "monstrous": 7783,
      "Ġpicab": 7784,
      "yoi": 7785,
      "Ġaffection": 7786,
      "vagant": 7787,
      "Ġthought": 7788,
      "Ġdreaming": 7789,
      "Ġdreamistic": 7790,
      "Ġdreamlike": 7791,
      "Ġminnen": 7792,
      "Ġsplatters": 7793,
      "outstanding": 7794,
      "Ġnail": 7795,
      "Ġsamus": 7796,
      "nightcore": 7797,
      "Ġfluida": 7798,
      "Ġretrobattle": 7799,
      "Ġrefined": 7800,
      "idabstrfluid": 7801,
      "Ġsteamy": 7802,
      "Ġdayglo": 7803,
      "Ġcollid": 7804,
      "Ġesoteric": 7805,
      "Ġesperant": 7806,
      "Ġamerica": 7807,
      "italart": 7808,
      "Ġichikawa": 7809,
      "Ġpallet": 7810,
      "Ġtwitter": 7811,
      "Ġtechnicolor": 7812,
      "Ġharper": 7813,
      "Ġharnett": 7814,
      "Ġharuko": 7815,
      "Ġhandpaint": 7816,
      "Ġreflecting": 7817,
      "Ġfairies": 7818,
      "Ġauto": 7819,
      "Ġferret": 7820,
      "mentary": 7821,
      "Ġkatie": 7822,
      "extre": 7823,
      "Ġairport": 7824,
      "Ġfigurative": 7825,
      "Ġfrazzeta": 7826,
      "weiler": 7827,
      "Ġlevels": 7828,
      "Ġrichmond": 7829,
      "Ġmachinery": 7830,
      "Ġchebok": 7831,
      "Ġdogs": 7832,
      "Ġfisherman": 7833,
      "Ġcampus": 7834,
      "hyperdetailed": 7835,
      "Ġmorgan": 7836,
      "Ġsteelpunk": 7837,
      "Ġschorr": 7838,
      "Ġcircular": 7839,
      "Ġsleep": 7840,
      "scar": 7841,
      "scary": 7842,
      "Ġpeach": 7843,
      "Ġpeasant": 7844,
      "Ġglamor": 7845,
      "Ġwilliams": 7846,
      "Ġfries": 7847,
      "Ġshapeshi": 7848,
      "Ġcourty": 7849,
      "Ġcinematography": 7850,
      "Ġboyce": 7851,
      "Ġcele": 7852,
      "Ġfrost": 7853,
      "Ġpolanski": 7854,
      "Ġgunpla": 7855,
      "richard": 7856,
      "Ġswords": 7857,
      "Ġtuxedo": 7858,
      "Ġbudd": 7859,
      "Ġgateway": 7860,
      "style": 7861,
      "stylized": 7862,
      "Ġshowroom": 7863,
      "Ġdungeon": 7864,
      "Ġwatchmen": 7865,
      "Ġfeathered": 7866,
      "Ġmixture": 7867,
      "Ġcorrea": 7868,
      "Ġsorolla": 7869,
      "Ġballen": 7870,
      "Ġbrutalism": 7871,
      "ouin": 7872,
      "Ġsomething": 7873,
      "Ġkarcz": 7874,
      "Ġlipstick": 7875,
      "Ġturning": 7876,
      "Ġstructures": 7877,
      "Ġplayground": 7878,
      "Ġmercury": 7879,
      "Ġmerigold": 7880,
      "Ġcreepypasta": 7881,
      "Ġgross": 7882,
      "Ġmicrophone": 7883,
      "Ġturtles": 7884,
      "Ġstormtro": 7885,
      "Ġyata": 7886,
      "Ġyayoi": 7887,
      "Ġberkey": 7888,
      "transdimensional": 7889,
      "Ġeverywhere": 7890,
      "Ġspoon": 7891,
      "Ġnielsen": 7892,
      "Ġstrike": 7893,
      "awardwinning": 7894,
      "Ġblocks": 7895,
      "Ġpsyche": 7896,
      "Ġpsycho": 7897,
      "Ġsweet": 7898,
      "Ġscarred": 7899,
      "Ġlamp": 7900,
      "Ġsymbio": 7901,
      "Ġvrubel": 7902,
      "Ġovergrowth": 7903,
      "ĠðŁĲ¸": 7904,
      "Ġglitchcore": 7905,
      "Ġpresen": 7906,
      "banese": 7907,
      "wonderland": 7908,
      "Ġhoward": 7909,
      "Ġtenant": 7910,
      "Ġsydney": 7911,
      "Ġtranscending": 7912,
      "Ġknees": 7913,
      "princess": 7914,
      "Ġcalled": 7915,
      "Ġpigeon": 7916,
      "Ġsorceress": 7917,
      "fluidabstrfluid": 7918,
      "Ġslimy": 7919,
      "Ġdommy": 7920,
      "Ġfallout": 7921,
      "Ġshopping": 7922,
      "Ġpolished": 7923,
      "Ġfruits": 7924,
      "Ġtrooper": 7925,
      "Ġstoic": 7926,
      "sheet": 7927,
      "Ġcheval": 7928,
      "mption": 7929,
      "Ġputting": 7930,
      "Ġhamster": 7931,
      "Ġgoro": 7932,
      "Ġsharks": 7933,
      "Ġworkshop": 7934,
      "Ġgloomy": 7935,
      "Ġbastida": 7936,
      "longest": 7937,
      "Ġæľ": 7938,
      "Ġgladiator": 7939,
      "Ġtonal": 7940,
      "Ġtongue": 7941,
      "Ġturbine": 7942,
      "Ġelysium": 7943,
      "Ġartificia": 7944,
      "Ġpleasant": 7945,
      "strange": 7946,
      "Ġlloyd": 7947,
      "Ġtotally": 7948,
      "Ġcompletely": 7949,
      "Ġcomplementary": 7950,
      "Ġimposing": 7951,
      "various": 7952,
      "Ġuniversity": 7953,
      "burning": 7954,
      "Ġbrosmin": 7955,
      "Ġpedro": 7956,
      "Ġpelton": 7957,
      "Ġprivate": 7958,
      "Ġfilthy": 7959,
      "Ġwright": 7960,
      "Ġgangster": 7961,
      "Ġclockpunk": 7962,
      "Ġcockroach": 7963,
      "Ġneverending": 7964,
      "Ġstealth": 7965,
      "Ġfluxication": 7966,
      "average": 7967,
      "frontal": 7968,
      "pixel": 7969,
      "seamless": 7970,
      "Ġsenator": 7971,
      "Ġmommy": 7972,
      "Ġgonza": 7973,
      "Ġventuring": 7974,
      "Ġrotten": 7975,
      "Ġmemory": 7976,
      "Ġcolossus": 7977,
      "Ġdrifter": 7978,
      "Ġminiature": 7979,
      "scientific": 7980,
      "Ġelderly": 7981,
      "Ġfujita": 7982,
      "cordia": 7983,
      "frodo": 7984,
      "Ġappea": 7985,
      "Ġossdraws": 7986,
      "Ġhunting": 7987,
      "Ġwanting": 7988,
      "alogue": 7989,
      "Ġrussell": 7990,
      "Ġjedd": 7991,
      "Ġsports": 7992,
      "Ġgorillaz": 7993,
      "Ġaquatic": 7994,
      "Ġdealership": 7995,
      "furcated": 7996,
      "glowwave": 7997,
      "golden": 7998,
      "museum": 7999,
      "turtle": 8000,
      "Ġbritish": 8001,
      "Ġcaliforn": 8002,
      "Ġpistol": 8003,
      "Ġintellig": 8004,
      "Ġkelp": 8005,
      "Ġresource": 8006,
      "Ġtraits": 8007,
      "Ġmastree": 8008,
      "Ġrosie": 8009,
      "Ġphantastica": 8010,
      "Ġuncrop": 8011,
      "Ġuntethered": 8012,
      "Ġscarpinato": 8013,
      "Ġhappiness": 8014,
      "Ġragnarok": 8015,
      "Ġalfons": 8016,
      "Ġdescending": 8017,
      "Ġmeaningful": 8018,
      "Ġnoodles": 8019,
      "Ġnostalgia": 8020,
      "Ġcrackhead": 8021,
      "Ġexpansive": 8022,
      "Ġcolonel": 8023,
      "Ġbalthus": 8024,
      "Ġsweaty": 8025,
      "Ġvelvet": 8026,
      "Ġfunctional": 8027,
      "benedict": 8028,
      "diagram": 8029,
      "pelin": 8030,
      "Ġidentical": 8031,
      "Ġagnes": 8032,
      "Ġberserk": 8033,
      "Ġbrenneise": 8034,
      "Ġcumberbatch": 8035,
      "Ġdigitalart": 8036,
      "Ġdanton": 8037,
      "Ġpepper": 8038,
      "Ġpioneer": 8039,
      "Ġozzimo": 8040,
      "Ġartnouveau": 8041,
      "Ġdelorean": 8042,
      "Ġkusama": 8043,
      "Ġredemption": 8044,
      "Ġtypical": 8045,
      "Ġparasols": 8046,
      "Ġthumbs": 8047,
      "Ġnudibranch": 8048,
      "Ġmacabre": 8049,
      "Ġmaghradze": 8050,
      "Ġanicientwarrior": 8051,
      "Ġfoliage": 8052,
      "Ġbasketball": 8053,
      "Ġbazaar": 8054,
      "Ġbavarian": 8055,
      "Ġlecouffe": 8056,
      "Ġllanas": 8057,
      "Ġzeppelin": 8058,
      "Ġzuckerberg": 8059,
      "Ġcavalry": 8060,
      "Ġblacksmith": 8061,
      "Ġabomination": 8062,
      "Ġtadao": 8063,
      "Ġprocedural": 8064,
      "Ġredshift": 8065,
      "Ġinspiring": 8066,
      "Ġiwakura": 8067,
      "Ġdisollution": 8068,
      "Ġmonolith": 8069,
      "Ġaccessories": 8070,
      "Ġgametextures": 8071,
      "Ġhuysum": 8072,
      "Ġflamboyant": 8073,
      "monstrously": 8074,
      "Ġpicabia": 8075,
      "Ġretrobattlestations": 8076,
      "Ġcolliding": 8077,
      "Ġesperanto": 8078,
      "Ġchebokha": 8079,
      "Ġcourtyard": 8080,
      "ag": 8081,
      "aj": 8082,
      "ao": 8083,
      "aret": 8084,
      "apocalyptic": 8085,
      "bl": 8086,
      "ben": 8087,
      "bil": 8088,
      "bine": 8089,
      "brow": 8090,
      "bub": 8091,
      "bution": 8092,
      "butterf": 8093,
      "card": 8094,
      "cond": 8095,
      "cinestill": 8096,
      "camp": 8097,
      "clay": 8098,
      "dor": 8099,
      "dom": 8100,
      "dies": 8101,
      "ezy": 8102,
      "fc": 8103,
      "fly": 8104,
      "flix": 8105,
      "gic": 8106,
      "gor": 8107,
      "gol": 8108,
      "gun": 8109,
      "grom": 8110,
      "gren": 8111,
      "grin": 8112,
      "gmen": 8113,
      "hot": 8114,
      "hand": 8115,
      "hulk": 8116,
      "hartz": 8117,
      "ited": 8118,
      "ique": 8119,
      "ift": 8120,
      "ika": 8121,
      "ience": 8122,
      "istran": 8123,
      "japan": 8124,
      "kels": 8125,
      "llies": 8126,
      "lsd": 8127,
      "mu": 8128,
      "mit": 8129,
      "mili": 8130,
      "ng": 8131,
      "nes": 8132,
      "now": 8133,
      "nie": 8134,
      "nature": 8135,
      "name": 8136,
      "norman": 8137,
      "nova": 8138,
      "oh": 8139,
      "ocy": 8140,
      "ourney": 8141,
      "par": 8142,
      "pol": 8143,
      "pres": 8144,
      "pelle": 8145,
      "sar": 8146,
      "sut": 8147,
      "squ": 8148,
      "spe": 8149,
      "skeleton": 8150,
      "tricate": 8151,
      "tles": 8152,
      "tronic": 8153,
      "utiful": 8154,
      "vil": 8155,
      "vion": 8156,
      "vely": 8157,
      "vish": 8158,
      "vism": 8159,
      "vens": 8160,
      "vampire": 8161,
      "vladimir": 8162,
      "veteran": 8163,
      "wis": 8164,
      "wig": 8165,
      "wled": 8166,
      "year": 8167,
      "zar": 8168,
      "zang": 8169,
      "zalski": 8170,
      "ªðŁĩ": 8171,
      "®,": 8172,
      "¹,": 8173,
      "Ð°": 8174,
      "Ð»": 8175,
      "Ġè": 8176,
      "Ġund": 8177,
      "Ġuse": 8178,
      "ĥ,": 8179,
      "inx": 8180,
      "inot": 8181,
      "inov": 8182,
      "Ġaud": 8183,
      "Ġagent": 8184,
      "Ġaquar": 8185,
      "Ġaiman": 8186,
      "Ġasymmetrical": 8187,
      "Ġaudio": 8188,
      "Ġaosh": 8189,
      "erick": 8190,
      "Ġsile": 8191,
      "Ġsss": 8192,
      "Ġstal": 8193,
      "Ġsear": 8194,
      "Ġsini": 8195,
      "Ġsony": 8196,
      "Ġbent": 8197,
      "Ġblow": 8198,
      "Ġbold": 8199,
      "Ġbond": 8200,
      "Ġbetta": 8201,
      "Ġbrian": 8202,
      "Ġblown": 8203,
      "Ġbrick": 8204,
      "Ġbisson": 8205,
      "ont": 8206,
      "onents": 8207,
      "remov": 8208,
      "reotype": 8209,
      "tag": 8210,
      "tamer": 8211,
      "tarot": 8212,
      "Ġcrt": 8213,
      "Ġcly": 8214,
      "Ġcere": 8215,
      "Ġcrop": 8216,
      "ratic": 8217,
      "Ġdas": 8218,
      "Ġdome": 8219,
      "Ġdalle": 8220,
      "Ġdday": 8221,
      "Ġdapple": 8222,
      "tiger": 8223,
      "tially": 8224,
      "tility": 8225,
      "ndant": 8226,
      "Ġpress": 8227,
      "Ġprac": 8228,
      "Ġpred": 8229,
      "Ġpub": 8230,
      "Ġpitch": 8231,
      "Ġpue": 8232,
      "ingle": 8233,
      "Ġfen": 8234,
      "Ġfent": 8235,
      "Ġfkey": 8236,
      "Ġflint": 8237,
      "Ġfinger": 8238,
      "Ġmine": 8239,
      "Ġmies": 8240,
      "ani": 8241,
      "anes": 8242,
      "Ġori": 8243,
      "liquid": 8244,
      "litary": 8245,
      "Ġhul": 8246,
      "Ġheld": 8247,
      "Ġhive": 8248,
      "Ġhunter": 8249,
      "thers": 8250,
      "thanos": 8251,
      "Ġwon": 8252,
      "Ġwong": 8253,
      "Ġwillem": 8254,
      "Ġgand": 8255,
      "Ġgary": 8256,
      "Ġgawa": 8257,
      "Ġgude": 8258,
      "arine": 8259,
      "artamer": 8260,
      "eno": 8261,
      "enity": 8262,
      "Ġbyzant": 8263,
      "ority": 8264,
      "ghua": 8265,
      "Ġdew": 8266,
      "Ġdeer": 8267,
      "Ġdecal": 8268,
      "Ġdepression": 8269,
      "test": 8270,
      "als": 8271,
      "stful": 8272,
      "stry": 8273,
      "strokes": 8274,
      "Ġina": 8275,
      "Ġintegra": 8276,
      "Ġkur": 8277,
      "Ġkent": 8278,
      "Ġkarp": 8279,
      "Ġkush": 8280,
      "Ġkart": 8281,
      "Ġkak": 8282,
      "Ġkings": 8283,
      "Ġkiss": 8284,
      "Ġkhd": 8285,
      "Ġkelly": 8286,
      "Ġknown": 8287,
      "Ġkitt": 8288,
      "Ġkfc": 8289,
      "tician": 8290,
      "Ġrez": 8291,
      "Ġreali": 8292,
      "Ġreima": 8293,
      "Ġreality": 8294,
      "Ġrearing": 8295,
      "Ġreport": 8296,
      "Ġreverse": 8297,
      "Ġtr": 8298,
      "Ġtne": 8299,
      "Ġtent": 8300,
      "Ġtrying": 8301,
      "Ġtsut": 8302,
      "esa": 8303,
      "esti": 8304,
      "establishing": 8305,
      "uls": 8306,
      "unar": 8307,
      "Ġei": 8308,
      "Ġeis": 8309,
      "Ġestra": 8310,
      "Ġeman": 8311,
      "Ġeme": 8312,
      "Ġeff": 8313,
      "iles": 8314,
      "cell": 8315,
      "ception": 8316,
      "lock": 8317,
      "Ġvodka": 8318,
      "itc": 8319,
      "las": 8320,
      "islaw": 8321,
      "main": 8322,
      "mart": 8323,
      "matte": 8324,
      "Ġpame": 8325,
      "Ġliu": 8326,
      "Ġlilies": 8327,
      "Ġlillies": 8328,
      "Ġthing": 8329,
      "Ġthigh": 8330,
      "Ġthird": 8331,
      "Ġthief": 8332,
      "Ġshed": 8333,
      "Ġshine": 8334,
      "Ġshows": 8335,
      "elze": 8336,
      "atti": 8337,
      "atur": 8338,
      "chy": 8339,
      "cham": 8340,
      "chinese": 8341,
      "static": 8342,
      "stable": 8343,
      "stapocalyptic": 8344,
      "Ġrive": 8345,
      "Ġrios": 8346,
      "Ġrinot": 8347,
      "Ġnc": 8348,
      "Ġnel": 8349,
      "Ġnasa": 8350,
      "Ġntricate": 8351,
      "eas": 8352,
      "igi": 8353,
      "omu": 8354,
      "phant": 8355,
      "idized": 8356,
      "Ġmaw": 8357,
      "Ġmaul": 8358,
      "Ġstro": 8359,
      "Ġstran": 8360,
      "Ġstret": 8361,
      "peritas": 8362,
      "alid": 8363,
      "Ġpogrom": 8364,
      "Ġpostapocalyptic": 8365,
      "ssos": 8366,
      "nderson": 8367,
      "Ġwistful": 8368,
      "luc": 8369,
      "lure": 8370,
      "amer": 8371,
      "amis": 8372,
      "amarine": 8373,
      "alisa": 8374,
      "Ġanal": 8375,
      "Ġanubis": 8376,
      "shine": 8377,
      "nected": 8378,
      "ctus": 8379,
      "ctly": 8380,
      "ades": 8381,
      "adratic": 8382,
      "Ġrol": 8383,
      "Ġrohe": 8384,
      "Ġroberto": 8385,
      "Ġroots": 8386,
      "Ġrozalski": 8387,
      "Ġrenderman": 8388,
      "Ġenormous": 8389,
      "ateau": 8390,
      "Ġfound": 8391,
      "ode": 8392,
      "ods": 8393,
      "Ġconj": 8394,
      "Ġintert": 8395,
      "imm": 8396,
      "seid": 8397,
      "strate": 8398,
      "Ġbama": 8399,
      "Ġtrek": 8400,
      "Ġtrends": 8401,
      "Ġtrench": 8402,
      "Ġengline": 8403,
      "Ġhyperspace": 8404,
      "Ġhyperealistic": 8405,
      "Ġcoloring": 8406,
      "Ġfaci": 8407,
      "Ġfasc": 8408,
      "Ġchan": 8409,
      "Ġchal": 8410,
      "Ġcham": 8411,
      "Ġchap": 8412,
      "Ġchip": 8413,
      "Ġchocolate": 8414,
      "Ġchesley": 8415,
      "Ġchateau": 8416,
      "Ġunfa": 8417,
      "Ġuneven": 8418,
      "post": 8419,
      "pool": 8420,
      "point": 8421,
      "pouring": 8422,
      "poleon": 8423,
      "rancy": 8424,
      "Ġscre": 8425,
      "Ġscra": 8426,
      "Ġscot": 8427,
      "moon": 8428,
      "mock": 8429,
      "Ġlightyear": 8430,
      "cusi": 8431,
      "Ġbeelze": 8432,
      "Ġleads": 8433,
      "Ġletho": 8434,
      "Ġlepage": 8435,
      "Ġlebanese": 8436,
      "Ġlewis": 8437,
      "Ġhaw": 8438,
      "Ġrais": 8439,
      "Ġspell": 8440,
      "Ġspinning": 8441,
      "Ġspiders": 8442,
      "Ġstands": 8443,
      "ria": 8444,
      "rilic": 8445,
      "rific": 8446,
      "ques": 8447,
      "Ġyin": 8448,
      "Ġyard": 8449,
      "Ġlaros": 8450,
      "Ġlacha": 8451,
      "Ġlabo": 8452,
      "Ġlaby": 8453,
      "Ġalter": 8454,
      "Ġalong": 8455,
      "Ġallure": 8456,
      "Ġfantast": 8457,
      "Ġargy": 8458,
      "berries": 8459,
      "Ġfacebook": 8460,
      "romorphic": 8461,
      "Ġcole": 8462,
      "Ġcoyp": 8463,
      "Ġlovely": 8464,
      "Ġtou": 8465,
      "Ġtoon": 8466,
      "Ġmural": 8467,
      "Ġmuham": 8468,
      "Ġcather": 8469,
      "Ġcactus": 8470,
      "Ġatrey": 8471,
      "Ġblackboard": 8472,
      "Ġexif": 8473,
      "Ġexposure": 8474,
      "Ġneko": 8475,
      "Ġtest": 8476,
      "Ġtelet": 8477,
      "Ġteena": 8478,
      "Ġwatermel": 8479,
      "ask": 8480,
      "Ġcombat": 8481,
      "Ġcommission": 8482,
      "Ġcommand": 8483,
      "Ġdesk": 8484,
      "apes": 8485,
      "Ġbring": 8486,
      "Ġoilpainting": 8487,
      "Ġsuzuki": 8488,
      "mann": 8489,
      "Ġdaugh": 8490,
      "Ġboo": 8491,
      "Ġtags": 8492,
      "Ġtatoo": 8493,
      "Ġbike": 8494,
      "Ġdarkwave": 8495,
      "Ġelephant": 8496,
      "nacio": 8497,
      "lical": 8498,
      "Ġsunlit": 8499,
      "Ġsunray": 8500,
      "Ġsunrays": 8501,
      "Ġsunshine": 8502,
      "Ġruth": 8503,
      "boration": 8504,
      "Ġasperitas": 8505,
      "Ġwinkel": 8506,
      "Ġproudly": 8507,
      "Ġprostrate": 8508,
      "Ġdora": 8509,
      "Ġfuturiste": 8510,
      "Ġyoji": 8511,
      "coin": 8512,
      "copic": 8513,
      "count": 8514,
      "ðŁİ": 8515,
      "ðŁ¤ĸ": 8516,
      "ðŁ§ļ": 8517,
      "Ġsymetric": 8518,
      "Ġmeme": 8519,
      "Ġmechan": 8520,
      "Ġeden": 8521,
      "Ġsolitary": 8522,
      "rowning": 8523,
      "Ġgirlfrie": 8524,
      "Ġmagenta": 8525,
      "Ġorbit": 8526,
      "Ġhairy": 8527,
      "Ġsurgery": 8528,
      "Ġmatt": 8529,
      "andre": 8530,
      "ubstep": 8531,
      "Ġvibrancy": 8532,
      "wards": 8533,
      "Ġjoel": 8534,
      "Ġjolie": 8535,
      "fters": 8536,
      "Ġhole": 8537,
      "Ġtitles": 8538,
      "Ġleave": 8539,
      "Ġheron": 8540,
      "Ġgigachad": 8541,
      "Ġnighttime": 8542,
      "Ġsauron": 8543,
      "Ġmonalisa": 8544,
      "Ġbux": 8545,
      "Ġacrilic": 8546,
      "grand": 8547,
      "grass": 8548,
      "ĠðŁ¤": 8549,
      "Ġgrin": 8550,
      "skull": 8551,
      "Ġcraven": 8552,
      "Ġformat": 8553,
      "Ġforrest": 8554,
      "Ġsupernova": 8555,
      "wak": 8556,
      "Ġstarring": 8557,
      "Ġplain": 8558,
      "top": 8559,
      "Ġaddon": 8560,
      "Ġdying": 8561,
      "Ġelvis": 8562,
      "Ġquadratic": 8563,
      "Ġmyself": 8564,
      "Ġmyname": 8565,
      "Ġvanitas": 8566,
      "Ġgamecube": 8567,
      "Ġangst": 8568,
      "osis": 8569,
      "pressing": 8570,
      "Ġcarlo": 8571,
      "Ġcarvaggio": 8572,
      "Ġcarbine": 8573,
      "Ġcoloured": 8574,
      "Ġluigi": 8575,
      "Ġmedical": 8576,
      "Ġoutst": 8577,
      "Ġworker": 8578,
      "Ġbrightly": 8579,
      "Ġhorkey": 8580,
      "Ġgozilla": 8581,
      "Ġgaunter": 8582,
      "people": 8583,
      "bach": 8584,
      "base": 8585,
      "baby": 8586,
      "Ġutility": 8587,
      "lenvironement": 8588,
      "Ġimm": 8589,
      "Ġaliens": 8590,
      "Ġseed": 8591,
      "Ġsemen": 8592,
      "Ġarmchair": 8593,
      "rinth": 8594,
      "Ġcreated": 8595,
      "Ġcamo": 8596,
      "Ġflorence": 8597,
      "Ġkoala": 8598,
      "Ġemitting": 8599,
      "Ġshinkawa": 8600,
      "Ġtrack": 8601,
      "Ġtravis": 8602,
      "Ġbrushstrokes": 8603,
      "Ġflares": 8604,
      "Ġbeam": 8605,
      "Ġgulet": 8606,
      "Ġguiller": 8607,
      "Ġgek": 8608,
      "five": 8609,
      "Ġpicking": 8610,
      "Ġimagery": 8611,
      "Ġprinted": 8612,
      "Ġmelted": 8613,
      "david": 8614,
      "your": 8615,
      "Ġafro": 8616,
      "Ġafremov": 8617,
      "brity": 8618,
      "Ġmuslim": 8619,
      "Ġskinny": 8620,
      "Ġskinned": 8621,
      "Ġblend": 8622,
      "Ġdrips": 8623,
      "vage": 8624,
      "Ġswift": 8625,
      "Ġvict": 8626,
      "Ġheat": 8627,
      "Ġhems": 8628,
      "Ġhenderson": 8629,
      "Ġminent": 8630,
      "llaine": 8631,
      "zach": 8632,
      "Ġsolar": 8633,
      "Ġfineart": 8634,
      "Ġfineartamer": 8635,
      "Ġhelmets": 8636,
      "borne": 8637,
      "icked": 8638,
      "Ġnasty": 8639,
      "little": 8640,
      "Ġpete": 8641,
      "Ġpendant": 8642,
      "Ġfinland": 8643,
      "Ġfinished": 8644,
      "gouache": 8645,
      "Ġshoe": 8646,
      "haus": 8647,
      "Ġradia": 8648,
      "sule": 8649,
      "Ġmiho": 8650,
      "Ġilluminated": 8651,
      "Ġretrofuturism": 8652,
      "Ġkong": 8653,
      "Ġshift": 8654,
      "Ġshikin": 8655,
      "Ġmooncake": 8656,
      "Ġsteaming": 8657,
      "Ġimpressionist": 8658,
      "uele": 8659,
      "Ġwalks": 8660,
      "Ġwalmart": 8661,
      "Ġporcellaine": 8662,
      "athy": 8663,
      "Ġgive": 8664,
      "Ġinfini": 8665,
      "Ġunderstanding": 8666,
      "Ġakira": 8667,
      "Ġakihito": 8668,
      "wlstar": 8669,
      "Ġcollier": 8670,
      "Ġescape": 8671,
      "Ġcrystalli": 8672,
      "iori": 8673,
      "Ġriders": 8674,
      "Ġraytrace": 8675,
      "Ġmarket": 8676,
      "Ġdonwood": 8677,
      "Ġtechno": 8678,
      "brawlstar": 8679,
      "Ġintercon": 8680,
      "Ġweaver": 8681,
      "Ġwearable": 8682,
      "Ġpanel": 8683,
      "Ġdeepdream": 8684,
      "Ġtalk": 8685,
      "Ġkimon": 8686,
      "linger": 8687,
      "Ġgerhartz": 8688,
      "Ġlowbrow": 8689,
      "Ġivy": 8690,
      "Ġtang": 8691,
      "Ġseamless": 8692,
      "Ġdirectly": 8693,
      "expressive": 8694,
      "exposed": 8695,
      "wealthy": 8696,
      "Ġburrows": 8697,
      "Ġowls": 8698,
      "Ġvoxel": 8699,
      "Ġrichard": 8700,
      "Ġcroc": 8701,
      "Ġcroods": 8702,
      "Ġcheese": 8703,
      "Ġcharles": 8704,
      "Ġspiraling": 8705,
      "Ġcampsite": 8706,
      "hyperrealist": 8707,
      "Ġsinging": 8708,
      "versial": 8709,
      "Ġciri": 8710,
      "Ġarcology": 8711,
      "Ġsubtle": 8712,
      "entation": 8713,
      "Ġbrother": 8714,
      "Ġtowards": 8715,
      "Ġserious": 8716,
      "Ġparlor": 8717,
      "Ġpartially": 8718,
      "Ġextravagant": 8719,
      "Ġgathering": 8720,
      "Ġsolondzas": 8721,
      "Ġxin": 8722,
      "utopian": 8723,
      "Ġtori": 8724,
      "Ġtoro": 8725,
      "Ġphotoshoting": 8726,
      "Ġbreaking": 8727,
      "Ġvase": 8728,
      "Ġpolar": 8729,
      "Ġwingspan": 8730,
      "tesque": 8731,
      "Ġgrimes": 8732,
      "ethereal": 8733,
      "Ġclassy": 8734,
      "canio": 8735,
      "Ġsandra": 8736,
      "Ġcrowded": 8737,
      "Ġformal": 8738,
      "Ġvermili": 8739,
      "Ġchiho": 8740,
      "Ġzhou": 8741,
      "Ġzhong": 8742,
      "Ġbank": 8743,
      "Ġbanjo": 8744,
      "Ġbowl": 8745,
      "Ġbalmain": 8746,
      "Ġryan": 8747,
      "Ġjenga": 8748,
      "modern": 8749,
      "nose": 8750,
      "Ġsticking": 8751,
      "Ġnice": 8752,
      "Ġjonze": 8753,
      "Ġmonastery": 8754,
      "Ġmillenn": 8755,
      "Ġturned": 8756,
      "Ġcandid": 8757,
      "Ġjeffery": 8758,
      "Ġarabian": 8759,
      "Ġcupcake": 8760,
      "Ġhimself": 8761,
      "Ġconference": 8762,
      "galactic": 8763,
      "Ġbutton": 8764,
      "Ġbuttig": 8765,
      "Ġglorious": 8766,
      "Ġgrotesque": 8767,
      "Ġartists": 8768,
      "Ġcomponents": 8769,
      "surreal": 8770,
      "Ġemerging": 8771,
      "Ġjules": 8772,
      "Ġsymbolic": 8773,
      "batman": 8774,
      "sneakers": 8775,
      "rotte": 8776,
      "Ġsparkles": 8777,
      "Ġcaptive": 8778,
      "Ġdoorway": 8779,
      "peter": 8780,
      "Ġslaanes": 8781,
      "Ġblocking": 8782,
      "Ġdinner": 8783,
      "Ġdinsey": 8784,
      "Ġscarlet": 8785,
      "Ġterrier": 8786,
      "whiskey": 8787,
      "Ġzeiss": 8788,
      "Ġbourotte": 8789,
      "Ġovergrowing": 8790,
      "ĠðŁĲ°": 8791,
      "guerreotype": 8792,
      "worth": 8793,
      "Ġbranch": 8794,
      "Ġbrancusi": 8795,
      "Ġdjungle": 8796,
      "marble": 8797,
      "ĠãĢ": 8798,
      "Ġgalore": 8799,
      "Ġcontroversial": 8800,
      "Ġbasement": 8801,
      "Ġbabylon": 8802,
      "Ġshould": 8803,
      "curled": 8804,
      "Ġbulakh": 8805,
      "Ġbills": 8806,
      "Ġabsurdist": 8807,
      "Ġpyramids": 8808,
      "Ġomni": 8809,
      "Ġcooper": 8810,
      "ðŁįĦ": 8811,
      "Ġsummit": 8812,
      "Ġpolitician": 8813,
      "Ġanthromorphic": 8814,
      "ĠðŁĮ±": 8815,
      "ĠðŁĮ¿": 8816,
      "Ġludwig": 8817,
      "Ġbonestell": 8818,
      "Ġconquering": 8819,
      "Ġinternet": 8820,
      "Ġbathroom": 8821,
      "Ġdisplayed": 8822,
      "Ġmeditation": 8823,
      "Ġpolycount": 8824,
      "Ġsigourney": 8825,
      "Ġcigaret": 8826,
      "Ġfrederick": 8827,
      "Ġhiding": 8828,
      "Ġhammock": 8829,
      "Ġversus": 8830,
      "Ġversion": 8831,
      "Ġsprawled": 8832,
      "Ġpossessed": 8833,
      "Ġbelts": 8834,
      "Ġcarpenter": 8835,
      "Ġgetting": 8836,
      "Ġvenus": 8837,
      "Ġvenice": 8838,
      "mads": 8839,
      "Ġdarrow": 8840,
      "Ġdelville": 8841,
      "Ġvelcro": 8842,
      "Ġnetflix": 8843,
      "Ġartificial": 8844,
      "Ġterrace": 8845,
      "planar": 8846,
      "planet": 8847,
      "Ġprussian": 8848,
      "Ġkiddie": 8849,
      "Ġthunderstorm": 8850,
      "Ġgelatinosis": 8851,
      "Ġgriffith": 8852,
      "Ġsaturn": 8853,
      "ratory": 8854,
      "Ġdiagram": 8855,
      "Ġdiablo": 8856,
      "Ġuniversum": 8857,
      "Ġexhibit": 8858,
      "Ġteahouse": 8859,
      "Ġprotein": 8860,
      "Ġprotect": 8861,
      "Ġnatalia": 8862,
      "spiderman": 8863,
      "jeffree": 8864,
      "burger": 8865,
      "sunflower": 8866,
      "Ġpillars": 8867,
      "Ġmurder": 8868,
      "Ġecclectic": 8869,
      "ominous": 8870,
      "Ġcockpit": 8871,
      "ĠðŁĩªðŁĩ": 8872,
      "Ġcottagecore": 8873,
      "Ġfernandez": 8874,
      "heavy": 8875,
      "swamp": 8876,
      "someone": 8877,
      "Ġcrusta": 8878,
      "Ġmollis": 8879,
      "thomas": 8880,
      "Ġwound": 8881,
      "Ġlistening": 8882,
      "Ġnihei": 8883,
      "Ġspanning": 8884,
      "Ġspanish": 8885,
      "Ġsparrow": 8886,
      "Ġexcited": 8887,
      "Ġsurfing": 8888,
      "Ġsequents": 8889,
      "Ġdolls": 8890,
      "Ġawesome": 8891,
      "Ġsidious": 8892,
      "Ġsunken": 8893,
      "Ġcubo": 8894,
      "Ġpieces": 8895,
      "Ġhomer": 8896,
      "techn": 8897,
      "urnegrin": 8898,
      "Ġzombies": 8899,
      "Ġtapestry": 8900,
      "Ġindigo": 8901,
      "Ġoptimism": 8902,
      "Ġhiroshi": 8903,
      "Ġresearcher": 8904,
      "Ġbamboos": 8905,
      "Ġtessellation": 8906,
      "akihito": 8907,
      "floating": 8908,
      "figure": 8909,
      "Ġignacio": 8910,
      "Ġqueens": 8911,
      "Ġbitcoin": 8912,
      "Ġfolk": 8913,
      "Ġreedus": 8914,
      "Ġviolet": 8915,
      "chenbach": 8916,
      "Ġjacen": 8917,
      "Ġpotatoes": 8918,
      "Ġannoyed": 8919,
      "Ġenjoying": 8920,
      "Ġlarson": 8921,
      "Ġnewspaper": 8922,
      "Ġtitanfall": 8923,
      "Ġbugatti": 8924,
      "Ġbraids": 8925,
      "Ġmikkels": 8926,
      "Ġschriek": 8927,
      "Ġvalentine": 8928,
      "Ġspecies": 8929,
      "Ġgunslinger": 8930,
      "Ġballoon": 8931,
      "Ġgiacometti": 8932,
      "echno": 8933,
      "Ġingame": 8934,
      "Ġathena": 8935,
      "Ġaberration": 8936,
      "ervescent": 8937,
      "Ġbangs": 8938,
      "reclaimed": 8939,
      "Ġcriin": 8940,
      "Ġoblivion": 8941,
      "Ġosimulated": 8942,
      "Ġknossos": 8943,
      "Ġvillain": 8944,
      "chromia": 8945,
      "chicken": 8946,
      "Ġjolly": 8947,
      "Ġstuart": 8948,
      "Ġmortorcycle": 8949,
      "Ġyeezy": 8950,
      "Ġcopying": 8951,
      "Ġtendrils": 8952,
      "Ġprovoking": 8953,
      "Ġmaggiori": 8954,
      "Ġdisgusting": 8955,
      "Ġplatform": 8956,
      "Ġoutdoors": 8957,
      "Ġguido": 8958,
      "Ġautoma": 8959,
      "extremely": 8960,
      "Ġshapeshifters": 8961,
      "Ġcelebrity": 8962,
      "Ġbuddha": 8963,
      "Ġsymbiosi": 8964,
      "Ġpresented": 8965,
      "fluidabstrfluidgouache": 8966,
      "Ġcockroaches": 8967,
      "Ġgonzalez": 8968,
      "Ġappearance": 8969,
      "bilateral": 8970,
      "japanese": 8971,
      "zangief": 8972,
      "Ġaudrey": 8973,
      "Ġaquarium": 8974,
      "Ġaoshima": 8975,
      "Ġsinister": 8976,
      "Ġdascanio": 8977,
      "Ġdappled": 8978,
      "Ġpueblo": 8979,
      "Ġfenghua": 8980,
      "Ġfenton": 8981,
      "Ġhulled": 8982,
      "Ġgandalf": 8983,
      "Ġgawain": 8984,
      "Ġkarpathy": 8985,
      "Ġkushinov": 8986,
      "Ġkhdr": 8987,
      "Ġrealizing": 8988,
      "Ġreimagined": 8989,
      "Ġtsutomu": 8990,
      "Ġeisman": 8991,
      "Ġestrada": 8992,
      "Ġemanuele": 8993,
      "Ġemei": 8994,
      "Ġeffervescent": 8995,
      "Ġpamela": 8996,
      "Ġthighs": 8997,
      "Ġrinotuna": 8998,
      "Ġstretching": 8999,
      "Ġintertwined": 9000,
      "Ġfacility": 9001,
      "Ġfascin": 9002,
      "Ġunfazed": 9003,
      "Ġbeelzebub": 9004,
      "Ġspellbook": 9005,
      "Ġlarosa": 9006,
      "Ġlachapelle": 9007,
      "Ġlaboratory": 9008,
      "Ġlabyrinth": 9009,
      "Ġargyle": 9010,
      "Ġcoypel": 9011,
      "Ġmuhammad": 9012,
      "Ġcatherine": 9013,
      "Ġatreyu": 9014,
      "Ġteletub": 9015,
      "Ġteenager": 9016,
      "Ġwatermelon": 9017,
      "Ġdaughter": 9018,
      "Ġwinkelmann": 9019,
      "Ġgirlfriend": 9020,
      "Ġmynameistran": 9021,
      "Ġsemenowsky": 9022,
      "Ġguillermo": 9023,
      "Ġhemsworth": 9024,
      "Ġfineartamerica": 9025,
      "Ġshikinami": 9026,
      "brawlstars": 9027,
      "Ġinterconnected": 9028,
      "Ġvermilion": 9029,
      "Ġmillennium": 9030,
      "Ġbuttigieg": 9031,
      "Ġslaanesh": 9032,
      "Ġcigarette": 9033,
      "ĠðŁĩªðŁĩ¬": 9034,
      "Ġmikkelsen": 9035,
      "'re": 9036,
      "'ll": 9037,
      "av": 9038,
      "aber": 9039,
      "aond": 9040,
      "agu": 9041,
      "aissance": 9042,
      "bid": 9043,
      "blow": 9044,
      "bio": 9045,
      "bear": 9046,
      "bas": 9047,
      "bird": 9048,
      "bby": 9049,
      "butter": 9050,
      "bubble": 9051,
      "bden": 9052,
      "bbles": 9053,
      "buto": 9054,
      "bismuth": 9055,
      "cl": 9056,
      "cta": 9057,
      "cic": 9058,
      "cla": 9059,
      "cam": 9060,
      "cap": 9061,
      "cron": 9062,
      "come": 9063,
      "cons": 9064,
      "cings": 9065,
      "ciss": 9066,
      "ccer": 9067,
      "cumber": 9068,
      "ds": 9069,
      "del": 9070,
      "dov": 9071,
      "dish": 9072,
      "dles": 9073,
      "dore": 9074,
      "dune": 9075,
      "death": 9076,
      "dwayne": 9077,
      "ei": 9078,
      "eta": 9079,
      "eun": 9080,
      "fight": 9081,
      "fia": 9082,
      "gla": 9083,
      "got": 9084,
      "gne": 9085,
      "gran": 9086,
      "gard": 9087,
      "green": 9088,
      "gene": 9089,
      "gallery": 9090,
      "hic": 9091,
      "hat": 9092,
      "hom": 9093,
      "hind": 9094,
      "ij": 9095,
      "ius": 9096,
      "ied": 9097,
      "iju": 9098,
      "jan": 9099,
      "jim": 9100,
      "jump": 9101,
      "jask": 9102,
      "kka": 9103,
      "kinson": 9104,
      "lt": 9105,
      "lle": 9106,
      "lvan": 9107,
      "mark": 9108,
      "mished": 9109,
      "multi": 9110,
      "nu": 9111,
      "oo": 9112,
      "oph": 9113,
      "oqu": 9114,
      "otive": 9115,
      "oue": 9116,
      "pti": 9117,
      "put": 9118,
      "pig": 9119,
      "pia": 9120,
      "pas": 9121,
      "pense": 9122,
      "right": 9123,
      "rish": 9124,
      "rub": 9125,
      "runner": 9126,
      "rhiz": 9127,
      "spo": 9128,
      "sand": 9129,
      "swar": 9130,
      "spaceship": 9131,
      "satur": 9132,
      "tse": 9133,
      "town": 9134,
      "trump": 9135,
      "tropical": 9136,
      "uo": 9137,
      "uting": 9138,
      "uce": 9139,
      "uis": 9140,
      "uga": 9141,
      "uhaus": 9142,
      "vic": 9143,
      "vor": 9144,
      "vio": 9145,
      "volution": 9146,
      "vice": 9147,
      "vfluidabstrfluidgouache": 9148,
      "wy": 9149,
      "wea": 9150,
      "wlop": 9151,
      "wise": 9152,
      "woven": 9153,
      "xia": 9154,
      "yr": 9155,
      "yan": 9156,
      "yons": 9157,
      "zel": 9158,
      "zio": 9159,
      "zhen": 9160,
      "¡ðŁ§ļ": 9161,
      "¢,": 9162,
      "¥,": 9163,
      "©¡": 9164,
      "±±": 9165,
      "¶,": 9166,
      "¸,": 9167,
      "¹´": 9168,
      "»Ħ": 9169,
      "Ðµ": 9170,
      "Ðº": 9171,
      "Ð½": 9172,
      "ÑĤ": 9173,
      "Ñĥ": 9174,
      "Ġ'": 9175,
      "Ġ@": 9176,
      "Ġä": 9177,
      "Ġç": 9178,
      "Ġib": 9179,
      "Ġuss": 9180,
      "ĩ¤": 9181,
      "ı¸": 9182,
      "Ĵĥ,": 9183,
      "ĵ,": 9184,
      "ķĬ": 9185,
      "Ĺ,": 9186,
      "Ľ¨": 9187,
      "Ľª": 9188,
      "łĳ": 9189,
[...]
